#version: 0.2 - Trained by `huggingface/tokenizers`
다 .
▁ 그
▁ 있
▁ 이
▁ "
▁ 것
▁ 아
▁ 사
었 다.
▁ 하
▁ 나
으 로
. .
▁ 가
▁ 수
▁ 말
에 서
▁ 어
▁ 자
▁ 없
▁ 보
▁ 다
▁ 한
▁ 일
▁ 지
▁ 대
▁ 않
▁ 내
▁것 이
했 다.
▁ 모
▁ 시
▁ 마
▁ 때
니 다.
▁ 여
하 고
▁ 기
. "
▁사 람
▁있 는
▁ 생
▁ 정
▁ 들
▁ 거
▁ 전
▁ 주
에 게
▁ 무
▁ 바
하 는
▁ 소
▁ 오
▁ 우
▁ 부
▁ 되
▁ 고
다 는
▁있 었다.
요 .
들 이
았 다.
지 만
▁ 같
▁그 러
▁ 만
▁생 각
리 고
▁ 알
▁ 해
▁ 위
▁ 안
▁ 조
▁ 인
▁ 남
▁ 비
▁그 녀
▁ 두
들 은
▁ 불
하 게
▁ 제
▁ 상
▁ 물
라 고
▁ 중
▁ 동
▁ 눈
였 다.
▁아 니
▁ 세
▁ 신
다 고
▁ 더
▁ 못
▁ 미
▁ 서
▁우 리
에 는
고 ,
▁ 당
습 니다.
▁ 의
면 서
▁것이 다.
▁나 는
▁ 얼
▁ 저
▁들 어
▁그 는
▁ 도
▁ 1
▁ 경
▁ 돌
라 는
▁ 공
이 었다.
? "
▁ 유
까 지
이 다.
▁ 살
.. ..
▁그 런
▁ '
▁ 손
▁ 문
▁ 방
▁ 장
▁ 속
▁있 었
▁ 할
니 까
▁ 구
렇 게
▁ 걸
▁ 집
- -
▁때 문
▁자 신
▁" 그
▁그러 나
리 를
▁그 리고
▁ 입
▁ 또
▁ 발
▁ 영
▁ 차
▁것 을
▁그 것
▁것 은
처 럼
▁ 연
▁ 선
해 서
▁ 결
▁ 노
▁ 달
기 를
들 을
▁ 따
▁있 다.
▁ 성
리 는
적 인
▁하 는
▁ 계
▁ 뒤
▁ 좋
▁ 받
하 지
▁ 관
▁ 감
▁ 진
는 데
▁ 누
▁ 죽
▁ 목
▁ 잘
들 의
▁ 많
하 여
▁ 개
▁ 반
▁ 했
▁다 시
▁같 은
이 나
▁ 건
부 터
▁ 스
▁그 의
▁ 분
▁ 데
리 가
▁ 앞
▁여 자
▁ 실
▁내 가
▁ 강
.. .
다 가
지 는
▁ 열
▁하 나
렸 다.
▁ 몸
▁ 너
▁ 후
▁ 단
▁돌 아
▁ 했다.
요 ."
▁없 는
▁ 등
▁ 피
▁ 새
▁ 잠
▁아 무
▁ 느
▁ 날
다 면
▁얼 굴
▁마 음
▁ 번
▁ 적
대 로
▁ 작
▁ 싶
▁ 듯
▁ 예
▁있 어
▁ 원
▁시 작
▁ 게
▁하 고
▁ 올
▁ 명
라 도
▁ 배
▁말 했다.
▁그 래
▁ 처
▁다 른
▁ 된
▁없 었다.
머 니
▁ 버
▁ 요
▁ 떠
▁일 이
으 며
▁ 찾
하 기
▁ 통
▁ 머
▁말 을
▁ 현
이 는
▁ 재
▁있 을
▁자 기
▁당 신
▁ 2
▁지 금
▁가 지
▁ 매
▁ 행
▁ 함
▁ 교
▁ 파
▁그녀 는
▁ 줄
▁ 간
요 ?
▁ 길
▁ 순
적 으로
▁그 렇게
▁ 군
▁ 심
▁ 허
갔 다.
▁때문 에
▁ 화
▁사람 이
▁ 박
▁ 잡
▁ 언
▁않 았다.
▁ 역
▁ 표
왔 다.
▁ 끝
▁ 태
이 었
▁ 놓
▁ 온
▁ 먹
입 니다.
으 면
▁ 과
▁ 치
▁ 앉
▁ 형
▁ 양
▁ 난
▁ 외
▁ 채
▁모 두
▁모 르
▁어 떤
▁않 는
▁사 실
▁모 든
▁ 참
▁ 곳
▁ 호
▁ 천
보 다
▁ 드
▁ 떨
▁ 벌
▁ 김
▁시 간
야 .
▁ 본
▁ 애
▁그 렇
▁말 이
▁ 쓰
▁아 이
▁사 랑
▁없 이
▁ 친
기 가
( )
▁않 았
에 도
▁ 타
▁ 힘
▁ 약
한 다.
▁어 떻
▁ 필
▁따 라
▁ 점
▁이 상
▁ 최
▁대 한
▁ 종
어 나
▁ 웃
▁하 지만
! "
▁ 3
지 .
▁남 자
▁이 제
기 는
▁ 맞
지 를
▁ 몰
▁ 병
졌 다.
어 서
▁그 가
도 록
▁정 도
▁ 왜
▁" 아
▁ 변
▁어떻 게
▁ 큰
▁ 학
▁ 산
려 고
가 는
▁ 설
▁ 추
지 도
▁이 야
▁ 국
▁함 께
▁소 리
▁ 놀
▁ 몇
▁보 고
▁다 음
▁ 편
▁이 런
-- --
나 는
기 도
▁자신 의
▁ 식
▁모 습
어 요.
▁ 빠
▁어 느
하 면
사 를
▁ 포
▁ 초
기 에
▁사 이
▁ 질
▁무 슨
▁그녀 의
▁이 렇게
▁ 음
어 .
▁않 고
인 가
▁ 회
에서 는
이 라
▁ 크
▁한 다.
▁수 가
▁ 향
▁내 려
▁ 은
▁바 라
▁너 무
지만 ,
▁ 될
▁ 밤
▁아 버
▁찾 아
▁ 절
▁ 뿐
▁문 제
이 라는
▁알 고
▁바 로
▁위 해
▁ 좀
▁어 디
▁ 특
이 고
▁ 귀
▁ 막
▁ 갈
이 라고
▁것 도
되 어
들 에게
▁ 백
서 는
▁ 창
▁인 간
▁ 확
▁ 네
▁동 안
▁ 책
▁무 엇
▁지 나
음 을
이 가
▁어 머니
▁ 침
들 어
니 다
▁ 평
▁ 직
▁ 깨
개 를
▁없 었
▁ 왕
▁그런 데
▁ 담
.... ..
▁ 청
▁ 왔
라 .
리 에
▁ 울
▁ 운
▁얼 마
▁ 삼
자 가
▁가 장
▁아니 라
▁아 직
▁ 근
▁많 은
▁ 넘
▁ 민
▁ 출
▁ 돈
으 나
정 을
▁있 던
▁이 미
▁ 테
▁ 갖
▁되 어
▁그래 서
▁ 충
▁필 요
▁ 얘
오 는
▁ 혼
▁사람 은
▁같 이
▁하 지
▁ 엄
▁그것 은
▁ 볼
인 이
▁ 5
▁ 금
▁ 술
▁" 이
▁그 들은
▁ 둘
▁여 러
사 가
▁ 철
하 며
▁ 독
자 는
▁ 뜻
거 나
▁알 아
▁나 를
▁여 기
▁나 타
▁일 을
▁몸 을
지 가
▁ 준
▁계 속
지 고
▁ 합
사 는
▁ 팔
▁ 환
▁바라 보
▁대 답
▁앉 아
▁있 다는
▁가 슴
▁ 갑
▁ <
▁처 음
▁떨 어
▁ 존
▁ 듣
▁않 은
▁것이 었다.
▁ 곧
▁ 먼
▁ 완
더 니
▁이 름
▁ 임
▁세 상
▁ 용
▁ 숨
▁ 프
▁기 다
▁ 체
▁아 주
화 를
▁고 개를
이 를
▁되 었
이 지
▁목 소
▁ 별
밖 에
▁손 을
해 야
▁없 다.
▁친 구
▁ 믿
▁ 싸
▁ 황
▁눈 을
로 운
하 였다.
르 는
▁조 금
는데 ,
▁ 커
▁그 때
장 이
▁ 리
▁오 늘
장 을
▁ 잔
▁우리 는
▁ “
으 니
문 을
가 지
▁이 것
▁ 붙
▁정 말
오 .
▁ 옆
▁않 을
▁ 흘
▁속 에
주 의
▁ 에
▁ 토
▁그 를
▁누 구
요 ?"
▁수 도
▁그 리
했 던
다 보
▁ 움
▁ 4
▁ 뭐
▁시작 했다.
▁정 신
▁되 는
▁경 우
▁ 뛰
되 는
들 과
▁ 각
▁살 아
▁ 밀
▁ 복
▁가지 고
났 다.
▁ (
▁아 닌
▁사람 들이
▁순 간
▁ 놈
▁ 빨
▁ 깊
▁ 총
니까 ?
는 지
▁ 로
▁일 본
▁ 카
▁ 야
자 를
▁받 아
▁ 검
인 은
없 이
자 기
한 테
▁ 쳐
쪽 으로
▁되 었다.
▁ 터
▁ 흔
▁ 풀
스 는
▁올 라
▁ 항
▁마 치
▁좋 아
성 을
기 로
까 ?
▁ 법
었 다
▁ 권
▁ 광
므 로
▁속 에서
▁ 글
▁ 증
▁서 로
▁ 끌
▁ -
▁ 옷
▁언 제
인 의
전 히
하 면서
▁물 었다.
▁ 벗
▁ 취
정 이
▁1 9
▁만 나
▁전 에
인 지
인 데
리 며
스 럽
마 다
스 러
▁바 람
▁않 아
▁ 높
▁사 회
▁좋 은
▁ 희
▁선 생
요 ,
▁더 욱
구 나
이 란
▁그것 을
내 가
▁나 가
시 키
▁말 씀
▁다 가
▁세 계
▁많 이
▁ 헤
▁ 땅
▁모 양
식 을
▁ 빛
▁ 베
▁나 라
▁이 러
▁ 겁
했 다
쳤 다.
이 며
▁ 꺼
내 는
▁얼굴 을
▁ 늘
▁대 해
▁같 았다.
자 의
성 이
▁생각 이
▁ 얻
▁또 한
▁역 시
.. ."
▁ 메
▁보 았다.
▁ 투
습니다. "
▁ 농
리 로
▁ 승
▁ 겨
▁ 와
▁1 0
치 는
▁ 짓
▁ 즉
▁" 어
사 의
고 는
▁잠 시
▁나 의
력 을
▁그녀 가
▁이 유
▁된 다.
▁ 묻
▁남 편
▁ 판
▁ ─
▁들어 가
▁갑 자기
▁ 코
랐 다.
려 는
▁ 젊
▁물 론
대 의
▁ 밖
▁ 꿈
▁나 서
▁이 해
▁일 어
▁움 직
지 요.
상 을
▁ 악
▁먼 저
▁ 읽
▁우리 가
▁없 어
▁존 재
▁ 흐
▁ 라
▁일 어나
▁자신 이
▁것 으로
▁미 국
물 을
▁사람 들은
▁보 면
▁ 폭
▁결 혼
장 은
▁달 려
▁하 늘
스 로
▁아 래
▁분 명
▁ 풍
▁가 까
▁방 법
▁해 서
소 .
으며 ,
▁머 리
▁ 골
하 다.
▁기 분
▁관 계
▁ 육
▁때문 이다.
▁작 은
는 다.
▁하 면
▁생 활
▁해 도
▁나 무
▁위 해서
▁ 레
위 를
▁만 들
▁얼마 나
▁ 밝
▁아 침
들 도
▁아 름
네 .
▁ 북
가 ?
▁ 6
▁거 의
▁그 만
리 지
자 ,
느 냐
▁ 활
렀 다.
명 을
▁그 대로
었 던
동 안
▁ 멀
▁ 슬
▁소 리가
▁사람 의
▁아버 지
▁ 접
심 을
▁이야 기
▁생각 을
▁ 틀
▁사람 을
▁한 국
▁ 긴
---- ----
▁ 궁
시 는
드 는
▁위 에
도 를
▁ 꼭
▁소 리를
▁빠 져
스 의
르 고
만 이
▁보 였다.
▁느 끼
잖 아
웠 다.
▁향 해
▁대 해서
▁중 요
리 의
되 었다.
▁한 번
▁전 혀
▁앞 에
▁나 와
▁어 린
▁모 른
스 가
▁ 혹
▁사 라
▁사 건
님 이
▁상 태
▁이 번
수 를
▁ 짐
물 이
▁없 을
▁ 망
▁ 봉
▁전 화
라 면
▁ 즐
니 ,
▁기 억
▁만 들어
▁ 왔다.
대 를
▁행 동
▁ 잃
이 에
▁보 내
▁ 욕
▁걸 어
▁있었 던
▁이러 한
스 를
▁ 끼
▁못 한
시 에
소 를
어 진
▁앞 으로
▁의 미
▁ 삶
▁것 처럼
▁있 다
” “
주 는
▁젊 은
▁있 다고
습 니다
▁ 딸
▁발 견
▁들 고
▁ 키
▁ 봐
▁이 루
▁혼 자
니다. "
▁떠 나
▁가 서
▁그 들의
운 데
▁ 범
죠 .
▁ 죄
▁중 국
스럽 게
▁ 윤
▁하 여
냈 다.
듯 이
▁있 지
▁그것 이
▁나 오
▁ 쓸
야 ."
▁있 습니다.
▁그녀 를
▁뛰 어
▁상 황
▁있었 다
되 었
▁ 잊
대 한
에서 도
인 을
▁ 갔
▁ [
▁ 걱
▁ 넣
▁─ ─
치 고
▁못 하고
▁표 정
▁자 네
치 를
어 야
▁때 는
▁ 극
▁들 었다.
수 가
에게 는
▁것 입니다.
▁듯 한
하 였
▁서 울
으 면서
▁ 맡
가 .
▁ 논
▁사 용
지 막
▁얘 기
▁해 야
▁듯 이
▁어 려
▁그 곳
이 라도
▁ 뜨
▁하 루
아 가
하 자
▁거 야.
으 니까
섰 다.
▁ 급
▁"그 래
▁ 첫
▁사실 을
▁ 밑
▁입 을
▁가 능
▁ 흥
▁새 로운
▁거 기
▁아 마
▁생각 해
▁ 끊
▁ 괴
▁집 에
▁가 는
▁ 을
▁ 쉬
▁수 는
되 고
▁적 이
우 는
▁자 리
▁ 7
▁이야 기를
하 던
로 부터
▁그 냥
▁자 연
▁있 겠
▁ 싫
▁ 빼
▁결 국
▁ 까
▁ 암
▁저 녁
어 버
▁마음 을
대 는
하 겠
다 니
나 라
▁머 리를
▁스 스로
▁ 숙
▁아니 었다.
하고 ,
▁ 칼
십 시
수 는
▁눈 에
▁아 내
▁있어 서
로 서
움 을
▁ 빈
군 요.
▁ 끄
▁잘 못
▁그 럴
▁쳐 다보
▁타 고
가 를
▁놀 라
▁ 페
씨 가
▁모습 을
▁ 꽃
▁오 래
선 을
▁ 송
▁ 능
▁ 찬
니까 ?"
대 가
▁경 찰
▁ 석
▁아름 다
▁일 은
로 는
▁들 려
데 ,
아 버
▁가 운데
▁ 휘
들 었다.
▁ 멈
h e
리 아
어 져
▁있 고
▁주 는
▁대 신
장 의
중 에
더 라도
▁그 림
▁ 8
▁그 들이
식 이
▁마 침
▁준 비
▁ 면
▁마 지막
▁보 여
▁ 꾸
▁자신 을
▁가 져
이 다
i n
▁ 던
▁ 쉽
▁그 에게
▁ 낮
▁드 러
까 .
▁" "
▁보 았
▁ 히
했 을
▁ 똑
▁거 예
▁돌아 가
▁ 패
력 이
▁노 래
▁그 럼
명 이
▁일 으
경 을
어 지
▁ �
▁느 낌
▁지 난
0 년
▁ 빌
▁놓 고
▁ 견
▁ 쪽으로
상 이
▁듣 고
▁싶 은
▁엄 마
시 아
▁보 니
▁보 이는
지 ,
▁나 도
대 에
부 를
이 의
▁마음 이
▁전 쟁
▁대 학
▁ 옮
▁ 젖
▁ 축
▁아 니다.
▁결 과
▁ 벽
▁이 곳
▁학 교
어 도
▁ 억
▁ 뒷
▁주 었다.
스 트
▁어 깨
▁ 응
▁내 게
▁잡 아
명 의
씨 는
▁ 탄
▁때 ,
▁당신 이
▁불 러
원 이
▁시간 이
▁여자 가
세 요.
신 이
▁그 날
거 리
▁매 우
▁ 퍼
▁우리 의
합 니다.
▁말 에
기 의
▁없 다는
▁흘 러
▁조 용
▁" 저
▁크 게
▁같 아
▁어 찌
원 을
▁ 꼬
거 렸다.
▁어 쩌
히 려
▁당신 은
▁생각 했다.
▁자 유
그 러
▁남 아
▁대 로
▁ 디
▁ 옛
지 ?
스러 운
▁하 였다.
▁정도 로
▁마 을
▁고 통
며 ,
▁통 해
조 차
▁되 면
나 무
보 다는
▁ 홍
▁제 가
▁가 득
▁가 르
▁위 한
▁마 시
▁속 으로
▁사람 들
▁설 명
겠 어
심 이
전 에
▁연 구
▁오 히려
정 한
께 서
부 분
문 이
▁행 복
▁ 루
▁앞 에서
▁이 를
▁ 굴
▁얼굴 이
▁ 브
▁여 성
▁마 찬
체 를
이 트
▁눈 이
▁ 9
▁담 배
▁문 을
만 을
▁사이 에
▁수 밖에
녀 석
▁내 용
▁ 클
▁그 건
▁돈 을
▁자 세
▁누 가
▁걱 정
습 니까?
▁보 는
음 이
▁ 격
다 ,
▁학 생
▁ 푸
▁정 치
의 를
▁집 안
님 은
▁알 았
가 락
위 에
▁만 큼
▁나 온
▁빨 리
감 을
▁완 전히
▁그 랬
▁밖 으로
▁사 는
▁두 려
▁ 효
▁않는 다.
▁ 섬
▁갖 고
시 켜
▁ 엉
▁느 껴
▁특 히
a n
임 을
장 에
가 가
겼 다.
▁" 네
수 의
▁두 고
▁보 이
켰 다.
▁마찬 가지
▁ 좌
▁길 을
든 지
▁약 간
0 0
▁ 다.
▁뒤 에
지 에
도 가
▁벌 써
▁아무 리
▁이 후
▁이 르
▁다 니
일 이
가 고
▁중요 한
거 든
우 고
▁부 모
▁조 선
주 를
으로 써
▁그 게
▁아니 면
▁공 격
▁ 트
▁가 족
▁언제 나
▁당 시
하 시
▁않 으면
▁때 까지
부 가
▁말 은
체 가
▁ 늦
e r
▁ 뭔
▁둘 러
없 는
도 로
▁따라 서
▁전 화를
한 다는
▁끌 어
겠 다고
▁ 걷
적 이
▁바 닥
▁모르 는
▁사 내
▁보 이지
으 므로
▁저 는
술 을
▁있 게
▁ 굳
다 란
o n
▁못 했다.
▁ 덕
으로 는
린 다.
제 가
▁것이 다
▁아직 도
니까 .
▁인 생
▁부 분
학 교
▁" 나
▁표 현
▁보 아
계 를
만 큼
▁누 군
화 가
▁ 월
님 의
이 야
▁가 진
▁느 꼈
▁도 착
오 ."
▁거 야
▁알 려
실 로
▁ ]
만 은
▁확 인
▁ 뿌
▁이 용
▁아 는
▁직 접
동 을
▁ 쪽
기 만
▁ 니
다. "
▁등 을
▁위 로
하 지만
아 ,
방 을
지 의
▁부 르
▁아 닐
거 운
연 히
▁하 게
▁ 쫓
▁사 진
▁의 해
인가 ?
▁들 었
▁ 염
▁나 누
...... "
▁여 전히
▁정 보
▁지 켜
▁" 우
▁ 갔다.
▁약 속
▁힘 을
▁그러 자
천 히
▁모르 겠
▁들 여
▁여자 는
나 ?
▁주 고
함 을
상 의
▁말 고
▁꺼 내
▁깊 은
▁뒤 로
▁그래 도
신 을
▁손 에
▁떠 올
▁아무 도
들 고
전 을
▁와 서
기 고
간 에
▁ 졸
다면 ,
▁말 해
하 다는
▁계 획
녀 는
길 을
부 의
보 고
▁"그 럼
▁ 훨
▁이것 은
▁ 착
냄 새
▁말 았다.
▁있 으면
▁ 쥐
▁그 저
▁것이 라고
부 는
이 면
▁경 험
말 로
▁ 밥
▁틀 림
자 .
▁ 괜
▁옷 을
▁ 써
▁한 다는
▁만 약
으로 부터
▁ 혜
▁결 코
▁기 회
당 한
보다 도
하 다
▁ 품
, ,
▁ 맥
▁후 에
▁ 털
▁ 옥
▁불 안
▁천 천히
▁항 상
▁끄 덕
▁" 여
▁"그 렇
." 그
▁물 어
▁ 돼
군 의
▁집 어
감 이
▁훨 씬
▁상 대
▁음 악
▁ 규
였 다
▁대 부분
았 다
실 을
▁지 도
시 를
▁ 맛
▁바라보 았다.
과 는
거 리는
▁ 익
▁ 며
움 이
▁하 면서
했 습니다.
▁충 분
끄 러
구 를
▁ 답
▁옆 에
▁나 왔다.
마 디
▁돌 려
정 은
관 이
▁ 곁
▁바 다
▁오 는
▁되 고
▁죽 은
▁ 쓴
▁번 째
▁ 색
▁또 는
도 ,
▁이 어
도 의
▁" 오
니 ?
겠 다는
숨 을
국 의
▁ 됐
이었 다
▁그러 한
지 지
으 리
▁만 한
▁아무 런
▁되 지
▁먹 고
서 를
자 로
▁일 이었다.
위 는
가 에
▁ 붉
놓 고
▁때 마다
▁올 려
들 에
▁우 선
▁하나 의
가 의
▁여자 의
▁자기 가
▁자 리에
▁싶 어
▁만 든
▁어 둠
원 의
내 고
▁나타 나
▁ t
단 을
▁살 고
▁ 휴
냐 ?
▁가 리
르 게
▁여 행
▁ 묘
▁말 하는
▁너무 나
▁프 로
되 지
▁끝 나
▁실 제
향 을
▁ 냉
▁사 무
▁ 떼
▁ 훌
▁받 고
사 에
▁점 점
▁넘 어
▁ 숲
▁위 험
리 스
▁"그 러
▁물 건
▁" 무
하 니
된 다.
▁ 협
▁마침 내
▁ 든
▁확 실
▁자 리를
▁대답 했다.
▁사람 들의
레 이
▁알 게
▁ 쏟
▁아름다 운
보 는
▁조 심
▁ 폐
질 을
말 을
▁손 가락
으로 서
▁" 당
▁달 리
▁ 십
같 이
▁건 너
▁시간 을
치 가
▁몸 이
▁ 녹
▁커 다란
▁말 할
었 을
▁ 낙
▁ 플
거 리며
▁데 리고
▁다 만
▁안 에
▁있 기
▁2 0
군 이
▁모른 다.
▁ 덮
▁것 일
▁오 른
▁네 가
비 를
▁모습 이
▁ 홀
▁ 곤
▁마 련
자 에
▁사 고
▁못 하는
▁ 탈
경 이
▁인간 의
▁여기 서
▁명 령
▁못 할
▁결 정
야 ,
시 간
도 는
▁ 넓
▁이름 을
수 록
▁표정 으로
▁ 뉴
▁있 고,
▁집 으로
상 에
▁ 혀
r e
▁ 엘
▁성 공
= =
▁과 학
▁마 주
o u
녀 가
▁검 은
▁" 지
▁목소 리로
면 ,
▁시 절
▁곳 에
▁것 과
▁들어 갔다.
군 .
이 로
▁부 탁
▁죽 음
▁ 찌
주 고
▁당신 의
▁나 에게
▁ 늙
▁그렇 지
▁현 재
▁못 했
▁미 소를
▁하 기
장 에서
▁때문 이었다.
▁동 시에
▁만 일
▁그러 면
키 는
▁ 깜
▁내 리
락 을
명 한
▁생각 하고
▁기 대
▁뒤 를
하 다고
오 고
▁제 대로
▁ 멋
▁아 닙
▁서 서
▁ 탐
▁쉽 게
자 들이
▁가 로
스 런
▁ 셈
▁ 쌓
▁지 역
▁겨 우
님 ,
▁흔 들
▁합 니다.
대 체
▁않 게
년 이
▁했 던
셨 다.
▁아 들
a t
▁멀 리
▁주 인
이 야.
나 가
▁달 라
▁멈 추
▁그 들
▁하 겠
▁교 육
▁물 러
▁집 을
해 진
▁쓰 러
▁ 낳
▁아 파
▁손 으로
▁한 마디
원 은
신 은
▁ 묵
죠 ?
▁그 걸
소 리
미 를
드 시
▁특 별
▁나 오는
지 로
호 는
▁가 만
격 을
▁ 몹
▁ 러
위 가
성 의
▁얘 기를
래 도
▁1 2
롭 게
▁ 칠
▁겁 니다.
▁할 머니
▁비 밀
▁의 식
심 히
▁과 거
▁말 도
바 닥
일 을
▁한 편
▁조 직
▁것 에
▁자 주
면서 도
▁" 예
았 던
위 의
요 !
보 았다.
▁그 동안
▁방 안
▁부 드
▁" 나는
▁작 품
▁대 단
▁지 구
▁ 냄새
▁여러 분
▁문 화
▁무 서
▁ 녀석
▁자기 의
▁정 확
▁도 시
비 가
▁" 사
제 를
▁오 빠
▁것 만
▁그 와
▁같 다.
님 을
▁그 들을
성 은
▁거 짓
▁남자 가
▁ 캐
십시 오.
▁소 설
구나 .
다 시
하 려
▁이 는
▁ 맹
▁별 로
미 가
통 령
▁현 실
▁관 한
▁눈 으로
라 ."
▁1 8
▁개 의
▁표 정을
▁하 며
▁술 을
▁없 다고
▁누 워
▁주 장
인 다.
▁어머니 는
었 습니다.
▁엄 청
▁받 은
▁요 구
▁날 아
▁높 은
▁있었 고,
▁자 식
생 을
▁ 컴
지 ."
▁해 주
▁기 울
▁도 망
▁지금 은
▁웃 었다.
▁ 찍
▁분 위
▁영 화
▁군 사
호 를
▁ 씨
산 을
▁몹 시
▁기다 리고
▁때 가
만 한
▁" 너
▁인 정
▁ A
▁문제 가
▁" 내가
▁ 업
하 도록
▁중 얼
▁3 0
▁해 결
주 가
▁떨어 져
어 요."
▁자리 에서
▁ 택
하 려고
▁있 다면
▁가까 이
▁ 쏘
정 의
▁버 렸다.
▁중 에
▁불 을
군 은
입니다. "
▁하나 가
▁있어 .
▁그녀 에게
▁무엇 을
▁호 텔
▁"그 런
▁기 록
▁부 인
▁ 솔
년 에
▁지금 까지
했 다는
▁옛 날
▁일 에
▁괜 찮
어 놓
▁불 가
▁영 혼
▁목소 리가
이라 면
▁ 흰
▁" 자
신 의
트 를
▁며 칠
▁쏟 아
e n
.... .
▁" 왜
▁일 단
문 에
▁이상 한
▁나 이
▁쓰 고
라 구
▁살 펴
▁한 참
▁그렇 다면
말 이
▁마음 에
▁없 고
▁힘 이
▁뿐 이었다.
▁ 햇
▁" 정
있 는
바 로
▁반 드시
한 다
▁기분 이
희 는
업 을
) ,
▁차 례
▁있어 야
▁이제 는
▁ 깔
미 는
▁선 택
▁얼굴 로
간 의
▁제 일
▁상 처
▁ 딱
▁사람 들을
연 한
원 에
▁ 압
▁ T
▁아 가
▁불 과
▁경 제
▁잡 고
자 들은
▁커 피
▁하 고,
▁새 벽
이 기
▁운 동
▁일 부
▁모르 고
i s
▁인 물
▁했 지만
▁ 「
▁ 맨
▁ 낭
▁입 고
▁무 릎
▁대 통령
▁거예 요.
과 의
▁ 빗
▁내 일
▁ 짧
▁자 동
차 를
으나 ,
▁노 력
▁ 뚫
▁있어 요.
▁ 춤
▁ 워
▁않 겠
▁이 리
-------- --------
▁프 랑
이 ,
▁국 민
같 은
▁숨 을
▁열 었다.
▁한 다
지 기
▁생 긴
정 에
▁싶 었다.
▁소리 로
시 고
▁느꼈 다.
▁얼굴 에
와 는
▁소 년
▁안 으로
라 가
실 에
▁달 아
▁분명 히
퓨 터
방 에
▁ 낯
▁말 이다.
입 니다
▁ 둔
▁아버 지는
▁혹 은
▁어쩌 면
관 을
▁ 몽
상 은
▁혹 시
디 어
▁나 갔다.
▁ 척
▁여자 를
▁ ”
비 는
세 를
종 의
▁보 통
▁말 하고
▁거 리
▁조용 히
▁ 닫
소 ."
▁보 기
▁말 한다.
▁나 왔
전 의
▁ 틈
▁ 헌
니 는
▁단 순
▁ 흉
으 려고
▁없 습니다.
▁ ”“
▁일 반
▁비 슷
였 던
▁했 다
o r
▁ 썼
▁못 해
▁바람 에
마 는
▁가 게
▁전 투
▁들어 서
▁내 밀
아 서
▁생각 하는
▁책 을
▁가슴 이
텐 데
▁팔 을
▁어 쩔
▁차 를
▁새 끼
▁어 렵
▁이 끌
▁ :
▁유 리
적 을
▁반 대
▁무 렵
▁깨 달
▁ 케
마 저
▁ 훈
요 "
▁무엇 이
▁비 록
▁종 교
▁아버 지가
▁주 변
▁ 짜
사 와
시키 는
▁비 행
름 이
선 이
체 의
▁나 머
▁건 강
치 지
▁어려 운
지 게
자 고
으 려
▁게 다가
▁만 족
▁사 나
▁훌 륭
▁ 옳
▁ S
▁신 경
▁말 했
▁겨 울
▁상 상
▁ 봄
가 ,
▁어 른
자 와
소 ?
▁청 년
▁그렇 지만
▁ 덜
▁공 포
이 니
▁있는 데
▁그것 도
▁가슴 을
▁ 뽑
▁몰 라
장 으로
▁할 아버
▁불 구
▁컴 퓨터
▁어 리
▁있 다가
▁기 술
▁버 렸
▁다 섯
▁말 아
▁어 두
▁아 까
▁ 띄
▁재 미
▁잠 깐
사 로
화 는
▁지 키
인 들이
▁ 퇴
▁사랑 을
▁돌아 오
▁가만 히
▁절 대
▁ 멍
▁어머니 가
▁어 쨌
▁한 쪽
▁집 에서
▁곳 에서
혔 다.
▁ 측
리 게
▁ 탓
▁걸 려
▁동 생
리 기
▁들어 오
▁오 후
a r
▁단 지
▁전 해
와 서
▁사람 도
▁민 족
▁ 왼
▁공 부
▁다 행
▁ 솟
▁없 다
▁오 랜
▁피 해
▁1 5
▁일 이다.
까 요?
주 었다.
▁좋 을
복 을
제 는
고 를
에게 서
▁아니 었
▁길 이
▁구 석
어 가
러 운
▁ 샤
진 다.
▁지 배
▁ 닦
시 가
▁끝 에
▁최 고
▁1 1
▁아니 고
▁침 묵
▁지 하
▁필요 한
금 을
▁마 리
목 을
▁이것 이
▁일 찍
식 은
인데 ,
방 의
▁흥 분
▁ 펼
▁그렇 다고
▁치 료
a l
▁고 려
▁모두 가
▁ 탁
▁바 꾸
▁노 동
▁ 혁
까지 도
▁말 한
▁ 땀
▁문 득
이 터
▁무 척
▁ 쇠
▁당신 을
▁필요 가
빨 리
▁건 물
▁역 사
▁ 뻗
했 고,
▁중 심
▁가 끔
진 이
▁간 단
▁물 을
야 ?
면 을
▁ 맺
▁ 뻔
a �
▁신 문
▁한 다고
▁모 여
▁도 와
인가 .
▁판 단
점 을
방 으로
영 은
▁보 지
▁ 으
▁열 심히
소 가
▁안 에서
▁어 울
▁받 았다.
▁일 도
군 을
▁거 기에
▁ 빙
▁아이 를
▁위 하여
간 다.
▁ 뭘
▁눈 앞
▁독 일
어 를
▁형 태
▁ ‘
▁영 국
▁세상 에
▁ 는
▁담배 를
( 1
▁하 시
겠 습니다.
야 만
습 니까?"
▁있었 고
▁자 꾸
▁" 뭐
하기 도
권 을
▁동 물
▁얻 어
▁놓 은
버 린
▁" 내
기 와
▁차 가
▁얼 른
▁ 곡
▁영 원
▁뭔 가
석 은
▁깊 이
▁ 벼
▁개 인
▁웃 음을
함 이
▁날 이
▁까 닭
댔 다.
모 를
▁태 어
▁이 에
▁ 습
▁여 름
▁눈 치
수 한
까지 는
들 ,
▁당 황
▁비 로
▁왜 냐
▁가 고
▁ 널
당 히
▁받 았
▁반 응
구 가
▁매 일
▁몰 아
에서 의
▁데 려
▁ 튀
씨 의
요 일
▁짐 작
▁그러 므로
▁도 대체
▁고 향
▁생각 에
도 에
저 히
▁분 노
서 야
소 리가
▁없 어.
▁쳐다보 았다.
▁원 래
▁조 그
토 록
i t
▁입 은
▁곳 이
라 의
▁가까 운
▁책 임
▁어깨 를
씨 를
망 을
▁그러 니까
자 마
▁시 선을
▁" 알
▁하 였
▁ K
▁등 이
▁유 지
예 요.
▁강 한
▁어 떠
스 터
하 거나
▁올라 가
▁새 로
e s
속 으로
▁ 뇌
▁ C
시 킨
쪽 을
▁국 가
▁철 학
하 의
발 을
와 의
▁역 할
했 고
▁대해서 는
▁대 체
어 졌다.
▁세 월
▁ 겪
▁눈 빛
▁명 의
▁오 르
▁테 이
▁ 핵
드 리
쪽 에
▁"아 니
▁관 련
▁만 난
▁남 은
그 는
놓 은
▁의 심
▁운 전
어 ."
▁침 대
지 어
▁미 안
▁편 지를
▁비 롯
▁ 넌
▁맞 아
▁ 흑
▁이 건
▁사람 들에게
해 도
부 로
▁쓰 는
야 말로
▁인 사
▁눈 물을
▁바라보 고
▁생각 은
▁받아 들
호 가
▁문제 를
▁기 쁨
▁ 묶
▁너 희
▁입 술
군 요."
▁그리고 는
▁매 달
▁t he
▁비 교
▁우리 를
▁부 족
▁모르 게
▁어머니 의
▁너 는
▁발 생
▁없었 던
▁성 격
▁다 르
▁남 의
▁요 즘
▁왜냐 하면
▁ 봤
▁손 이
나 ,
니 가
▁정신 을
었 고,
▁ 났
▁남자 는
네 ."
▁ 」
▁나 중에
많 은
▁있는 지
▁말 로
▁과 연
세 .
성 에
▁떠 오
▁어 서
세 요."
▁늙 은
▁옮 겨
▁소 개
▁엄청 난
라 ,
트 는
▁ │
한 다고
하 려는
▁조 사
▁ `
▁ 닿
▁인 도
▁사람 에게
▁ 닥
위 로
▁"무 슨
▁있었 기
경 은
집 을
▁ I
제 의
명 은
▁남자 의
▁따 르
▁" 미
▁태 양
안 을
동 이
▁나 쁜
▁안 돼
▁아마 도
책 을
▁그러 니
▁벗 어나
▁중 에서
▁버 리고
▁싶 지
▁ 됩
▁몰 려
▁지 어
류 의
▁하나 를
▁다음 과
마 를
해 졌다.
▁들여 다보
분 이
▁등 의
▁아 프
▁근 처
▁그 려
▁이 론
▁된 다는
상 으로
이 고,
▁어 지
▁비로 소
돌 아
▁깨 끗
▁뿐 이다.
▁바닥 에
▁기 운
▁변 화
구 려
▁먹 을
치 게
▁사랑 하는
해 .
▁미 리
▁받 는
▁포 기
쪽 에서
▁세 워
▁붉 은
▁도 로
소 에
▁다음 날
렸 다
▁놓 여
▁ 꼴
기 까지
▁잠 을
▁열 어
▁우 주
▁ 쾌
라 이
▁속 의
히 는
해 져
▁밀 어
▁화 가
했 지만
▁당 장
▁무엇 인가
▁생각 하
▁아버지 의
마 의
▁곳 으로
녀 의
▁ 웬
▁화 장
▁떨어 진
▁금 방
▁이번 에는
▁오 랫
▁상 관
▁진 행
히 고
장 님
! !
▁ 맑
학 생
▁이 젠
▁있었 습니다.
일 한
▁불 행
▁" 난
께 서는
면 에
▁때 도
▁ 덩
▁뜻 을
▁몸 에
▁의 견
▁아이 가
▁실 험
▁연 락
조 를
▁나머 지
▁참 으로
▁ 둥
트 의
리 와
▁세상 을
▁ 섞
모 가
▁무 시
인 들은
이었 던
▁웃 으며
▁깜 짝
방 에서
▁ 티
▁연 결
살 이
▁놈 이
했 다고
다 른
▁ 겸
▁전 문
부 에
▁문제 는
럽 게
▁ 꽤
▁" 하
▁있 으니
▁ 및
들 로
▁ 눌
) 의
적 이고
판 을
▁선생 님
▁빠져 나
어 지는
▁ 혈
▁관 심을
▁무 언
거 리고
▁ 엎
만 의
서 ,
▁되 겠
하고 는
▁주 먹
개 의
▁하 더라도
▁잠 자
▁자 랑
실 에서
▁좋 겠
두 고
이 와
▁거 대한
▁궁 금
▁발 전
▁오랫 동안
▁식 으로
▁" 안
에 다
▁ 납
▁인 사를
▁조 각
▁듯 했다.
하 신
▁ 찢
트 가
▁발 을
▁가 정
장 과
▁ 굽
라 리
▁장 난
선 생
▁열 고
시 킬
▁빼 앗
▁배 우
▁푸 른
▁한 숨을
▁정도 의
냐 ?"
▁이 른
▁ 옵
▁보 호
석 을
a s
번 에
스 와
▁없었 다
▁만 드는
화 의
▁얼굴 은
어 ?
나 게
▁언 젠
▁사실 이
에 요.
워 서
▁있 도록
▁어디 서
▁온 몸
이며 ,
생 활
스 에
나 .
▁수 많은
▁ 블
▁주 지
▁ 턱
▁따 뜻
살 을
▁바 뀌
▁방법 을
일 은
▁실 패
에게 도
.... "
▁가슴 에
름 을
▁불 빛
▁웃 음
▁없 게
▁교 회
▁다음 에
▁아무 래도
▁오 직
▁때 의
▁눈 물이
▁다 리를
▁불구 하고
둘 러
▁만 났
▁시 험
▁벗 어
▁죽 을
방 이
이 크
▁그 대
▁때 에
장 한
▁의 사
▁에 너
▁있 지만
서 가
▁아닌 가
네 가
림 을
차 가
▁ 웅
식 으로
석 이
▁아 빠
병 을
▁자 기를
무 를
영 이
통 을
▁이름 이
▁ 뚜
▁수 행
▁충분 히
▁자신 도
▁바람 이
▁돈 이
▁ 짝
▁살 인
식 의
▁개 미
▁작 업
윽 고
▁" 한
▁붙 어
원 으로
' 의
▁아니라 ,
▁효 과
관 은
시 다.
▁재 빨리
▁사실 은
해 지
▁생각 했
▁ 헛
▁주 시
▁느 낄
▁증 거
가 로
▁바라보 며
▁어 제
조 의
▁ .
▁소리 쳤다.
▁ 펴
▁생각 할
드 의
▁죽 어
▁실제 로
요 !"
' 는
▁ 칭
▁불가 능
해 를
전 한
비 의
▁" 누
그 래
었 다는
잔 을
▁말 했다
리 카
▁보 낸
▁위 에서
▁물 질
▁불 렀다.
▁동 료
문 은
' 라는
조 는
하 다가
▁걸 음
▁손 님
세 가
이 어
▁없 어요.
▁ 끈
▁뒤 에서
소 한
기 지
었 지만
▁이 내
▁데 이
▁나타 난
▁붙 잡
성 과
▁여 기에
▁관계 를
in g
▁병 사
▁훌륭 한
▁대 표
▁않 다.
▁진 짜
▁위해서 는
▁엘 리
e d
어 졌
▁생활 을
색 이
국 이
르 며
▁앉아 서
▁주 저
한 다면
▁거 야."
가 서
인 과
▁맞 추
▁내 렸다.
▁ s
입 을
▁일어 난
국 을
▁접 근
▁ M
▁무 너
▁거기 서
▁이 와
해 가
▁하 던
▁미 친
▁하 얀
아 .
자마 자
▁교 수
▁" 제
▁놀 란
▁부 딪
▁ 덧
▁ 좁
▁것이 라는
었 고
▁절 대로
' 라고
분 을
자 인
품 을
나 ?"
일 에
▁믿 고
▁그리 하여
▁있는 데,
▁안 내
▁ 징
텔 레
▁오늘 날
▁같 았
▁아 이는
▁있었 는데
▁임 금
▁돌 렸다.
▁"아 ,
▁" 좋
▁가 을
▁깨 닫
계 의
▁" 전
▁모양 이었다.
직 한
보 지
▁어쨌 든
게 .
성 으로
▁차 지
▁구 경
▁소 유
▁그 들에게
▁물 고
▁보 다
▁눈 물
▁거 라고
만 ,
▁가 난
조 가
▁ o
디 오
▁것 ,
려 면
▁감 추
▁똑 같은
▁날 카
▁가 볍
▁ 썩
▁싸 움
으 시
▁출 발
▁심 각
▁내 어
▁구 멍
▁밝 혀
지 와
▁가르 쳐
▁아 들이
▁싫 어
▁나 가는
▁힘 들
드 가
▁목 을
▁모 를
▁백 성
▁ 흩
▁이 날
관 의
▁있었 지만
▁마찬가지 로
▁목 표
▁아 저
나 의
▁않았 던
▁미 래
▁두려 워
▁ 잇
세 기
▁사 업
▁즉 시
▁무서 운
▁잠 이
드 려
▁인간 이
▁방 향
▁조금 도
▁아파 트
▁이유 가
마 가
절 한
산 이
영 의
이 상
▁ 씻
▁조 건
지 요."
▁가 야
▁이 윽고
르 르
해 요.
▁목소 리
▁유 럽
▁대 고
▁외 국
경 에
▁중 의
▁2 5
감 은
▁번 쩍
아 의
▁� �
▁마 르
▁이유 는
▁뜨 거운
▁지 휘
진 은
드 를
▁1 7
▁이해 할
▁하나 도
▁ 섹
▁보 자
▁좋아 하는
▁만 에
▁버 린
▁머 물
나 요?
정 으로
▁처음 으로
▁하 니
▁보 며
▁짓 을
▁일어 났다.
버 렸다.
▁슬 픔
▁안 되
망 이
만 에
▁앉 은
▁몰 랐
지 ?"
) .
▁사랑 의
▁행동 을
리 학
▁방 문
▁처 리
▁들 이
▁더 구나
약 을
▁있 음을
냐 .
애 를
▁바 깥
▁주 위를
었 는데
▁동 네
로 서는
죠 ."
▁ 찰
▁이 웃
▁"우 리
간 을
▁걸 음을
▁지 니
▁파 괴
▁밀 려
▁하늘 을
▁그리 스
▁하나 는
▁먹 는
▁들 은
▁잔 뜩
론 을
▁대답 을
▁포 함
▁기다 리
았 을
▁ 숫
▁예 술
▁들어 와
▁버 리
▁느낌 이
▁여 인
▁적 어도
▁않았 다
증 을
▁여 유
색 을
숙 이
▁마 당
▁앉 았다.
▁시작 한
▁ 꼼
▁줄 을
▁더 듬
시 켰다.
▁따 로
른 다.
사 한
▁소 용
▁육 체
담 을
▁생 명
▁노래 를
풀 이
▁아래 로
▁위 치
▁ 슈
▁ #
진 의
왕 의
▁회 사
전 이
▁주 머니
▁중 앙
하 셨
▁ 쿠
구 의
▁ 났다.
▁기 어
▁ 흙
▁생 겨
▁긴 장
▁"그 건
▁전 체
▁가 라
▁보 였
느냐 고
▁미 소
▁아니 ,
▁전 부
▁말 하자
네 는
본 다.
▁지 었다.
▁배 를
▁끝 내
시키 고
▁이 동
양 이
▁ 족
소 리를
▁머 리가
▁그 에
▁ 밖에
회 의
▁풀 어
계 가
▁말 하
길 이
_ _
▁들어 왔다.
▁" 마
▁ 흡
은 ,
▁않아 도
▁ 곰
▁뒤 집
▁허 리를
▁예 를
속 을
로 를
▁펼 쳐
▁끄덕 였다.
▁나타 났다.
▁정신 이
▁ 밟
중 한
▁할 지
▁ 헬
▁돌아 온
▁받 을
라 를
보 며
어 ,
▁영 향을
분 의
▁물 이
▁부 르는
▁남편 이
▁뭐 라고
왕 은
▁보 면서
▁대 꾸
▁"지 금
▁것 인지
▁독 립
음 에
▁ 겉
▁다 녀
▁귀 를
▁아름 답
잖아 .
▁삶 을
가 ?"
원 에서
호 의
희 가
▁대 하여
▁음 식
▁오늘 은
▁나라 의
▁정말 로
형 을
▁언 덕
하지 는
속 에
▁입 술을
▁5 0
안 에
▁상 당히
▁관 리
▁" 대
구 는
▁생 산
▁차 라리
▁훈 련
▁들 렸다.
▁있었 을
▁인 해
▁도 저히
만 으로
▁자 극
▁내려 가
▁죽 음을
▁목 적
▁눈 은
▁끌 고
▁ 켜
▁어 딘
▁이것 을
우 스
▁발 표
▁짧 은
조 로
▁밤 에
▁ P
자 들의
어 지고
▁말이 야.
▁ 쌀
▁알 겠
▁ 춘
▁즐 거
▁ 찔
▁하 자
▁가볍 게
▁살 피
▁것 들이
는 가?
▁통 해서
▁다 양
' 을
() 의
o m
▁ --
력 은
▁노 릇
법 을
▁ 띠
냐 고
▁곳 을
하기 로
▁드 디어
▁이 래
▁부 정
▁ 폴
▁비슷 한
▁지 내
머 리
▁거 부
▁1 6
침 을
▁모습 은
▁부 엌
▁빛 을
▁"네 ,
▁알 지
▁시 대
▁최 근
▁ 값
▁본 다.
▁아닙 니다.
▁피 가
▁책 상
해 주
▁했 을
▁온 갖
우 가
▁테 니
▁없 어서
아 는
죠 ?"
▁테 니까
학 을
▁때문 이
▁ 깃
▁ f
▁삶 의
▁활 동
아 야
▁길 게
▁들어 갔
▁" 고
▁프랑 스
어 요
▁등 에
▁감 사
== ==
▁ 셋
물 론
▁창 조
▁글 을
▁ 끓
▁ 앙
▁감 정
▁ 싱
▁ 힐
▁사 로
▁시간 에
▁우 린
▁아이 들이
▁일 어서
▁정 리
▁바 보
▁아 내가
▁ 훔
▁방 송
겁 게
▁사이 로
▁꿈 을
질 이
▁하 느
▁ 텐데
자 에게
i c
불 을
▁ 텔레
쟁 이
▁사 냥
소 의
려 서
▁처 녀
▁나 갈
▁오 지
▁" 조
▁ 짚
▁ 훼
▁편 안
▁러 시아
▁바 이
었 다고
▁그 제
▁나 갔
▁쫓 아
▁관 찰
▁쏘 아
▁뿐 만
▁받아 들이
안 으로
▁단 단
▁알 았다.
▁지금 도
▁" 모
▁수 사
▁나 올
▁원 하는
▁이 들
령 이
' 이
경 의
단 이
▁좀 더
받 은
▁몰 랐다.
▁갖 추
▁연 주
▁언 니
▁ 곱
▁좋 지
▁그러 고
▁복 잡
성 한
▁때 부터
▁말씀 을
에 ,
▁사 태
스 크
e t
▁못 하게
행 을
▁사 내가
▁생 겼
▁ 류
▁다 이
치 며
겠 지.
회 를
▁보 인다.
▁나 면
▁완 벽
▁사라 져
▁분 이
▁높 이
▁그곳 에
▁마시 고
▁마음 은
▁강 력
▁우리 에게
▁" 글
▁달 라고
▁크 리스
세 요?
▁급 히
어 질
▁숨 어
나 마
▁일으 키
▁용 서
▁입 에
함 으로써
하면서 도
▁사로 잡
▁목 숨을
▁하여 금
년 의
▁예 상
▁혼 란
▁옆 으로
▁박 사
▁적 은
란 히
▁모양 이
겠 다.
▁기다 려
▁걸 었다.
▁짐 승
▁일 로
▁있었 는데,
▁것 인가
▁비 틀
기 ,
설 을
▁거 리를
하 듯
▁ 뼈
▁ 헐
했 기
▁태 어나
▁ 낫
▁자동 차
▁ 쌍
진 을
▁자신 에게
.... ...
▁조금 씩
▁폭 발
졌 다
▁밑 에
▁빛 이
▁만 날
▁지나 지
▁집 중
▁ 객
서 도
▁다 리
▁반 짝
▁시 골
애 가
▁양 반
) 이
▁상 징
▁ 쇼
생 이
▁ 끔
▁유 명한
▁도 움이
▁넓 은
▁어떠 한
▁개 발
▁아 예
개 가
어 머니
▁어디 로
▁칼 을
▁느끼 고
▁어디 에
▁ 런
그 램
▁여 겨
▁남 성
▁흔 히
▁대 원
e l
▁부 끄러
▁1 3
▁다 소
▁가 치
하 나
▁자세 히
▁지 혜
▁인 민
▁마 루
▁중얼 거렸다.
) 을
▁정 부
집 이
더니 ,
어버 린
s t
▁ F
▁이 게
▁작 용
▁ p
일 의
▁끌 려
▁ B
간 이
▁ 팽
▁졸 업
▁가라 앉
▁이상 의
▁믿 을
▁이 들은
야 !
▁고 맙
▁유 일한
림 이
우 의
▁기회 를
림 은
▁변 호
하 러
▁현 대
▁뜻 이
▁때 에는
▁여 섯
▁여기 저
▁ 딴
물 었다.
▁한 동안
▁마 디
▁ 액
▁않았 을
▁무릎 을
▁조그 만
▁ 낼
▁속 삭
숙 한
▁다 름
▁떠 난
▁ 챙
라 !
욕 을
▁엉 덩
▁있 으니까
▁기 본
▁죽 는
▁식 당
▁듣 는
▁19 9
씨 ,
렸 을
는 지도
▁구 성
▁ 벨
증 이
모 는
▁갖 다
▁ *
입 니까?
계 에
란 한
▁버 려
▁거 울
▁돌아 와
다 듬
오 ?
▁파 악
준 다.
▁했 습니다.
▁건 네
▁경우 가
질 러
▁과 정
▁느 낀
▁감 정을
▁던 져
▁ 낸
길 로
▁노 려
르 지
▁o f
▁나 간
▁자 료
▁제 발
▁수 준
▁그러 다가
애 는
▁찾 는
점 이
▁처음 에는
▁사 령
▁받 지
오 가
분 에
▁가 면
▁방 으로
▁전 부터
) 에
하며 ,
▁역할 을
▁저 지
▁골 목
산 의
▁제 공
실 은
▁서 양
▁끊 임
▁서 류
▁기 뻐
▁테이 블
▁불 이
▁드 리
로 ,
▁전 통
▁나 섰다.
▁계 시
▁친구 가
▁땅 에
이에 요.
나 를
▁빠 른
▁드 는
체 는
실 한
어 요?
총 을
형 이
▁서 둘러
▁ 흠
▁식 사를
떻 게
▁마 구
선 은
란 은
▁주 로
▁넣 어
▁ 뭉
▁스 승
마 .
▁땅 을
▁기 사
▁늘 어
등 학교
▁거 절
주 지
▁정 상
▁지 방
실 의
▁" 가
▁말 하지
▁] [
▁생각 하지
렬 한
▁ 촉
선 의
▁제 시
미 터
▁자 가
▁모 아
인 에게
▁됩 니다.
▁ 붓
- 1
▁고 민
문 의
하 하
▁망 설
례 를
모 의
여 서
▁끝 까지
▁내 지
▁개 념
▁되 자
▁문 학
▁자 는
▁질 문을
▁영원 히
▁자 ,
▁소 식을
▁앞 서
병 이
▁곁 에
▁내 린
습 을
리 한
▁절 망
▁조심 스럽게
느 라
▁ 삐
▁대 중
▁그러 는
▁1 4
▁누구 나
버 릴
▁그 릇
다 !
▁특별 한
▁회 의
철 은
▁" 응
' 를
단 의
▁의 해서
▁온 통
물 의
것 도
▁도 움을
▁표 정이
▁점 을
▁스 타
▁비 난
끼 리
▁페 이
격 이
▁아니 라는
▁읽 어
제 로
번 째
연 이
▁기 능
▁두 드
▁이름 은
▁고통 을
▁시 민
▁갔 다
▁사 내는
▁살 해
▁놓 았다.
관 에
▁터 뜨
▁아침 에
기 에는
▁담 당
쁘 게
임 이
▁은 행
▁뿌 리
▁둘 째
▁앞 을
▁"그래 ,
▁남 겨
▁방 에
▁채 로
사 람
지 요?
▁떠올 랐다.
국 에
▁때 로는
초 의
▁모 래
으로 ,
▁장 소
▁빠 진
▁ 뜯
인 들의
희 의
▁서서 히
력 의
▁일 제
사 ,
도 와
▁북 한
봐 .
▁다니 는
▁마음 의
▁잃 고
미 의
프 는
구 .
실 이
▁대부분 의
훈 은
▁이 틀
▁하지만 ,
리 면서
▁방 을
져 서
세 의
▁각 각
▁의 하면
▁남자 를
▁아니 겠
▁솔 직
.... ....
▁희 생
군 ."
▁눈앞 에
▁다 녔
십시 오."
▁ 돋
어 로
▁생 기
▁염 려
▁감 각
▁형 제
▁맞 은
교 를
▁않 도록
▁미국 의
로 가
하게 도
산 에
▁자 라
나 고
▁어느 새
▁ 섭
종 은
▁않는 다는
프 를
▁배 가
▁ b
▁박 사는
▁나 름
▁너무 도
▁들려 왔다.
자 들을
는데 도
▁하 다가
▁보 냈다.
▁인 식
▁심 지어
▁계속 해서
▁ 콜
리 라고
▁평 화
▁하 셨
▁잡 았다.
▁대 기
▁비 가
▁일부 러
레 스
▁레 이
▁어두 운
▁감 싸
▁있 으며,
▁시 내
▁위 협
심 한
차 게
▁누군 가가
▁모른 다는
공 을
▁ 멸
니 를
▁사람 과
방 은
▁한 가
▁4 0
▁아 ,
▁"아 니,
▁방법 이
▁꼼 짝
▁영 웅
▁의미 를
▁사이 의
▁고 마
▁누군 가
▁춤 을
▁심 한
손 으로
▁파 고
() 을
물 에
▁장 군
▁지 닌
▁회 복
▁ 앤
▁돌아 왔다.
투 를
▁점 이
▁"정 말
▁허 락
▁거 두
▁근 무
배 를
중 을
▁덧 붙
▁ >
민 은
▁사 상
장 ,
▁저 도
▁ H
리 ,
▁죽 여
▁반 복
단 다.
았 습니다.
▁거야 ?
▁무 섭
▁혼자 서
▁이 사
영 을
▁틀림 없이
▁그 토록
▁불 어
▁놓 아
▁들어 간
▁형 편
왕 이
▁왔 던
는 가
▁아 시
▁많 아
▁미 사
▁왔 다
▁말씀 이
▁고 구려
형 의
▁내려 다
▁희 망
▁시 도
요." 그
▁잊 지
는 가.
▁흐 르는
▁ D
▁직 업
구 에
▁신 음
▁것 인
▁자네 가
▁관 심
) 를
▁괴 로
▁시 원
▁이 집
▁벌 떡
▁ ,
▁편 지
▁준비 를
▁내 리는
이 기도
▁결혼 을
▁자 고
▁밤 을
대 고
▁도 덕
▁그만 큼
타 는
▁지니 고
더 군요.
발 이
▁마음 으로
▁머 리에
▁무 덤
▁맞 는
▁부 하
▁ 옹
▁일 행
▁진 지
▁아이 들은
▁밤 이
▁ w
단 은
▁것이 고,
▁없 지
리 라.
▁다 루
▁시 각
란 이
▁체 포
▁보 일
바 람
▁않 습니다.
▁인간 은
상 한
석 에
▁ 벤
▁위 대한
▁호 기
▁모습 으로
▁확실 히
▁솟 아
연 을
준 은
▁수 화
▁바 위
▁해 .
▁저 를
i l
▁이 거
▁아 내는
▁강 조
까 ,
▁국 제
▁밝 은
an d
▁둘 이
오 ,
▁ 팬
겠 지만
▁손 바닥
해 지는
▁영 향
▁희 미
▁아 들을
▁찾 을
역 을
▁느껴 졌다.
▁내 고
시 켰
▁주 었
색 의
시 의
▁저 항
심 으로
▁이 외
▁좌 우
재 를
▁안 고
▁참 을
자 도
니까 ."
▁된 다
▁내 놓
▁차 림
▁일어 났
▁혁 명
▁관계 가
▁ 솜
▁ 힌
양 을
▁의 한
▁더 러
▁생각 도
작 을
▁기 업
▁터 져
▁ 리가
▁머리 카
짜 리
5 년
▁들 을
▁소 녀
▁되었 을
▁가능 한
▁' 그
▁없 고,
▁종 이
▁음 식을
▁움 켜
▁제 1
▁이유 를
집 에
▁근 거
▁나 이가
▁부 부
리 어
지 면
▁발 달
자 들
▁걸 쳐
▁경 비
▁머 릿
인 으로
▁무 의
훈 이
▁어 째
▁ 맘
▁이야 기가
▁남편 의
▁부 러
보 를
▁냄새 가
보 니
▁한 다면
원 들이
물 은
▁이 가
▁피 를
▁내 쉬
소 ?"
▁모두 들
▁낮 은
▁데 는
▁무 사
▁아내 의
마 ,
▁요 시
▁부 처
▁안 전
▁것이 라
▁상황 을
▁사건 이
▁갈 아
▁느낌 을
리 에서
▁기 도
▁소 파
▁많 다.
달 라고
느냐 ?
▁가 벼
▁물건 을
력 에
▁감 히
버 려
석 의
▁봐 야
o t
▁공 동
▁가 시
▁돌아 서
스러 워
▁들 지
▁지 식
▁같은 데
▁질 렀다.
▁범 죄
▁화 를
▁붙 여
고 도
▁일 주
니 ?"
쪽 의
▁것 보다
▁일본 의
▁일 종의
▁들어 가는
▁끔 찍
▁이 기
▁훼 릭
스 레
▁아버 지를
▁그래 ,
▁제 거
치 의
▁군 사를
▁피 곤
▁소 리는
▁간 호
▁ 쳤다.
▁거 칠
서 의
▁" 다
▁끝 난
▁나 아가
▁"오 늘
▁답 답
▁제 외
▁텔레 비
▁치 고
▁목소 리는
수 로
▁입 에서
▁또 다시
▁목소 리를
▁사진 을
분 은
▁바 닷
▁해 당
▁내 는
▁보 게
▁지 시
y ou
다 지
▁ 뱃
마 한
▁공 부를
▁처음 부터
▁스 트
담 이
▁부드 러운
▁미 스
합 니다."
▁끊임 없이
에 만
▁이 성
▁대 개
▁등 장
▁뭐 가
니 아
▁저 희
▁민 주
내 지
▁19 8
▁계 집
학 의
▁단순 한
교 의
▁설 치
▁곳 은
뿐 만
니까 ,
건 을
여 ,
옥 은
령 을
▁아 랫
▁전 달
▁ 엿
▁ 덤
▁제 2
▁어머니 를
중 의
▁살 려
▁구 체
뚱 한
▁설 득
▁늦 게
되 기
▁내 내
▁자 체
▁환 경
▁구 름
▁괴 롭
▁ 르
▁느끼 는
▁나 뭇
▁벽 에
터 를
목 이
약 한
▁보 시
▁지 으며
▁신 의
▁말 투
▁해 가
에 겐
님 께
면 이
▁불 쌍
▁아가 씨
아 !
▁있 으며
▁신 비
3 년
▁ 잎
▁ __
▁후 회
▁수 십
마 에
▁수 용
스 키
십 니까?
▁때문에 ,
▁썼 다.
라 서
▁속 에는
안 이
▁되 돌아
▁불 편
▁프로 그램
표 를
▁이 혼
▁"글 쎄
감 에
▁비 해
▁나라 를
주 머니
오 의
음 은
▁ ...
▁경 계
민 이
범 은
▁진 정
온 다.
▁있 습니다."
거든 요.
▁의 지
▁부 인이
▁자신 은
▁걸 린
다 "
문 으로
▁ 셔
▁시 켜
▁여기저 기
▁신 경을
렸 던
▁비 명을
▁ 붕
▁적 극
▁아닌 가.
▁" 장
▁무 거운
랑 이
i on
▁그 도
▁생각 한
▁다시 는
▁기 관
▁지 붕
▁당 연히
▁진 정한
▁것일 까?
▁이 처럼
▁눈 동
l e
답 니다.
▁문제 에
저 리
▁못 한다.
안 의
▁견 딜
지 에서
▁보 냈
▁말 하면
▁형 사
▁" 하지만
▁뛰어 난
▁몸 은
' ,
▁화 려
유 의
' 이라는
▁생각 한다.
▁읽 고
▁빨 간
▁정보 를
겠 습니다."
리 라
▁ L
▁싶 다.
▁아이 의
▁옆 에서
고 가
▁마지막 으로
▁언젠 가
▁점 심
▁다 스
▁비 판
하 를
▁아주 머니
▁묻 는
▁계획 을
지 며
▁구 두
▁평 생
▁벗 겨
▁"그 는
▁지 적
▁총 을
▁힘 든
받 는
▁우리 나라
▁가능 성이
주 시
계 는
차 피
▁일 곱
이 게
▁마 땅
▁문 이
수 와
▁있었 다는
▁떠 날
▁않 으
구 ,
란 을
▁그 대는
▁열 쇠
▁젊은 이
하 라고
주 로
▁만들 었다.
▁지 옥
거나 ,
▁들어 오는
▁출 신
▁" 수
▁우 울
▁대단 한
▁제 법
거든 .
▁깨 어
▁달 러
▁의 자에
리 면
무 지
▁이곳 에
▁나 아
후 의
▁너 머
불 어
▁현 관
으니 ,
가 에서
준 이
▁"그런 데
▁점 차
▁태어 난
= -
▁뽑 아
현 은
▁이 익
절 을
▁당신 에게
2 년
▁후 ,
▁흘러 나
종 을
어 들
트 로
스 ,
▁넣 고
▁번 도
양 의
▁되 풀이
▁사 과
▁크 고
▁유 혹
▁ 빵
으 러
에서 부터
▁튀 어나
▁한 때
▁달 린
▁이 었다.
▁특 징
▁사람 처럼
해 졌
▁속 을
▁싸 우
▁해 방
▁정도 였다.
다 운
() 이
▁선 배
▁잔 을
▁모르 지만
▁마 른
합 니다
야 ?"
령 은
▁식 사
▁내 리고
▁평 소
▁질 문
▁증 명
▁저 런
▁경우 에는
▁나 란히
▁것이 었
▁요 청
▁쉬 운
▁근 본
년 을
▁외 쳤다.
▁한번 도
력 과
▁사회 의
지 자
) 가
▁한 두
▁부 산
으면서 도
▁장 교
손 을
▁거 쳐
▁확 신
▁아 르
. ”
▁클 레
더 라면
▁낯 선
▁아 우
▁거짓 말
오 를
세 요
▁"당 신
▁' 이
리 라는
무 는
▁갖 게
▁말 인가?
▁인 류
...... ."
▁부 인은
▁대 화
면서 ,
▁통 과
▁참 고
▁ 삭
것 은
소 서
▁물 리
4 년
▁ 린
까 ?"
▁형 성
▁생각 하면
▁대단 히
셔 야
▁보 이고
▁넘 겨
▁간 신
▁물 결
▁나 한테
a c
▁놀 랐다.
개 월
부터 는
르 의
▁일으 켜
▁" 하고
6 년
▁되 어서
▁" 잘
▁첫 째
▁않 고,
▁들어 올
▁분 야
잡 고
물 로
▁"아 무
▁몇 몇
인 ,
▁체 험
▁멋 진
이 자
▁했 는데
▁모 자
프 가
▁내용 을
▁더 이상
▁주저 앉
▁하 다
▁기 가
▁상처 를
▁소리 에
점 에서
의 가
급 히
급 한
▁무 리
▁부 여
놈 이
가 며
했 는데
▁햇 빛
▁아니 라고
▁너 를
▁작 가
▁종 류의
국 은
짓 을
▁안 타
▁방 금
▁눈 길을
매 를
▁현 상
해서 는
▁울 려
▁중 간
▁더 불어
▁젖 어
▁명령 을
쾌 한
▁ h
▁본 능
v e
▁많 았다.
▁운 명
이 지만
들이 었다.
주 에
7 년
▁때 였다.
일 까?
▁차 려
인 들
▁제 자
르 트
▁' 아
▁병 원
스 라
▁계 산
▁지금 의
▁바 퀴
▁자 체가
▁대 접
▁공 산
▁주 위
▁이 슬
▁향 했다.
▁이야 기는
▁공 중
되 면
▁만들 고
▁ 뿜
력 으로
▁내 며
▁경 쟁
안 은
▁대 가
▁" 세
두 는
▁" 부
로 의
▁감 고
어지 지
▁있어 도
▁말하자 면
▁집 단
차 는
▁"그 게
잖아 요.
▁ 년
▁갈 라
▁일어 섰다.
▁도 둑
▁뜻 밖
▁호 흡
▁전 에는
판 에
▁"이 제
▁그녀 와
▁가 려
9 년
▁ 꿀
치 기
▁황 금
▁지 경
) 는
▁순간 ,
▁걸어 갔다.
든 가
▁" 기
▁10 0
했 으나
▁이 탈
▁내밀 었다.
▁죽 고
▁살 짝
▁도 달
▁놀라 운
▁누구 도
▁" 물론
▁기 계
구 요.
▁감 옥
▁했 지만,
▁해 석
t h
▁남 녀
▁두려 움
o l
▁ 숭
▁세상 에서
철 이
▁거 듭
' 에
▁ 떡
▁아니 야.
▁찾아 가
▁귀 에
▁수 술
▁스 테
▁충 격
▁견 디
소 는
▁완 성
▁기다 리는
▁그 다지
' 가
치 에
▁잠 겨
▁표 시
▁걷 어
a m
▁두 어
▁웃 고
무 가
▁성 적
▁ 웨
▁수화 기를
▁남편 은
▁버 리는
▁세상 의
▁감 시
▁우리 들은
이었 습니다.
▁죽 이
▁사내 의
▁듣 지
.... ."
▁지 은
생 의
▁마치 고
▁수 백
▁손 수
▁왔 을
▁하 다.
어 의
아 를
▁돌아 가는
▁이 렇
▁칭 찬
서 에
▁시간 은
▁" 일
▁불 꽃
▁구 조
▁편 이
겠 어요.
▁뉴 욕
종 이
▁일어나 는
▁대 화를
▁허 리
▁데 가
=- =-
▁않아 .
▁ 핏
▁따뜻 한
▁간신 히
▁못 하
▁초 조
사 에게
▁끼 고
▁밥 을
과 도
▁하 려고
▁나타 났
란 다.
▁사이 에서
▁ !
▁속 이
로서 의
함 에
o w
▁있 으
▁세계 의
▁주 민
▁세계 를
우 를
▁것이 었다
▁결 심
1 년
▁피 아
▁애 를
▁꺼 냈다.
어 오
▁ 쑥
▁정도 는
▁움직 이는
,, ,,
▁이 따
이었 을
▁쓰 지
▁" 도
▁고 생
▁못 했던
▁맞 이
▁최고 의
▁ 콩
▁바 탕
▁있 단
▁새 삼
전 은
학 년
▁가 졌
지 면서
▁있 지만,
▁죽 었
에 선
▁공 간
▁발 휘
▁여행 을
▁되 기
랜 드
▁않아 요.
▁얼마 든지
▁법 칙
▁빌 려
▁엄마 가
▁주 리는
으니까 .
▁분 석
▁존 경
▁계 곡
▁평 범
▁잊 어버
▁세상 이
▁찌 푸
로 지
조 건
▁것이 고
▁좋 다.
▁거 느
▁돌아 왔
▁저 렇게
0년 대
래 의
▁시 대의
▁산 업
▁했 고,
▁내 보
▁침 대에
▁불 길
▁욕 망
해 지고
기 에서
박 한
까 봐
▁짓 고
하 에
▁사람 들과
▁ 니다.
거 니
▁목 숨
▁지나 가
어 는
▁겁 니다."
드 릴
들 여
▁" 거
▁ 험
▁말 인가
8 년
▁ 균
▁출 입
반 을
▁받 게
▁사건 을
▁싶 었
▁투 쟁
▁약속 을
집 으로
▁놈 은
▁뿐 이
문 학
이었 지만
▁ 껴
▁T V
사 랑
▁흔 들었다.
아 이
수 에
함 은
▁제 목
▁신 기
▁당 한
▁무언 가
▁ 율
▁그 대의
▁참 석
▁물 에
웠 던
▁사 정
이었 고,
▁경우 는
량 이
우 리
▁발 자
▁"어 디
▁카 메
▁어 색
어 내
통 이
파 의
▁차가 운
▁있을 까?
▁그 늘
▁사랑 이
선 으로
정 하게
네 ,
▁어 차피
▁울 음
▁잃 은
▁5 ,
▁지나 가는
있 게
▁말 입니다.
▁ 콘
하 라는
스 토
▁평 가
▁마 이
▁때 면
▁말 았
▁당 연한
▁일어 날
▁나름 대로
▁사람 으로
▁밖 에서
▁특별 히
식 에
옷 을
▁대 비
묘 한
▁관 심이
▁함 부로
▁동안 에
안 고
▁결과 를
▁하는 데
� �
▁실 망
하기 는
읍 니다.
▁사람 들도
▁자 본
▁자 살
숙 은
▁청 소
▁걱 정이
▁달 래
동 의
▁중 에는
▁바라보 는
악 한
장 도
▁"어 떻게
세 는
▁아내 를
▁중심 으로
▁있 소.
▁명 이
▁"예 ,
요 ...
▁있 으리
▁몰 래
▁사이 를
▁왼 쪽
▁1 년
▁농 민
▁군 .
란 의
▁시 달
▁안 되는
▁먹 은
둥 이
그러 나
▁발 사
▁만 나는
▁자신 들의
나 지
▁무엇 보다도
▁뛰 어나
▁그런데 도
▁밑 에서
▁않 기
까 요?"
▁불 쑥
▁ 닭
조 리
하 기를
함 과
▁다 물
▁시 체
래 를
▁상황 이
해 질
▁식 구
니 .
▁집 이
▁노 예
▁타 이
히 지
' 하고
▁1 .
▁이끌 고
느 라고
▁미 처
▁침 착
▁" 강
▁한 결
▁" 주
▁브 라
▁"그 렇게
니 의
▁지 원
▁의 원
▁커피 를
▁ 었다.
판 이
▁있 습니다
▁같 지
▁끝 났
▁날카 로운
▁뚜 렷
▁없 애
▁순 식
▁" 시
▁소리 와
임 에
▁곧 바로
▁밑 으로
▁시작 한다.
▁ R
▁벼 슬
▁ 핑
▁갈 등
▁불 렀
' 은
▁ 밭
▁우리 들의
였 을
▁뒤 따
▁능 력을
▁동 원
▁가 질
▁집어 넣
나 도
▁없 기
절 로
러 가
▁주인 공
▁건 설
구 만
▁이 전
▁계 단을
▁안 정
탄 을
▁개 가
▁없 으면
▁크 리
했 어요.
▁변 해
▁방법 으로
놓 았다.
다가 는
▁되 고,
하고 도
리 자
▁장 사
도 에서
▁간 에
."그 는
▁이 때
훈 의
▁선생 은
▁그 야말로
▁살 았
▁참 여
말 에
▁나 지
a d
▁죄 를
▁것은 ,
() 를
▁" 영
▁정확 히
▁번 씩
▁ 엔
▁굳 이
▁대 장
▁데 서
▁"그렇 다면
습 니까.
▁심각 한
▁ E
님 께서
▁해 요.
▁목 이
▁숨 이
▁홀 로
▁19 7
▁나오 지
▁불 리
▁살 이
하지 도
▁지 속
▁생 물
▁것 들을
▁철 저
▁내 버려
▁한 꺼
나 요?"
▁" 형
▁시 를
냐 ,
파 는
▁그림 을
▁조 정
▁장 식
들 었
▁설 명을
▁감 독
▁아무 것도
▁고 요
▁행 위
로 써
▁세 우
▁신 이
▁나누 어
보 았
▁보 내는
갔 다
▁아이 들
하 라.
▁집 은
리고 ,
기 보다는
▁태 도를
▁성 장
▁부드 럽게
▁남편 을
만 원
용 을
제 에
▁동 굴
▁찾 고
▁인생 을
품 이
네 요.
▁가리 키
▁떨어 뜨
이 한
▁얻 은
▁ 잉
▁번 이나
▁종 종
아 리
▁버 릇
소 로
▁응 시
▁우 연히
▁자 존
▁되었 다
▁똑 똑
▁사 망
▁" 말
▁똑 바로
▁불 교
▁결 합
게 도
독 한
하기 가
▁왔 습니다.
▁얻 을
슨 은
▁다행 히
▁내 뱉
▁자네 는
뿐 이었다.
▁흘러 내
▁때 로
▁남 을
▁방 문을
▁뜨 고
▁잡 은
▁서 너
▁어깨 에
인 도
▁나 선
▁없 지만
▁강력 한
였 고,
▁눈 치를
▁모양 이다.
▁강 화
대 장
상 에서
▁그곳 에서
▁다양 한
▁어 머
▁부 서
봐 야
▁기 자
는지 ,
비 아
▁로 마
▁말 라
▁내 부
▁먹 어
▁" 소
▁갖 는
▁않았 지만
다니 는
라 스
▁느끼 게
니까 요.
▁했 으나
▁없 겠
▁반 가
▁지키 고
게 ."
▁쳐 다
▁기다 렸다.
▁알아 차
귀 를
▁아이 들을
▁순식 간에
세 에
▁멈추 고
▁워 낙
▁부 지
▁고 쳐
▁식 탁
▁나타 나는
▁믿 는
다시 피
이 든
▁지 극
▁숨 겨
▁주 어
▁류 지
▁착 각
하 라
▁의 식을
▁기운 이
▁눌 러
▁그 린
산 은
언 을
량 을
소 ,
시 대
▁" 진
▁라 이
▁" 유
▁트 럭
▁마음 대로
▁웃 어
애 의
▁소 련
▁안 될
▁" 남
▁신 부
▁통 일
▁2 .
▁결 론
▁한꺼 번에
거 야.
▁되 찾
▁추 억
▁들어 갈
운 이
▁시 집
▁것 인가?
▁감 정이
▁흔 들어
▁사랑 은
그 런
리 도
▁채 워
▁경우 도
▁사 장
▁버 스
▁"나 도
연 의
() ,
▁기회 가
▁ 싹
▁중국 의
점 에
▁익 숙
▁그제 서야
▁만 남
▁사회 적
▁접 촉
▁무 기
▁명 예
갑 을
▁조 종
▁기억 이
▁사 흘
▁부 친
▁끝 이
▁법 이
작 은
▁추 구
▁공격 을
▁여자 들이
▁시 기
▁방 해
▁남자 와
▁임 신
락 이
▁2 4
▁보여 주
▁ 탑
▁"당 신은
▁무 관
▁오 면
우 스는
▁신 앙
▁길 은
격 한
▁소 문이
▁다가 가
▁믿 지
▁같아 서
▁맑 은
▁억 지로
▁" 언
된 다고
▁떨어 졌다.
줘 야
▁여 인의
▁바 짝
연 은
편 에
▁틀 어
▁사람 이었다.
▁길 에
▁오 로지
▁길 로
이 도
▁다 를
▁것이 며,
▁선 거
▁했 다는
▁ W
▁보 인
적으로 는
▁웃 는
1 9
▁시 계를
▁갑 작
▁여자 와
▁쓰 레
▁털 어놓
학 적
▁ 즈
간 은
▁너 의
▁가져 다
' 이라고
▁최 초의
▁보고 는
▁거 지
▁비 명
▁일제 히
▁단 말
당 의
회 가
▁케 이
상 적인
▁불 평
▁않아 서
느 니
향 이
▁그러 면서
기 며
▁안 심
▁좁 은
▁귀 족
대 학
베 이터
▁수 염
▁오 고
▁잘 라
▁그래 .
▁장 수
▁얘 기가
내 기
▁묻 는다.
▁ 곽
구 멍
▁치 밀
▁쏟아 져
▁감 동
위 원
▁제 기
▁이따 금
놈 의
▁같 습니다.
드 로
▁아 줌
▁쥐 고
▁이 지
a y
쯤 은
▁버 티
▁뒤집 어
람 세
▁떨어 지는
▁색 깔
▁생 명을
▁통 제
▁얼 어
▁것입니다. "
셔 서
받 고
현 이
▁의미 가
▁비 극
▁떠 났
▁저 의
들에게 는
▁죽음 의
▁인생 의
였 습니다.
▁않 다는
▁신 고
▁19 6
▁" 제가
▁돌아 갈
▁오른 쪽
▁빠 르게
▁곧 장
▁이루 어진
▁서로 의
▁개 혁
▁의견 을
▁지나 치게
▁방 울
이었 고
▁5 월
▁차 이가
▁느끼 지
리 나
▁정 의
초 를
▁재 촉
청 을
▁수 천
▁있었 지만,
했 어.
이지 요.
▁상태 에서
---------------- ----------------
▁ N
() 에
▁하늘 이
▁" 자,
▁울 고
en t
세 ."
민 의
어 ?"
▁보내 고
대 에서
▁기 독
▁이 들이
▁창 백
▁" 허
▁일 러
▁노 인
▁만나 게
가 요?
▁살아 가는
▁ 튼
하기 만
▁아 픈
해야 만
▁활 짝
▁여 인이
▁잊 고
면 으로
▁스 쳐
▁동 의
▁잡 혀
▁이 럴
▁은 근
▁슬 픈
▁이리 저리
베 르
▁장 미
▁잠 수
▁한 달
▁유 명
▁되 도록
그 레
▁내 다
스 타
▁울 렸다.
▁방 향을
▁입 구
▁엄마 는
이다. "
▁가난 한
▁내 세
▁된 다고
리 적
오 지
구 니
시 한
▁새 겨
▁� a�
▁약간 의
▁개 를
트 에
▁출 판
▁기다 렸
▁즐 거운
하 실
단 에
어 주
▁흐 느
▁그 대가
▁거짓 말을
▁뚫 고
▁덩 어
▁"그래 서
겠 다
▁하나 씩
▁몰 라도
▁실 천
▁유 전
▁죽 인
▁종 일
지 금
▁데 도
▁않을 까
▁끼 어
▁탈 출
련 을
▁다 짐
▁내려 다보
겠 어.
▁대 상
에게 로
▁쓰 다듬
▁몰 고
▁방법 은
▁일 하는
▁주 어야
▁방향 으로
다 를
▁이르 러
▁아 기
▁잘못 된
▁전 의
담 은
▁」 「
박 을
▁고 급
▁것일 까.
▁사람 ,
▁고 백
▁깨달 았다.
▁너 도
반 의
▁당시 의
▁구 해
▁실 은
▁고 등학교
▁주 의
. '
▁걸 고
▁거예 요."
크 를
▁있 지.
-- -
▁ 똥
운 을
▁한 층
겠어 요?
동 에
▁돌아 올
▁짐 을
찮 은
▁대 륙
▁원 망
루 를
입 니까?"
방 울
▁하 이
▁혀 를
▁바람 을
▁나온 다.
▁머 뭇
▁3 년
회 에
.. "
▁때 를
▁많 았
▁과 정을
▁필요 는
▁높 아
▁고 대
돌 이
▁도 무지
▁달려 가
▁비 웃
▁모 자를
▁포 도
▁살펴 보
▁구 별
어지 게
▁젖 은
▁ 죠
랍 니다.
▁떠 났다.
▁완 전한
나 와
▁둘러 싸
▁지 지
▁정확 하게
▁무 한
▁알아 야
분 한
유 를
▁비 추
▁잔 인
▁이 십
포 를
▁연 락을
▁제 이
마 을
▁묻 고
▁창 문
고 한
� a�
▁작 정
▁원 칙
▁시 선이
▁거 리는
▁공 주
▁기분 을
▁ m
▁말 대로
▁따 위
하여 ,
차 에
▁인 상을
▁미 루
외 로
▁전화 가
▁국 내
▁제 3
용 이
▁장 면
▁3 .
코 는
▁발 걸
해 는
섭 은
▁쓸 쓸
▁단 계
으로 도
▁해 보
▁서로 를
▁사라 졌다.
▁피아 노
▁죽 이고
▁상태 에
▁돌아 오는
▁비 참
▁없었 습니다.
▁다가 왔다.
하 가
르 기
▁세 운
▁미 터
c h
원 들은
감 의
▁주 요
▁경우 에
▁딸 을
변 을
사 도
▁덕 분에
i m
었 기
▁계 급
▁재 판
희 를
▁고 정
린 은
▁가로 막
▁비롯 한
▁놓 인
세 한
▁노 란
▁가까 워
▁싶 어서
▁왕 은
▁위험 한
관 으로
금 이
▁ 첩
다 의
먹 을
▁밖 의
▁했 었다.
▁이유 로
스 에게
▁지나 갔다.
하 시는
▁전쟁 을
▁ 센
이 던
형 은
▁대 충
창 을
▁떨 고
▁뻗 어
▁상 당한
▁장 애
▁간 다.
▁말 이었다.
인 에
▁만나 고
▁선생 님이
▁올라 갔다.
조차 도
▁널 리
▁" 만
아 주
▁치 켜
▁" 보
▁시 체를
▁여 기는
▁상태 로
였 고
) 은
▁예 전
▁2 년
치 면
▁가벼 운
▁최 소한
▁바 가
▁2 1
▁서울 로
그 가
담 한
준 의
▁" 잠
속 의
받 을
▁힘 껏
▁당 연
▁조금 만
▁다 리가
▁책 임을
화 된
님 .
에서 ,
▁신 체
▁쫓 겨
씨 와
▁눈 에는
▁그곳 을
▁들어 섰다.
▁흥 미
▁예 쁜
▁달 이
심 은
▁행복 한
▁소 문
▁했 고
▁것이 나
▁피 우
릅 니다.
설 이
▁배 운
친 다.
▁밤 새
▁안 겨
▁여자 들은
t o
▁피 로
▁전 개
▁경 영
네 의
▁굴 러
현 의
채 를
선 에
였 지만
▁"그 럴
▁출 근
킬 로
▁땀 을
▁ 뚝
▁그러 다
재 가
▁헤 매
▁아 쉬
고 의
연 구
▁런 던
▁걸 로
▁친 척
▁수 상
▁우리 들
스러 웠다.
▁신 분
전 으로
▁중 에서도
▁노 인은
▁아무 튼
▁삼 십
▁향 하여
▁멈 춰
당 을
▁웃 음이
▁모 조리
▁주 차
▁" 음
무 리
▁신 세
▁비 서
▁없 으니
장 에게
▁그때 는
▁때문 입니다.
적 은
▁돌 이
▁밀 고
밖 에는
▁다 해
▁인간 을
부 인
▁달 빛
이 면서
▁나가 서
▁아 뢰
▁학교 에
▁바 라는
▁"어 머
▁통 신
▁" 서
▁목 욕
▁안 녕
▁않았 습니다.
▁비 어
▁걸어 가
▁주 십시오.
▁" ...
▁에 이
▁주 인이
족 의
▁아 끼
했 었다.
▁넘 는
▁강 요
▁없 는데
월 에
▁자기 도
▁엘리 베이터
드 라
▁줄 은
▁충 격을
▁반응 을
▁흘 렀다.
▁나 중
▁부분 을
▁중 단
▁필요 로
▁재 능
하고 자
▁쓸 데
▁이른 바
님 과
형 사가
▁오 시
▁적 도
." 하고
▁군 데
들 인
▁다 닐
크 는
▁생 존
▁확실 한
▁미 워
▁선생 이
▁써 서
' 고
▁부 대
▁시작 했다
▁취 급
동 생
리 오
여 .
중 하게
▁전 자
▁연 극
기 라도
00 0
▁보아 도
르 가
▁어째 서
▁굳 게
파 가
▁것 .
▁마 셨다.
▁그 보다
▁헤 아
감 한
▁올 랐다.
▁극 복
▁거 친
▁이해 가
쳐 서
▁파 란
소 에서
▁아버지 와
시 로
▁연 기
▁어 조로
▁예 언
▁보 자.
▁퍼 져
다가 ,
▁드러 내
▁사랑 하고
▁환 자
▁무 지
” 하고
감 과
▁아 픔
━ ━
▁오 셨
전 에서
▁적 의
었 어.
▁분명 했다.
▁대 사
▁안 개
▁여성 의
▁있었 으나
▁돌아 갔다.
린 이
▁미 끄러
▁사용 하는
▁셈 이다.
▁ G
▁이루 고
▁증 오
i d
▁짝 이
▁공 항
▁처음 에
▁"아 직
봤 다.
▁저 기
▁영 어
료 를
▁뒤 ,
▁비 상
겠어 요."
태 가
▁며 느
▁소 비
▁인 물이
▁반 쯤
디 는
▁소리 도
▁페 르
인 지도
▁심 하게
했 는지
▁반 대로
▁맞 춰
▁침 을
▁근 육
▁순간 에
하기 에
▁왕 이
▁< <
사 이
사 에서
▁강 하게
▁사랑 에
▁분명 한
▁가 방을
▁하나 로
아 니
▁등 은
▁분위 기를
시 다."
▁소 위
▁쓰러 져
▁점 령
죽 을
▁관 념
일 ,
▁딸 이
보 가
▁단순 히
막 을
▁친구 를
▁손가락 을
으로서 의
롭 고
▁차 마
▁이상 하게
▁내 면
▁거 요.
▁추 측
(1 9
▁애 써
▁이탈 리아
: (
▁손가락 으로
u s
▁ 댄
▁선 물
▁병 이
▁똑 같이
▁"여 기
올 랐다.
▁단단 히
까 지만
▁아 기를
▁명 을
▁귀 가
▁ 뱉
으 라고
▁질 문에
▁삼 아
▁엎 드려
▁ 퉁
철 의
▁예 정
▁병 원에
▁이 겨
▁" 에
▁아저 씨
녀 를
▁한 데
림 의
▁시 장
▁교 통
▁유 행
▁방 어
▁언 급
반 에
직 을
해 ."
▁점 에서
▁둘 은
▁첫 번째
▁ 칸
앉 았다.
▁엉 뚱한
▁언 어
▁떨 었다.
▁자연 스럽게
▁"여 보
▁멍 청
▁지 났
▁신 뢰
군 과
▁ 층
▁떠 나는
> >
▁말 야.
▁생각 하며
▁평범 한
▁ 냈다.
만 치
▁주 문
호 텔
▁돌아 다
▁놈 들이
3 0
비 로
▁" 상
▁일 치
▁품 고
▁신 문을
▁ 겹
▁" 경
▁어 때
▁세 자
▁초 대
▁친 절
▁강 의
까지 나
년 은
▁달려 갔다.
▁정치 적
▁진 실
▁여자 에게
▁키 가
▁보 도
▁올 리
▁기 름
▁ 핀
▁"아 버
했 는데,
▁우 스
기 나
복 이
▁어머니 와
▁죄 송
▁자꾸 만
k m
▁운 영
▁멍 하니
답 게
되 었던
▁외 로
▁갈 수록
▁일으 켰다.
▁자세 를
▁꽃 을
▁살 을
▁전쟁 이
수 ,
▁같 기도
▁저 절로
▁늘 어놓
▁스 물
▁규 칙
▁담 겨
구나 ."
했 지만,
▁봐 도
▁예 의
▁" 신
▁재미 있
▁변 화를
▁추 적
▁주 위에
▁상 기
▁연 합
퍼 센
▁파 리
하 ,
▁상태 를
량 의
▁간단 한
e c
▁흐 르고
경 으로
그 렇
2 )
▁몇 번
▁있어 요."
스 코
세 요,
▁못 하겠
▁단 호
▁입 장
학 이
▁있어 서는
었 어요.
▁감 탄
▁손 님이
성 ,
숙 의
음 에도
▁것이 오.
형 사는
권 이
길 에
▁" 으
▁보 살
▁않 으려고
▁맥 주
▁마 친
▁모 순
▁위 치를
▁훔 쳐
▁되었 습니다.
디 가
지 고,
▁읽 는
1 0
어 !
▁되었 던
▁ ━━
▁무 게
▁기 타
각 을
▁유 난
▁19 5
▁ 쟁
▁무 조건
하였 다
▁두 지
는 ,
▁정 책
▁말이 야."
▁놓 았
▁카 페
심 에
혼 자
▁거기 에는
어 요?"
▁지 껄
▁열 려
치 로
▁관 광
▁돈 은
버 렸
▁고 양
▁빛 나는
▁조용 한
▁사무 실
레 를
▁고 집
▁나와 서
▁어리 석은
인 들을
▁본 질
터 가
▁괜 히
▁정확 한
▁세 우고
▁거 다.
▁거 래
상 과
진 한
▁" 두
사 건
결 을
▁즉 ,
▁이 승
▁여 학생
라 우
맞 은
취 를
▁질 투
괜 찮
원 과
▁영 광
움 과
▁이 들의
▁우리 도
▁막 아
으리 라.
별 로
▁은 밀
▁기 념
▁우 물
▁돌아 보았다.
달 러
▁얼 음
▁깨 어나
거 리가
▁하 긴
▁계 신
옵 니다.
▁실 로
▁움직 일
▁끝나 고
▁무엇 인지
▁예 측
▁ 킬
▁모 델
▁형 사는
▁지켜 보고
▁과정 에서
▁"저 는
▁" 요
▁찾아 내
▁도 서
▁운 동을
▁ ......
과 를
▁차 에
▁아닐 까
배 가
▁돌 고
▁뒷 모
▁공 을
▁취 해
▁비교 적
▁부 인의
▁타 는
자 리에
▁쌓 여
▁기 간
▁잡 지
▁마 리가
▁싶 다는
공 이
예 요."
▁적 용
▁ 득
▁오 .
▁외 출
갑 게
파 를
▁움직 이지
낸 다.
되어 야
▁마찬가지 였다.
댁 은
▁이 르는
▁떨 리는
▁죽 일
▁날 ,
▁살아 남
▁걸 친
▁의 자
▁자세 로
아 요.
▁확 대
▁갔 을
▁시 인
하 곤
▁말 라고
▁말 해서
▁대해서 도
▁능 력이
▁한마디 로
초 가
▁그럼 에도
그 녀는
▁공 장
▁솔직 히
▁들어 온
▁병 을
▁상황 에
▁매달 려
곡 을
▁화 학
==== ====
▁무섭 게
▁올려 다
▁던 졌다.
▁여 인은
▁차 고
▁몸 으로
▁보 려고
▁공 통
▁말 했습니다.
▁군 대
▁받아들 여
▁세월 이
겠 지
▁" 현
▁자 식이
가 게
▁드 라
느냐 는
▁능 력
▁따 른
▁소년 은
생활 을
신 으로
▁그러 던
▁있어 ."
▁않았 고,
▁하늘 에
산 으로
▁농 담
익 은
▁말 인가.
▁사라 진
▁사 정을
▁마 사
▁준 다.
임 은
▁작 전
▁아니 지만
▁프 리
▁6 월
봐 ,
▁저 었다.
▁기독 교
움 에
▁왕 의
▁나오 고
▁사 항
▁말 하였다.
▁스 위
작 이
▁인 터
▁회 장
▁풍 부
머 리를
이 제
▁오 전
▁용 기를
국 으로
▁보 안
▁거 슬
▁옵 니다.
▁안타 까
부 인은
▁그 들과
▁각 종
▁사 귀
재 의
▁정 복
▁서 두
시키 기
▁보 낼
▁유 태
▁고 독
▁이상 이
▁들 리는
▁물 려
▁태 도
▁전 기
▁싸 움을
▁본 래
▁지 불
▁부 근
▁전 차
▁놈 의
▁선생 님은
▁잡 을
빈 은
었 는데,
▁눈 부
▁않는 다고
▁도착 한
일 으
▁있 나
▁문 명
▁맞 지
▁것이 기
▁금 지
스 테
태 는
▁지 르며
▁쳐다보 고
▁ 람세
▁없었 기
권 의
난 다.
▁하 밤
▁법 을
▁전 날
▁합 니다."
▁방 에서
▁존재 를
▁존재 하는
▁울 음을
▁수 입
먹 은
▁실 내
▁대답 이
목 에
으 신
▁하 려
▁맡 겨
소 설
▁바 른
▁ 뚱
▁되 돌
▁묵 묵
▁손 은
▁점 은
당 이
해 ,
▁뒤 에는
▁다음 에는
발 로
▁것이 니
▁실 현
▁내려 갔다.
색 으로
▁녀석 이
i g
오 던
▁말 의
▁사실 에
▁나라 가
부 에서
▁제 주
▁알아 서
▁거 라는
▁사실 이다.
▁"이 런
▁억 울
▁ 텐
속 이
적 의
▁주 기
▁내려 와
▁통 하여
▁그렇 다.
▁차 이
▁계 단
▁등 으로
▁충분 한
▁거 지.
▁의 무
▁건 축
▁ and
▁" 인
▁지 고
▁무 어
류 를
▁먹 지
라 니
▁연 상
럽 고
▁파 견
▁든 다.
다 리
들 처럼
린 의
프 의
▁오 르는
▁간 직
▁베 풀
▁끔찍 한
▁일 년
() 가
▁ 슨
했 으며,
▁미 치
겠 습니까?
▁보 니까
▁하는 데,
▁딱 딱
대 며
▁나 이트
▁어느 날
▁있는 가
▁노 인이
▁실 려
▁ d
됩 니다.
워 야
▁술 잔을
연 하게
▁그것 에
▁웃 으면서
▁창 문을
수 도
어서 는
▁술 이
▁19 3
▁더 니
▁것 인가.
▁박 사가
크 가
▁고 속
▁있을 까
▁완 전
지 나
▁수 단
▁바 르
국 에서
▁어 밤
▁8 월
라고 는
▁당신 도
▁아직 은
▁사라 지고
컨 대
▁하 더
감 으로
▁특 수
▁밝 아
▁" 동
▁바꾸 어
▁행 위를
▁이름 으로
지 라도
▁한국 의
▁ 펜
▁귀 여
▁친구 는
▁참 가
▁팬 티
▁매 력
▁4 .
▁담 긴
▁다가 갔다.
▁할머니 는
▁언젠 가는
되 게
▁마 신
▁과거 의
론 은
스럽 고
▁신 선
즈 는
▁살 다.
▁최 종
▁신 은
▁있었 어요.
으 셨
u n
론 이
▁자 아
▁쳐다보 며
풍 이
▁ 획
▁대 리
법 이
▁속 도로
▁배 신
▁경험 이
▁몰 라.
피 를
▁묻 어
▁일어나 서
▁복잡 한
▁구 분
▁벗 고
▁ 0
주 와
▁그 거
▁읽 을
갈 아
왕 을
▁돌아 다니
일 로
루 만
▁일 요일
▁주먹 을
▁살아 야
▁화려 한
▁유난 히
▁주 도
▁되 살
▁빌 어
▁결국 은
부 와
▁목 격
불 이
태 를
▁정도 가
▁페이 시아
▁놀 랍
▁일 그러
▁이번 에
▁시 키
▁추 진
▁2 3
▁교 환
▁술 에
▁t o
▁했 어요.
졌 던
▁바다 를
대 기
학 은
▁나 쁘
적 이었다.
후 에
▁같아 요.
▁3 6
긴 다.
▁이 대로
▁나무 를
크 라
한 을
▁상 대가
▁불안 한
▁시 가
▁다 들
▁현재 의
화 에
▁지극 히
역 에
한테 는
▁하늘 의
▁전화 번
▁자연 의
절 이
▁어 릴
▁탄 생
( :
▁얘 기는
▁알려 진
자 리를
▁서 른
열 을
▁골 짜
▁상태 가
▁잃 어버
되었 을
당 에
▁잡 는
▁애 쓰
▁힘 으로
▁창 고
▁있 습니까?
▁신 하
나라 의
더 러
▁변 화가
▁직 원
고 .
유 한
▁알려 져
버 리고
▁들 리지
▁설명 해
끄러 미
군 에
버 리
▁올 렸다.
▁ 탕
▁꿈 꾸
▁스스로 를
선 가
음 의
▁아이 들의
▁맡 아
▁독 특
▁7 월
▁ 읍
면 에서
▁어린 이
▁경험 을
▁일주 일
처 를
졌 을
▁사 주
름 한
▁ 럭
▁움직 여
▁경찰 이
보 면
▁수 만
▁인 상
▁결 정을
토 를
▁접 어
▁황 제
층 으로
▁어 떨
▁저 택
▁택 시
▁4 월
▁오래 된
▁음악 을
▁다음 ,
▁만들어 진
▁팔 아
▁신 사
▁절 을
와 ,
었 다가
▁6 0
크 의
▁아 들의
▁요 란
▁분위 기가
령 의
▁아닌 가?
라구 .
▁비밀 을
▁모른 다고
쪽 이
▁알아 듣
▁쌓 아
님 도
적 ,
류 가
▁앞 의
공 의
된 다는
▁거 북
▁히 틀
▁하 려는
▁피 워
▁10 년
▁마 시는
▁19 4
정 과
▁있었 다고
▁갈아 입
음 으로
정 말
▁고 기
련 의
해 의
▁그 라
( ?
날 이
▁동 양
▁묘 한
▁좋 았다.
▁상황 에서
▁발견 한
▁결과 가
▁좋 게
▁챙 겨
▁그 에게는
▁수 업
▁그러나 ,
결 에
▁여 신
▁과 장
▁없었 고,
▁행복 을
사 하고
▁비 단
▁공 식
▁권 총을
▁그곳 은
▁확 보
▁정 이
▁도 전
▁선 언
▁보면 ,
▁때 려
▁허 벅
▁그 나마
▁의 사가
▁법 률
▁부 를
▁냄새 를
▁생 기는
▁된 다면
▁국 가의
▁식 민
▁하 자.
하 듯이
▁파 티
▁맞 고
▁따르 면
* *
매 가
▁부분 이
▁교육 을
▁배 달
▁생활 에
▁ 윈
으 려는
▁거 리가
▁불빛 이
▁승 용
▁근처 에
▁나 서는
▁막 을
▁기 준
▁비 디오
▁9 월
▁부 담
▁증 가
▁내용 이
▁틀림 없
▁자 전
▁마 세요.
▁감 았다.
▁있을 지도
▁할머니 가
▁막 상
▁빨 아
락 의
▁엉덩 이를
▁한 창
▁작 업을
▁조 상
병 은
▁무엇인가 를
▁전 환
과 ,
▁끼 여
▁올 린
▁ 으로
시 오.
▁바 늘
▁구 부
▁취 한
▁보 장
는 지는
▁들 면
▁소용 이
이었 는데
댁 이
▁이슬 람
하 늘
▁말 일
▁미 군
해진 다.
▁내 릴
▁고 객
▁서 구
▁임 명
▁포 로
▁신 라
▁" 바
▁들어가 서
▁재미 있는
▁때문 이다
▁느끼 며
▁관련 된
▁부 르고
▁물 끄러미
스 (
▁"그래 도
▁섞 여
▁버 릴
▁않는 다면
▁입 이
▁쥐 어
롭 지
토 바
▁우 두
▁번 은
▁세계 에
▁그 로
▁따 랐다.
▁곳 곳
위 와
▁공 허
▁올 바
▁" 공
하는 데
▁장 기
▁약 한
▁살아 가
▁그것 으로
성 도
▁달 랐다.
▁피 어
▁ 괘
▁받 으며
▁호 소
▁열 린
▁기억 하고
▁날 아가
버 트
▁억 제
▁마 리의
▁귀 찮
되 었다
재 는
▁대 대
▁글 쎄
각 이
▁싸 늘
아 저
▁허 공
▁알 리
▁가지 를
▁3 월
▁보아 야
▁ 섰
▁퇴 근
▁흘 리며
▁주 세요.
v er
▁싶 을
▁잠자 코
▁뜯 어
▁찾 았다.
금 은
습니다 만
▁장 히
▁노 력을
▁않았 다는
▁할아버 지
▁어 루만
▁알 몸
론 의
병 의
▁ 링
▁역 사를
▁같 으면
▁신 호
▁서 방
▁" 참
바닥 에
▁셋 째
여 섯
체 로
▁나 자
▁적 어
▁둘 다
t er
동 은
▁퍼 부
▁그 레
▁뜻 .
▁상 호
▁완벽 한
안 에서
▁않았 기
▁피 할
들 만
잡 을
▁것 뿐
▁고 무
쪽 은
▁울 부
▁여기 까지
▁정 당
▁이 만
▁그러 면서도
▁우 려
▁이 빨
▁무 얼
▁안 에는
그러 자
▁가리 켰다.
▁기쁨 을
▁거 꾸
▁장 례
▁불러 일으
- 2
▁가 입
▁했 는데,
책 이
▁번 갈아
▁않았 고
▁멈추 었다.
▁구석 에
손 이
자 나
훈 을
▁기 원
▁신 념
새 를
▁닦 아
▁부 른
▁드 나
▁걷 고
움 은
!" 하고
▁이르 기까지
▁어 떡
와 도
점 은
▁못 지
▁카 르
리아 는
스 턴
▁적 당한
▁애 가
▁묻 지
' 로
▁두 루
▁시작 하는
▁몸 부
▁쓰레 기
▁단 정
▁택 시를
▁" ......"
▁데이 빗
▁수 수
▁대 상이
▁주 무
▁아 랑
▁목 에
▁10 월
한테 서
▁광 주
▁말씀 드
▁코 를
▁풀 려
거 를
▁말 과
▁대 립
▁고 용
▁공 개
▁묵묵 히
▁있었 어.
▁벌 어진
▁계속 했다.
냐 는
▁노 출
▁경우 ,
▁마 지
▁간단 히
▁창 밖
▁파 묻
▁그랬 다.
▁방안 에
▁다시 금
▁왔 다는
▁은근 히
편 으로
▁생 생
▁학 문
▁주 인은
당 할
▁갖 지
▁판 매
▁휘 두
▁영원 한
런 히
▁의 존
▁좀 처럼
했 으며
▁전 체가
▁절 반
▁우 뚝
들이 다.
▁생각 했던
▁슬 퍼
▁아 득
▁주 위의
▁의 식이
▁놀 랄
▁나라 에
▁발견 했다.
되었 다는
심 의
▁옮 기
▁ 벅
▁배 치
▁술 집
구 로
▁자신 과
▁"그러 나
▁이 의
▁위 의
▁방 식
▁질 러
먹 는
▁두 들
층 의
▁교 수는
강 을
계 로
잖아 ."
▁일 상
▁인 기
▁것이 며
치 면서
▁흉 내
▁않 지만
그 라
▁소 식
▁듣 자
중 이
▁하면 ,
▁정 지
군 ,
너 는
렸 습니다.
▁순 수
▁순 수한
▁태 워
▁놀라 서
▁기 도를
▁얼어 붙
o s
권 은
다 )
위 에서
▁향 한
▁옮 겼다.
것 이
▁한 숨
▁잠 들어
▁당신 과
▁소파 에
▁사 기
▁치 며
▁기 둥
▁같 았다
▁내용 은
▁그 놈
▁되었 고,
" 하고
▁삼 촌
▁즐 기
▁깨끗 이
▁공 급
▁베 르
▁이번 엔
화 와
▁시작 된
▁녹 음
발 의
▁내 다보
▁전 국
▁일으 킨
▁대 형
▁그래 ?
▁침 입
▁검 사
▁항 복
▁내 던
답 을
▁대 문
▁아니 고,
▁광 경을
하겠 다는
원 ,
▁치 는
▁돌아오 지
▁우 주의
▁생각 으로
▁초 라
▁힐 끗
> 의
▁설 마
▁그때 까지
▁방안 을
▁기 생
들 지
▁물 었다
i r
▁소 식이
▁집안 에
러 는
▁시 야
▁금 세
▁"네 ."
▁자기 에게
▁메 시
았 다는
▁줄 곧
▁일 정한
오 늘
▁셈 이
▁아 시아
▁그러 지
▁자기 는
쳤 다
▁고 개
▁마음 속으로
▁끝 날
▁나누 고
▁미 술
▁연 기를
▁사건 은
▁아내 와
체 에
십 니까?"
▁보여 주는
▁오 기
a g
▁허 용
보 게
카 는
▁관 해
해 하는
▁것 입니다
▁쓰 여
비 와
▁개 월
▁"알 았
▁" 엄
▁부 상
▁무사 히
셔 츠
행 이
▁자 의
▁슬 쩍
잡 아
▁바라 본다.
▁흩 어져
▁끝 내고
▁간 절
▁오랜 만에
라 !"
▁양 쪽
철 을
터 에
▁놀 랐
▁축 하
▁시 대에
▁기 꺼
이었 기
▁우리 들이
▁하는 지
▁침묵 이
드 레
들 .
▁부 풀
▁독 자
틴 은
▁스 님
▁집 착
▁할지 라도
▁있 다면,
우 며
▁은 혜
▁일찍 이
▁지 워
▁이르 렀
▁산 을
▁모 험
▁뛰 쳐
▁탁 자
▁깊 숙이
▁맛 이
▁움직 이고
▁이끌 어
▁모 니
데 .
▁몇 년
▁한편 으로는
움 으로
▁이 치
든 다.
▁발자 국
세 요?"
십 니다.
▁공 손
만으로 도
음 .
▁지 쳐
▁전 하
▁들어 선
▁외 면
▁노릇 을
었 지.
▁후 에는
▁각 기
▁마 는
▁제 한
▁날 은
▁골 라
▁ 리는
▁정 부의
▁사건 의
▁다 투
▁없었 을
▁떠나 지
▁본 격
▁무 심
▁운 명을
k e
▁태 평
▁따 르는
▁되었 다는
▁두 었다.
▁활 용
▁무서 워
▁ 냈
르 면서
▁남자 들은
▁한 명
▁모 시고
▁그러 고는
▁더 러운
▁남자 들이
비 에
관 과
▁"어 머니
▁서울 에
▁광 고
▁ 촌
내 려
▁정신 적
▁침묵 을
▁라 디오
▁다가 와
회 에서
▁때 와
▁데 에
▁박 정
▁내쉬 었다.
▁만 났다.
▁그래 야
길 은
회 는
▁제 이크
▁심 리
▁덧붙 였다.
대 와
▁제 임
u r
▁무엇 보다
별 을
사 리
▁없 다면
▁예 외
유 가
▁나 이에
▁입술 이
▁돼 지
▁황 홀
▁가 치가
" 라고
그 의
▁날 짜
▁백 수
▁제 작
▁차 는
▁연 습
▁있 으므로
▁주 목
▁적 혀
▁외 에
▁보 관
범 이
▁" 김
▁지 루
▁정신 없이
▁곤 란
조 선
▁영혼 을
▁명 백
▁극 히
만큼 이나
o d
▁지 키는
▁정 일
▁스 며
인데 도
▁대체 로
습 니까
층 에
▁불 쾌
▁없었 고
으니까 요.
▁물러 나
a p
e �
혹 한
세 로
보 기
▁주 의를
▁약 을
서 로
▁후 의
▁식 물
▁꾸 며
겠어 ?
▁더욱 이
▁아 테
▁동 정
▁땅 이
▁들여 다
받 아
아 아
▁들 러
▁영 화를
▁" 스
▁하 러
▁인 공
▁떨어 지
▁묻 혀
물 어
▁전 체를
▁소 나무
▁황 급히
▁효과 를
▁부 자
주의 의
러 진
▁그 로부터
▁울부 짖
▁알 렉
였 기
▁분 리
▁나타나 지
▁드 릴
▁"당 신이
▁있 으나
오 ?"
탄 이
포 가
▁상 대로
▁바 싹
사 들이
▁조금 은
▁일어나 지
겠 지요.
덩 이
▁없 습니다."
▁"그러 면
▁아프 리카
침 이
▁유 치
▁요 리
▁누 나
당 하고
▁얼 핏
▁활 동을
▁드러 나
▁끌어 안
▁다녔 다.
아 지
▁있는 가?
▁만 다.
▁반 사
오 !
▁의 도
▁2 00
▁불쌍 한
▁ 래
옥 이
▁좋 다고
이야 말로
거 워
▁" 노
▁제 정
았 고,
▁따 위는
▁외 에는
▁이상 은
▁집안 의
검 을
▁문제 로
▁베 이
요 한
▁모습 이었다.
겠 소.
▁자 녀
▁입 원
들 로부터
▁일 들을
▁"그 리고
▁" 최
▁돌 리고
▁꿈 틀
씨 도
점 으로
▁진 심으로
거 리를
신 에
▁가 치를
▁일 들이
▁항 공
▁"그래 .
▁오빠 가
야 !"
▁정 작
▁같아 .
▁거칠 게
학 과
▁불 리는
▁오 리
▁날 마다
일 까.
▁전 설
▁막 혀
▁누구 에게
▁둘러 보았다.
▁"자 네
▁할아버 지는
는 다는
재 로
▁하 며,
▁조금 이라도
▁보 리
▁목 사
▁적 응
날 을
달 아
▁셈 이었다.
▁자 식을
▁기 초
▁의 하여
리아 의
▁찔 러
▁했 어.
▁데 다
▁통 치
▁처음 엔
▁형태 로
▁미 소가
▁연 속
▁되어 야
즈 의
▁사람 에
▁했 다고
▁"" 그
▁스 페
▁종 업
▁살아 온
▁깊 게
▁몰 두
듯이 ,
▁"사 람
▁샤 워
타 를
▁지 냈
▁제 안
▁동안 이나
되 자
화 되어
▁실 행
▁"누 구
▁시작 되었다.
▁논 쟁
가 와
대 ,
▁걸 어나
▁말 하며
▁중 이었다.
▁성 큼
규 는
열 이
▁편 집
싱 턴
▁제 국
▁않는 다
▁없었 지만
달 이
▁사 막
▁ ..
u t
▁들 었다
▁느껴 지는
▁섹 스
▁여기 에서
▁권 력
▁사람 이다.
▁"그 가
▁입 으로
▁달라 붙
추 를
▁이곳 을
▁깨끗 한
용 의
▁기 술을
▁거 리며
▁별 다른
▁마음 속
▁두 리
▁많 고
▁벌 레
▁준비 가
짐 을
> ,
자 리
▁" 괜찮
▁저녁 에
▁실 수
▁적 지
▁자유 를
순 간
악 의
적 이다.
▁1 ,
▁존재 가
▁파 이
a b
루 가
▁무 신
▁붙 은
숨 에
▁T he
렸 고,
▁모르겠 다.
▁마 이크
▁그만 두
▁즐 겁게
▁이집 트
남 의
사 장
▁물 은
시 면
천 을
▁찾 기
▁교 도
데 이
주 인
▁모 으
소 리에
▁남 긴
▁지켜 보
~ ~
악 을
▁어 이
▁어리 둥
▁너머 로
▁중 이
▁결 론을
▁환 영
▁세계 에서
▁거야 ?"
▁불가능 한
▁키 스
▁거느 리고
▁독특 한
▁계 약
▁5 .
▁비행 기
▁꼴 이
▁고 양이
▁맞추 어
▁걸 터
▁예 수
인 지는
▁달 라는
▁아닐 까?
▁하겠 다.
▁무의 식
법 은
트 라
▁중 독
▁반 항
까지 의
▁얼굴 에는
초 에
▁동 일
▁당 할
동 으로
▁않 던
왔 다
▁목 적을
마 땅
먹 고
▁소 중한
▁세 웠다.
▁경 멸
▁태 도로
▁온몸 이
▁투 덜
리 던
▁말아 야
▁어 렸을
▁의 아
▁없 던
▁어느 덧
▁일어나 고
급 하게
▁19 2
▁보았 다
▁개인 적인
원 도
▁점 이다.
▁오 염
▁키 스를
▁태어 났
▁영 국의
▁맡 고
▁12 월
1 .
백 을
트 리
▁고 문
▁이 전에
▁실 시
▁가 늘
▁내 의
▁거꾸 로
▁마 누
▁나가 고
▁최 대한
▁문제 의
▁서 성
▁맡 은
▁없 지.
▁지구 의
▁│ │
▁대꾸 했다.
에 요."
▁만나 서
" ,
버 리는
로 에
통 에
▁조 나
▁선생 의
▁웅 크
사 하는
▁이 나
되 면서
▁새 롭게
▁땀 이
타 의
▁싸 여
▁벽 을
▁안돼 .
▁스테 파
관 에서
▁바 를
▁재 산
▁폭 력
▁꼬 리를
무 슨
겠어 ."
e m
테 면
▁분위 기
▁대 지
▁떠 들
▁생활 이
i �
씨 에게
적 에
▁싶 었던
▁기꺼 이
▁가 입을
▁연락 이
▁수 치
▁모 릅니다.
▁희 망을
었 는지
▁오 두
▁재 산을
군 에게
▁행 정
▁에너 지
▁영 역
2 .
려 야
적 한
차 의
▁적 을
▁속삭 였다.
만 도
▁여 느
▁세상 은
▁옳 은
▁보 였다
▁성 격을
▁여 간
▁뒤 덮
▁이르 렀다.
옥 의
▁전 략
▁고 작
▁플 로
아 무
▁심 장
▁사건 에
였 는데
▁뜻 으로
▁이 어서
▁남 북
하지 .
어 린
▁보 러
▁고 기를
▁해 줄
▁받아 야
▁마 셔
룩 한
▁사 형
▁학교 에서
오 르는
잖 은
▁찾 지
▁없 소.
▁새벽 에
우 스의
▁" 민
▁것 들은
▁발 이
▁평 양
잖아 ?
▁넘 어서
▁ 낀
지 요
▁머 리는
▁너무나 도
▁아 라
▁회 색
었 으나
▁사 모
▁학생 들이
▁있었 으며,
▁따라 가
▁여유 가
▁협 박
이 런
▁부 축
▁공 기
▁느 닷
▁누구 를
▁표정 이었다.
▁이후 로
교 도
▁오 토바
▁스 티
▁몸 의
▁책 은
▁꽃 이
▁점 에
▁뿐 ,
이라고 는
▁행동 이
▁아 낙
" 고
▁열 두
▁참 모
▁알아 볼
▁가 보
하 다면
▁죽 게
▁근 대
▁솟 구
▁성격 이
▁아니 다
▁성 취
▁책 이
▁가 지는
▁방 식으로
▁앞 장
▁테 니까.
▁깔 려
밖 으로
웠 다
▁싶어 하는
량 한
련 이
▁2 월
▁환 자의
▁일이 라고
▁덮 어
▁희미 한
▁가 죽
▁합 니다
▁어리 석
마 스
▁이 고
▁무 력
▁몸 에서
▁속에서 도
▁즐 겨
▁어둠 이
▁하 듯
▁잠 재
▁드 물
느냐 ?"
▁들여다보 았다.
학 자
혹 시
▁상 실
▁도 입
세 ,
▁시작 할
▁어려 울
▁"네 가
▁가끔 씩
▁흑 인
하 지만,
▁이 들을
▁친구 의
▁틈 을
스 티
▁여 긴
▁만 져
▁실 수를
너 를
▁털 어
▁포 위
▁울 타
▁농 사
래 가
▁표정 은
. )
집 어
으로 서는
심 과
해 요."
▁자신 에
겠 지만,
법 에
▁지 식을
▁파 는
구 ."
빛 이
▁당 겨
▁좋 았
할 머니
▁그 지
▁대 전
▁동 작
든 ,
▁초 월
▁사이 가
▁필요 도
▁나타 날
▁똑 같
▁밤 의
▁이 마에
▁대 위는
▁30 분
▁ ’
▁주 체
▁뜻 이다.
▁친구 들이
▁있어 ?
▁침 략
▁보 존
▁2 7
▁자리 잡고
▁결과 는
양 은
린 을
음 과
키 가
▁단 숨에
▁예 쁘
란 드
▁좋 고
귀 한
터 는
▁마 실
벌 을
▁동안 의
▁" 천
▁지 리
▁채 ,
▁담 아
이트 를
하겠 다고
▁넘어 가
당 하게
▁이 자
▁생 명의
▁난 처
▁있 으면서
▁작 고
▁토 요일
▁생활 의
▁억 압
▁멸 망
▁개 인의
▁돌아가 고
▁엘리 자
▁여 태
▁마음 속에
▁보았 을
▁어렵 게
▁떠오 르는
져 야
▁후 보
통 한
▁돌아 보
▁삶 은
▁잃 어버린
▁갔 다가
▁보 편
▁대 위
라 와
▁기분 이었다.
▁저녁 을
즈 를
▁토 끼
들 한테
였 다는
▁"우 리는
▁" 얘
▁존재 하지
▁지 친
▁귀 신
▁맹 세
▁거 지?
▁있었 으므로
▁2 천
▁서 랍
▁삶 이
▁늦 은
▁일반 적으로
▁달 고
▁하고 는
▁군 인
▁있을 지
▁삶 에
▁것 만은
▁승 리
하려 면
환 이
▁삼 키
술 이
▁구 원
1 5
▁다 닌
▁짓 이
끝 을
▁가 자
▁한참 을
열 한
▁모 금
▁당 하고
▁쉬 고
▁중 인
▁못 하면
세 계
중 히
▁사 정이
▁자 리가
▁조 카
▁6 .
▁보 름
▁제 게
▁세 력
▁부 끄
▁머물 러
▁가 기
▁주 워
▁갖 가지
▁터뜨 렸다.
거 요.
튼 을
▁있 지요.
▁바 쁜
▁충 돌
▁설명 할
피 아
하였 던
▁마련 이다.
▁나 섰
▁상 품
▁버 린다.
▁눌 렀다.
▁지 저
▁의 논
▁박 사의
al l
▁잊 을
▁급 한
▁들 었던
▁중 학교
해 에
▁" 비
▁줄 기
하 긴
▁사회 주의
▁부탁 을
▁하 필
▁메 이
당 은
▁방 이
▁프 레
▁잘못 을
▁브 리
▁국 방
두 를
산 에서
▁기억 을
▁그림 자가
오 게
▁같 다는
▁모양 으로
우 지
▁내 외
▁발 로
▁넘 치는
되 고,
▁끝 을
▁들려 오는
슨 이
▁수 를
득 이
▁여 왕
▁형 식
he r
련 한
▁지 체
▁유 도
코 의
▁인 디
▁모 시
▁제 조
▁만나 지
▁지나 간
▁마을 을
▁이 념
▁마 셨
▁박 혀
▁못 했을
▁지 시를
▁도 중에
구나 !
▁어두 워
▁ 댁
스 카
▁형 님
▁학교 를
▁"그럼 ,
커 녕
▁" 선생
▁상 관이
▁변 명
▁철 저히
▁머리카 락
▁하 시는
▁우 아
▁살 게
▁2 8
▁얘기 해
2 5
▁다 르게
▁못 마땅
▁대학 에
▁직 장
▁엄마 의
▁손 잡
▁"아 이
▁논 의
▁싶 다고
▁돌아 간
▁꾸 짖
▁대 항
▁살 기
▁눈빛 으로
▁변호 사
1 )
▁했 기
▁2 6
▁빛 의
▁시 청
▁정 성
▁생각 지
습니다 "
▁ O
말 은
▁양 복
▁없어 요."
▁가 다듬
▁기 사를
▁유 대
▁예 비
▁닥 터
▁"미 안
▁도시 의
립 니다.
침 에
타 가
▁통 합
건 이
치 도
▁저 승
▁마당 에
나 이
▁" 넌
▁수 영
▁지 상
▁중 년
▁크 로
▁띠 고
▁멀리 서
을 까?
클 레
▁사 소한
▁5 년
▁투 자
▁있 나?
▁특 유의
넣 었다.
질 의
▁태 도가
됐 다.
병 에
▁부 른다.
▁사이 에는
▁ l
걸 음
▁이 하
▁무 기를
▁경찰 에
▁아래 에
▁걸음 으로
▁가 령
▁납 치
▁우 는
▁금 속
민 을
▁조그 마한
▁' 어
▁사실 이었다.
랑 을
▁생각 합니다.
▁가로 질러
팔 을
▁하나 ,
▁2 0년
▁청 년이
▁합 리
▁"아 닙
부 장
였 다고
▁이제 부터
▁훌 쩍
렸 고
▁사나 이
▁"안 녕
운 동
▁남 에게
교 가
족 을
▁즉 각
드 와
▁오 십
▁공 연히
면 의
▁하 신
▁뒤 의
▁살아 갈
코 를
▁후 려
▁민족 의
▁ !"
워 하는
▁장 악
▁개 구
▁군 중
▁달아 나
격 으로
둘 이
▁하나 하나
▁번 역
▁오늘 의
▁그림 자
▁축 복
▁붙잡 고
▁설 사
▁신 을
▁포 장
습 니
▁벌 을
▁사용 할
거리 면서
▁제 도
▁그렇 고
가 요?"
소 리는
우 기
▁" 또
▁" 야
▁잠 에서
그 리고
씨 .
▁드 문
▁어머니 에게
▁철 기는
▁1 월
▁죽 지
▁아무 말
▁가지 가
▁먹 으면
▁종 합
▁" 어서
▁거 아
▁사랑 과
▁떠 들어
소서 .
▁것 인데
▁날 려
▁행 렬
▁풀 이
신 과
▁거 든
▁새 어나
▁건 드
▁카 운
▁ 렌
올 라
▁서 비
▁조선 의
생 각
▁달 리는
▁흥 미를
▁끝나 자
▁장 면을
▁원 인이
▁최 선을
▁두 렵
▁시작 하였다.
▁행동 에
▁규 정
▁도와 주
▁문 지
▁쉽 지
론 가
▁있 네.
▁생 길
> 을
가 슴
니 스
▁벌 거
▁심지어 는
▁움켜 쥐
렬 하게
▁이 마
▁찍 어
▁ 를
반 이
세 이
▁이 중
▁호 랑
노 라고
▁영 양
▁몸 뚱
▁되었 고
▁전문 가
▁들 으며
▁우 유
▁먹 었다.
▁나타 내는
▁농 부
어진 다.
막 이
▁입 학
▁통 하는
▁넘 쳐
▁튼 튼
▁상 대를
▁이해 하지
전 화
▁자 그
▁구 입
▁ c
▁때 에도
▁같 다고
▁눈 초
▁"어 떤
▁구 역
▁준비 해
▁엄청 나게
▁안 간
▁안 보
▁수 정
▁생각 하니
▁내려 놓
▁남 한
▁치 솟
▁" 맞
▁하 니까
▁앞 뒤
▁역 사의
▁쪽 을
▁25 ,
! !"
로 도
▁원 자
▁존 중
잖아 요."
▁묶 어
' (
과 학
▁깨닫 게
▁남 기고
▁그것 들을
▁길 고
▁밤 은
시 다
▁외 교
만큼 은
' 에서
송 이
▁사 장은
." 이
▁돌 리
▁생각 이었다.
▁상 당
▁입 장에서
▁낮 게
▁빛 깔
▁있을 까.
▁분노 를
▁보았 던
수 에게
화 한
▁말 만
▁자 란
▁허 물
▁이용 하여
머 리가
▁거 리에
▁돌 을
▁명 확
▁검 토
▁숙 이고
광 이
▁동 지
▁파 라
여 년
▁노 인의
▁앞 에는
▁다가 오는
▁살 던
▁패 배
at ion
하 니까
▁싫 은
▁열 중
▁일 일
▁진 실을
▁내 뿜
▁오 줌
▁넣 었다.
▁피해 를
▁엘리자 베
▁ 짖
▁해 군
▁순간 적으로
문 화
▁날 개
▁하늘 로
▁결 심을
▁꿈 이
▁" 중
▁강 렬한
▁주 름
▁저 쪽
▁가까 스로
▁줄 로
▁충 실
찰 을
▁하 거나
▁느낌 이었다.
미 에
▁여 성이
▁가리 키는
시키 지
▁불행 한
▁홍 콩
▁배 려
하 더니
▁갖 춘
▁동 요
▁세 포
▁ 엇
▁근 데
▁어딘 가
▁일 하고
▁아이 들에게
▁루 이
▁귀 국
▁턱 을
▁두 번
2 0
▁아 들은
▁사 양
▁진 보
▁상태 였다.
▁ 록
았 고
오 기
▁아 랍
드 에
▁시 기에
... '
▁보고 를
▁누구 의
습니다 ,
▁월 급
▁시절 의
▁작품 을
사 령
▁발견 할
라 며
▁사 업을
▁남편 과
▁못 하도록
▁할 까
▁시간 의
▁걷 는
패 를
호 와
▁따 름
▁건 지
▁- 그
집 에서
▁인 한
▁감 지
▁각 자
▁갖추 고
갑 자기
질 렀다.
▁어 진
▁현 실을
▁없어 ."
▁올 리고
▁돈 으로
▁신경 쓰
c e
▁육 군
▁내 기
▁일 시
▁경 주
이었 는데,
▁설명 했다.
마저 도
분 간
▁대 응
▁걸 치고
의 에
▁어디 선가
돼 .
▁때 처럼
▁악 마
▁하루 에
▁저지 른
▁뒤따 라
편 을
▁발 길을
▁간 주
▁꼬 박
▁흐 름
▁섞 인
끄 는
▁내 에
▁아무 렇
▁애 인
▁읽 은
▁초 기
▁만나 러
여 기
적 이며
▁하 도
▁경 고
▁스 무
▁경우 를
▁하루 는
▁나중 에는
▁복 수
▁어울 리지
기 게
▁게 임
▁행 사
▁놀 라는
▁터 였다.
▁워 싱턴
스라 엘
슈 타
▁7 0
▁회 사의
> 를
▁정 부가
▁놈 을
▁이렇 듯
천 의
파 이
졌 고,
▁장 관
인 지를
▁아 다.
▁선 비
▁쓸 어
▁아 메
▁돌아 섰다.
▁지나 친
▁권 력을
질 로
▁이상 으로
▁정 부는
▁부 인을
▁그래 요.
▁얻 는
▁아내 에게
채 로
▁시 스
▁1 천
상 도
▁총 알
u l
▁기 쁜
▁스 포
▁맞 았다.
▁듣 기
▁" 얼
▁한 껏
▁민 간
▁그때 부터
▁텔레비 전
▁ 껄
오 리
족 이
소 와
졌 고
▁요 새
▁찾아 와
▁덤 벼
표 가
▁2 ,
생 은
▁메 모
▁마을 에
되었 고,
▁있 기는
▁여 보
▁알 기
▁백 화
▁짐작 할
돌 프
▁화 살
a .
▁ 델
▁남자 에게
▁담 고
밥 을
야 의
▁움직 였다.
벽 을
언 이
▁수 녀
▁거 란
▁현 상이
▁언 론
▁토 해
▁녀석 은
) 에서
귀 에
죠 ,
▁우 러
▁아 리
▁기 차
▁연 애
) 와
▁나 가지
▁동 궁
▁동안 ,
▁머리 칼
e w
법 의
집 의
▁사회 에
마 리
범 의
▁심 상
▁관계 는
▁강 을
놈 은
▁좋아 .
▁결혼 한
마 마
▁의 외로
데 스
▁잔 디
예 요?
▁비 켜
▁참 지
▁대신 에
▁같 다
두 에
▁하 하하
▁곁 에서
▁가리키 며
▁놈 들
▁맥 주를
▁사 례
▁보 이며
▁소 속
▁슬 프
▁그녀 도
▁막 내
▁ 긋
자 였다.
▁걸 .
▁걸 세.
▁피 난
▁되었 다고
▁사내 를
▁세 차게
▁미 칠
▁돌아 보며
▁놓 치지
▁효과 가
▁그 처럼
▁불 에
▁심 정
▁곳 이었다.
코 가
▁바 쁘
았 다고
▁"예 .
어 리
▁모 퉁
▁들어 와서
▁최 후의
▁기운 을
▁수 학
▁공 화
▁줄 어
▁잡아 당
존 의
척 이
▁않 다고
▁들 리
) 과
▁내려 온
▁백 인
식 과
▁수 집
▁한 바
▁정 원
시 경
오 자
▁고 함을
▁스 님이
▁여러분 은
저 는
▁빙 그레
▁얼 룩
▁2 차
▁애 원
▁겁 을
▁곰 곰
량 은
▁부모 가
▁떼 어
▁간 지
▁먹 었
▁양 의
▁흔들 며
범 을
으 론
▁완벽 하게
▁진 흙
▁가지 로
▁걱 정을
▁보았 지만
▁ 쳤
주 며
▁자 지
▁주 어진
▁만나 면
▁생 겼다.
▁끝 으로
▁어디 에서
▁끊 고
▁하면서 도
▁헌 병
▁받아들 일
순 이
▁의미 하는
▁위 에는
▁중 대한
▁살 며
▁아닙 니까?
▁주머니 에
경 과
▁모양 을
▁들었 을
▁가 락
▁일 일이
▁열쇠 를
▁그 뿐
▁장 을
꼬 는
▁모 인
▁마 약
▁감 격
▁" 리
▁지 그
▁바 지
▁구 할
나 에게
명 하게
▁지금 부터
▁서류 를
날 의
모 와
▁즐 기는
▁셔 츠
▁백수 웅
a re
▁하 실
▁불 만
▁손 에는
▁연 기가
늦 게
▁때 만
▁태 도는
▁하 라고
▁애 썼
▁ 둑
서 와
터 의
▁하 숙
▁자 제
▁시 계
▁고 전
▁옆 구
▁낳 은
▁흡 사
▁최근 에
내 며
▁것 들
▁개 는
▁단 말이
▁청년 은
강 의
▁한 정
▁진 정으로
미 스
▁공 작
▁선생 님의
▁짓 는
▁곁 으로
▁어울 려
오 면
창 이
▁지 내는
는데 .
▁형 이
님 !
아 도
▁주 십시오."
▁행동 은
▁느낀 다.
) (
로 이
▁목 덜
▁11 월
▁f or
겨 운
디 의
트 와
▁겁 니다
▁발 명
▁ 몬
호 호
▁해 준
▁평 등
▁갈 색
▁선 뜻
▁열 렸다.
이에 요."
h at
▁죽 었다.
서 서
▁소설 을
▁데려 다
▁둥 근
시 하는
▁줄 도
▁시절 에
▁이익 을
▁소 주
▁아니 에요.
르 면
받 지
줘 .
▁남 쪽
▁ 라고
달 을
▁차지 하고
결 한
▁버 리지
▁4 5
▁신경 질
▁이 로
▁뿐 입니다.
▁막 고
▁상대 방의
▁보 석
▁조 사를
▁신 랑
할 아버
▁대 처
▁유 학
▁살 림
▁그렇 다
▁어디 까지나
▁기다 릴
▁폭 풍
▁자유 롭게
▁죽음 에
▁배 웠
' 이란
▁힘 에
▁거 나
▁배 는
▁교 수가
▁질 려
▁깨 뜨
▁깜 박
소 이다.
▁안 경을
▁넣 은
▁드러 난
▁다르 다.
새 가
▁일 입니다.
▁올바 른
거 린다.
조 각
▁대 상으로
▁간 부
▁ 섰다.
▁말 없이
▁시 다.
▁여 관
▁떠올 렸다.
▁공포 에
▁" '
▁식 의
▁" 원
▁객 관
매 는
어버 렸다.
▁스 크
▁사회 에서
▁미사 일
' 으로
히 며
▁안 은
▁미 쳐
▁이상 을
백 만
▁수 없이
▁지나 면
il l
좋 은
▁나 은
▁겁 니까?
▁8 0
▁끌어 내
▁곤 두
▁아랑 곳
▁것 인데,
▁"누 가
▁우리 와
▁기분 으로
▁지경 이었다.
▁사 촌
▁나 라는
▁수 레
▁의 사를
▁만약 에
랴 .
▁피 부
▁"우 리가
용 은
▁입 장을
▁지 낸
▁운 반
하였 고,
기 다
주 면
창 한
▁죽 이는
▁떨 쳐
▁누구 보다도
▁나누 는
성 에서
▁위 원
▁떨 구
라 지
시 게
▁" 야,
▁좋아 하지
자 들에게
▁이 스라엘
▁시 위
▁두 꺼
▁카 이
이나 ,
▁작 별
▁말아 요.
▁떨어 질
▁하 도록
구 와
▁확인 해
왔 던
▁군 대를
▁남편 에게
▁구 속
돈 을
즈 가
▁일본 은
▁악 몽
▁봐 서
▁그것 들은
▁내게 는
▁에너 지를
내 의
자 로서
▁알 리는
▁땅 에서
▁바닥 을
▁차례 로
=-=- =-=-
▁그 해
▁입 가에
▁플 라
천 이
▁등 과
▁올 랐
▁묻 은
▁가족 이
▁확실 하게
▁권 총
▁이 토록
▁물 리학
▁보 고,
▁인 격
갔 을
자 네
▁가 짜
▁수 록
▁주 택
▁주장 하는
▁세월 을
트 릭
▁작 동
후 는
▁배 고
▁업 무
- 3
집 은
▁" 성
▁시 선
▁때문 이라고
▁진 출
▁어찌 할
▁밤 ,
▁서울 에서
상 ,
▁성 립
▁작 성
이었 다고
▁질 린
▁무 장
▁" 박
▁모 친
▁조 작
▁아니 었다
▁건 데
▁약 혼
▁환 자가
인지 ,
물 고
질 은
듯 한
▁대 왕
▁전 형
▁때문 일
▁올 시다.
▁낮 에
▁괜찮 은
▁침대 에서
▁걸 릴
▁노 골
▁1 만
주의 를
▁프 란
▁치료 를
프 로
▁일본 에
t r
▁여자 였다.
▁명 심
▁나라 에서
▁모른 다
▁도착 했다.
▁아름답 고
정 에서
더 라.
▁어울 리는
계 급
약 이
▁하 마
▁바 라고
▁껴 안
▁" 네.
▁수 양
▁관 해서
▁대답 은
▁이곳 은
▁무너 져
었 지만,
▁기억 해
."그 녀는
▁철저 하게
▁봐 요.
▁뭔 가를
▁세 력을
▁저 고
▁자네 의
▁놀라 게
음 ,
▁아 울
▁안 다.
▁스 토
▁상황 은
구 요."
▁하 기도
▁상 의
이라 니
▁이용 해
▁되살 아
건 은
주 어
▁사 단
▁전 하는
▁위 엄
▁파 트
▁않았 어요.
락 한
승 은
죄 송
▁신 화
▁근 심
전 쟁
혁 은
▁하 지.
들이 나
▁씨 앗
▁자료 를
스 에서
▁방 사
▁뭔 지
류 지
맛 을
▁작 곡
▁여성 은
▁나뭇 잎
▁방안 으로
▁위 태
▁현 상을
▁"너 는
h t
▁원 숭
▁처 지
▁승 려
▁꼭 대
▁"잠 깐
▁의 사는
▁배 에
▁천 재
▁과거 에
▁무언 가를
람 을
역 시
▁해 치
▁비 싼
▁집 의
▁연 관
▁후 배
▁부드 러
니 와
합 을
▁조 절
▁배 반
▁옷 이
▁핵 심
o p
고 에
군 데
▁할 거
▁초 록
▁아직 까지
끼 를
술 은
▁보 수
▁소 금
▁애 무
▁3 일
▁자연 히
▁주 장을
▁차 분
▁진 동
▁5 천
쇠 를
▁있었 으며
▁"이 건
▁임 호
▁꺼내 어
나 ."
▁논 리
. ”“
▁소 문을
▁필요 하다.
▁희미 하게
▁전 사
인가 ?"
▁출 생
▁끝나 면
운 의
함 의
▁연구 를
▁영혼 이
▁카메 라
▁뒷모 습을
▁만 지
▁떠 돌
▁심 심
▁애 들
건 만
머 리에
▁남 지
▁요구 하는
▁나타난 다.
▁것이 라면
▁많 지
▁키 워
▁기 지
▁주 사
▁말이 야
▁바다 에
장 인
▁같 으니
▁좋 다는
▁편 의
▁집어 들었다.
구 ?
▁있 자
▁죽 음이
▁음악 이
▁한가 운데
는 지를
▁다 듬
▁바 란다.
▁중 지
▁사실 상
▁웃 는다.
▁철 수
▁거예 요?
▁대학 을
원 에게
▁일 방
▁바라보 면서
남 은
명 에
운 은
▁것이다. "
▁적 절한
▁꼬 마
▁나 고
▁영 감
▁스 카
▁강 하
▁모양 의
▁버티 고
오 니
▁반 면에
() 은
▁마을 의
▁공 사
▁얻 게
▁아름답 게
▁들 으면
너 의
손 가락
▁구 슬
▁이곳 에서
▁사무 실로
▁숲 을
1 8
마 ."
▁아니 오.
▁날 을
남 이
자 이
▁3 5
▁온몸 을
▁" 방
▁연 출
▁설 레
▁이루 어
▁비 스
▁넘 기
▁김 대
▁목소 리에
▁풀 고
▁사나 이가
▁마땅 히
주 ,
▁격 려
교 는
▁하 림은
▁비 는
▁몸 짓
▁폐 하
I A
그 게
이었 어.
▁괴 로운
▁사고 를
▁꼼짝 도
▁붕 괴
꾼 이
주 일
▁일행 은
▁것 임을
물 과
보 였다.
졌 다는
추 는
▁두 는
▁설 계
▁기능 을
> 에
▁짧 게
바람 이
▁다물 고
▁해 변
▁비 유
▁건 다.
▁후 퇴
▁군 의
러 져
빛 으로
▁로 버트
i f
▁일 과
▁저 러
▁임 무를
▁검 정
▁잃 지
▁굳 은
▁영혼 의
▁눈빛 이
▁미래 를
승 이
▁사회 를
▁클 라
줄 이
▁사 서
▁제 의
▁돌 았다.
▁옆 의
벨 이
▁보 기로
▁장 한
▁연 못
래 ?
▁점 심을
해져 서
▁ 깐
▁ .......
나 라는
하 셨다.
▁날 씨
▁전 시
▁스 님은
▁당황 한
▁저 장
▁있어 ,
▁"이 번
▁떨어 지고
▁사회 가
▁뿌 리를
▁나 눌
▁저 마다
▁반 란
▁원 시
' 하는
▁해 서는
▁짜 증
▁후 에도
▁끝 나는
▁아울 러
1 2
건 으로
▁바 랍니다.
차 고
▁비 하면
▁관계 에
▁북 쪽
▁빠져 나가
▁쪽 에
용 으로
▁계 절
▁원 인
▁싸 우는
경 찰
스 피
▁병 에
이라 서
든 지,
a ve
▁헐 떡
▁지 점
▁정신 적인
인 들에게
▁" 선
처럼 ,
▁누 이
▁써 야
▁형 사가
▁만났 을
▁섹 스를
관 계
줄 을
환 을
▁불 타
▁사 마
▁위 장
▁손 에서
▁했 는지
▁물건 이
조 에
▁적 당히
▁통 한
근 한
▁" 후
▁피 식
▁흘 려
▁블 라
였 어.
키 의
▁경 호
▁정신 과
▁늘 어나
▁첫 날
▁열 흘
▁뜻밖 의
부 르
워 진
▁주 면
▁“ 이
▁높 여
▁한 발
▁우 습
▁방 황
▁달 렸다.
▁구체 적인
미 와
▁않 습니까?
▁해 외
▁언 뜻
하면서 ,
마 도
▁가 면서
▁동안 은
▁뛰 었다.
▁것 보다는
▁주 었다
▁습 관
▁떠나 고
가 지고
▁어 긋
▁지 나는
▁건 가?
후 를
▁일 만
▁대 강
▁남 았
▁파 도
▁간 섭
▁군 ."
▁가슴 은
▁걱정 하지
▁불길 한
▁되 게
하 자,
▁기 사가
▁되 는데
▁연 방
▁모습 에
▁"오 빠
자 라고
▁나서 서
지 요?"
▁아이 에게
브 는
▁주변 을
▁주변 의
갔 던
판 으로
▁노 는
▁달 한
▁앞 세
▁깨 우
▁ 쩍
▁고 스
▁알 면서도
▁복 종
▁가능 성을
강 한
들 며
▁미국 에
히 게
▁나 빠
▁벌 어지고
▁푸 르
▁부족 한
양 으로
우 스가
통 의
▁눈 에서
▁이해 하고
▁어쩌 다
▁" 뭘
▁전 적으로
▁합 격
▁아래 서
되었 다고
십시 오
▁ 랑
▁손 끝
▁영 은
▁차 에서
▁외 부
▁참 아
▁압 도
만 하게
▁어린 아이
▁곁 을
▁"도 대체
1 6
▁없 도록
▁한 이
▁무 대
▁쉬 었다.
▁냉 장
그 머니
▁세계 가
▁주 춤
▁걸 어서
▁옛날 에
일 지도
▁"그 녀는
▁싸 울
▁뜨 겁게
▁칼 로
▁솜 씨
직 이
▁분 류
▁잡 힌
▁궁 극
▁대표 적인
마 침
▁벌 리고
▁민 중
시간 이
▁나 에게는
▁눈 과
▁네 .
한 은
▁" 애
▁내 심
▁듯 하다.
라 야
▁저 주
▁떠올 랐
▁발걸 음을
▁흐 트
▁대통령 은
▁자 리로
▁시 키는
▁체 계
되었 고
▁건강 한
▁부 수
▁의 문
▁용 기가
▁과거 를
웃 음을
▁선 물을
▁이를 테면
▁데려 가
▁지나 고
▁맛 을
덕 을
▁가 격
▁사람 에게는
▁쓰 게
▁붙 이고
- "
▁이 걸
▁보 기에
▁들어 서는
▁도 리
▁진 작
▁스 케
▁에 드
▁맡 기
엄 한
토 는
▁보 급
▁뒤 쫓
▁요 즈
▁다음 은
▁협 조
▁정상 적인
▁고마 워
릿 한
▁수 첩
물 며
티 는
▁없어 진
▁가 리지
▁안 된다고
레 스를
주 기
▁한 명이
▁여 의
▁상대 방
▁결정 적인
▁쓰러 졌다.
▁할아버 지가
▁나 눈
▁왕 자
▁쌓 인
▁인 류의
▁힘 은
▁총 각
▁엎 드
▁날카 롭게
▁수수 께
냐 ."
잠 을
▁하 더니
▁여 지가
▁감 은
▁부모 의
▁오빠 는
e .
▁무 겁게
하 므로
▁정 열
내 야
▁자 부
▁오 해
▁신 경이
▁거기 에서
▁아 인
▁개 입
▁날 씨가
▁최 대의
▁대답 하지
▁도 리어
▁선 수
▁날 개를
▁하루 를
▁싫어 하는
움 의
▁수 면
▁먹 여
▁바이 올
▁물 음에
▁흔 적
▁까닭 에
시 와
▁경 기
이었 어요.
▁무엇이 든
린 다
▁가 스
▁알 면
▁그리 워
▁딸 의
▁속 도를
▁성 의
▁보여 주고
결 이
네 를
▁거 라
승 을
시 ,
클 럽
▁이 전의
▁모 셔
▁단 어
▁지 방의
▁끝 없이
▁대부분 이
▁벗어 날
▁많 을
▁분명 하게
▁입 증
▁구멍 을
' 과
목 으로
▁생 일
▁동 무
▁않았 다면
로 로
▁내 무
▁시 대를
▁요 란한
▁좌 절
▁니 콜
▁품 에
긋 한
▁거 죠.
▁안 아
▁내려 놓고
▁밖 을
▁바이 러
▁진지 한
오 라고
▁이 불을
▁아 돌프
▁위험 을
르 를
▁말 라는
▁싶 으면
▁취 재
▁나 이는
▁전 과
▁무 역
▁반 영
▁정신 병
▁클 리
▁부분 은
9 .
들 기
▁생각 해서
▁두 었
봐 요.
▁유 심히
▁장 소를
▁맞 게
▁창 을
▁면 에서
▁닫 고
치 고는
▁시작 했
▁가지 의
▁묘 사
3 .
] [
궁 을
배 는
크 리
▁이 별
▁생각 하기
들어 가
▁미국 에서
하 자는
▁부 부가
▁따 스
▁기울 였다.
▁그리스 도
▁장 차
모 로
▁그렇 기
▁평 생을
▁대통령 이
▁것인 지도
지 ...
▁평 온
▁암 흑
▁끄덕 이며
▁구체 적으로
3 )
▁어 렴
▁오늘 도
▁있 은
▁시 행
▁신 발
▁박 힌
이 므로
▁소 매
▁뒤 틀
▁예 민
▁2 2
▁뜻 하는
▁지역 의
▁정일 휘
대 문
락 에
질 렀
하 세요.
▁호 주머니
▁말씀 해
▁의미 에서
▁뻔 했다.
벌 써
▁그 대를
▁대부분 은
인 간
▁이 마를
▁안 마
▁지나 서
▁일반 적인
라 기
▁부 동
▁착 한
박 이
▁싸 움이
a )
골 이
정 도
▁공 공
▁요 소
▁팔 에
▁ you
▁음 성으로
▁"이 거
▁나무 가
▁걸 리는
▁감 수
▁울 었다.
명 으로
▁있는 지도
▁않은 가.
▁돌아서 서
▁상 을
▁하늘 은
▁성공 을
다 리를
▁당 하는
▁걸 렸다.
▁될 지도
▁걸 까?
▁예 전에
it h
죄 를
편 이
▁수 고
▁없 으니까
▁화장 실
▁곱 게
4 5
밀 한
벗 은
제 ,
▁하 라.
▁옷 차
▁역사 적
그 녀가
▁보 조
▁' 사
▁사고 가
▁반응 이
▁시 나
▁붙 였다.
▁몸부 림
▁때 보다
▁감 상
▁"너 무
▁" 윤
▁낭 비
업 이
▁시 어머니
▁오 게
▁악 수를
렸 다는
렸 지만
옵 니다."
일 보
직 하게
▁사 슴
▁되 면서
▁자신 들이
▁놓 는
▁채 찍
▁알아 보
▁하늘 에서
▁어려 서
▁개 선
▁교 장
▁목소리 였다.
▁물 었
▁확인 한
화 ,
▁머 금
나라 에
▁일 거
▁상 냥
▁동 반
▁모르 지만,
▁교 수의
() 으로
▁움직 이기
▁암 살
던 데
▁시 커
▁전 후
▁연 장
▁진지 하게
터 에서
▁여 인을
▁전 진
▁철 민
▁뜻 은
▁나타 내
▁올라 가는
▁훈련 을
액 을
▁목 구멍
▁출 현
▁일으 키는
' 와
배 의
율 이
▁소 녀는
▁가득 한
간 지
▁이 민
▁말 려
▁누 운
▁치 명
▁투 로
여 행
▁공 룡
▁허 둥
▁ 줘
봐 ."
욱 은
지 !
▁문 화를
▁길 러
▁한국 에
▁욕 을
막 한
든 가,
였 어요.
라고 .
▁구 축
▁사람이 라면
▁아버지 에게
삼 촌
▁" 명
▁보 니,
▁경 향이
▁반 면
▁피 우고
▁질 을
▁나오 자
요."그 녀는
들 보다
리 에게
▁보 더니
▁여 지
▁따 져
▁종 류
▁ V
▁일 ,
▁허 리에
▁수 송
▁보 세요.
▁같 지는
▁여자 도
▁화 면
▁김 종
▁각 하
▁땅 의
▁대학 생
르 자
▁" 백
▁' 나
▁번 만
▁있어 요?
나라 를
▁몰라 요.
▁대 궐
▁말씀 드리
▁대통령 의
종 일
공 은
능 한
해 준
▁두 었던
▁중 대
▁타고 난
▁가져 가
▁주변 에
치 와
▁죽 기
▁이제 야
▁필요 할
▁쉬 지
▁주머니 에서
이 지.
치 자
하 리
▁가 은
이나 마
▁하나 님의
시킨 다.
( 이
모 에
▁수 습
▁모 처럼
▁숙 여
▁그럼 ,
▁얼굴 도
으려 면
▁"응 ,
▁차림 의
활 한
▁계속 되었다.
▁오 ,
▁미 쳤
▁임 시
▁마음 껏
▁공산 주의
란 다
포 의
▁실 례
인가 요?
▁농 촌
▁해 를
▁일이 라
▁않았 어.
김 없이
▁" 죽
그 때
▁소 나
▁가운데 서
되 던
▁" 실
▁모 욕
▁고 함
▁성 행
▁붙 인
▁벽 돌
▁햇 살
▁알렉 산
였 는데,
▁달 에
▁소 녀의
▁필 사
▁일 기
▁고 래
▁동 행
▁줄 이
▁회 전
▁움직 임을
▁몽 땅
▁자본 주의
) 로
식 ,
▁이 길
▁도 는
▁평 균
▁그리 곤
▁검 을
▁육 체를
▁" 임
▁인 쇄
▁쳐 서
놈 을
비 도
프 트
▁시 체가
▁짓 밟
간 다는
힘 을
▁그렇 습니다.
▁국민 학교
▁ 듬
▁두 뇌
▁못 했다
▁놓 을
벌 레
▁필 연
▁동 일한
▁삼 고
▁그때 의
▁생활 은
▁거 주
▁형 은
▁토 론
▁그제 야
" 이
▁정 면으로
▁초 래
▁여기 고
▁일본 이
▁이루 는
▁두려 운
▁비참 한
▁창밖 을
▁간 혹
▁산 책
▁학생 이
▁들어오 지
" 는
제 와
▁단 체
▁"예 ."
▁오 신
▁못 된
▁작 년
▁허 무
워 져
▁때문 인지
▁모두 를
▁적극 적으로
순 히
토 가
▁대 규
▁무 더
▁공 기를
▁몸 과
▁직 후
▁문화 의
▁돌아 와서
▁잠 에
▁심 부
▁온 다.
▁앞으로 도
▁손 짓
▁장 군이
▁열 을
▁심 리학
▁던 지고
▁거예 요
▁섭 섭
▁류지 오는
▁정 착
▁1 백
▁만들 기
▁살펴 보았다.
강 이
부 들
▁"그 냥
▁헤 엄
▁지금 이
▁어디 를
▁노래 가
▁잠자 리에
네 요."
더 .
초 로
▁아니라 면
▁격 렬한
▁내 면서
▁신 혼
▁정 기
▁상 대의
▁차 단
▁축 축
자 면
▁배 울
▁왔 는데
▁경제 적
▁모 스크
▁행복 하게
▁양 이
▁나오 면
▁끈 질
▁고 장
▁허 공을
▁찍 은
▁사태 를
대 요.
▁있 더
▁신 도
▁들어 간다.
▁개 울
▁현 명한
▁양 은
▁" 다른
▁필 수
▁빼앗 아
난 을
목 은
시 스
해 지기
▁의 심을
▁따 위를
▁통 화
거 라.
▁당 사
▁무척 이나
▁쿠 데
▁바탕 으로
차 로
▁번 에
▁겨 누
▁바 에
▁그리고 ,
▁복 도를
▁19 1
기 들이
▁없 지만,
▁빠 뜨
▁고통 이
▁동 쪽
▁얘 길
▁겁 에
▁부모 님
들 였다.
크 로
▁글 씨
들 끼리
▁감 촉
▁보 험
▁손 아
러 의
▁이 끄는
▁것 과는
▁신 청
▁사태 가
대 .
▁사람 인
▁극 단
▁대 수
▁인 용
▁자네 를
▁마련 해
▁뻔 한
졌 습니다.
▁가 리고
▁친구 들과
▁각 오
▁미국 은
▁" 황
▁생 명이
▁열 리고
▁변 했다.
▁추 정
하겠 습니다.
두 가
테 이
▁시 을
▁목표 를
▁스포 츠
중 에서
▁" 계
▁조 화
▁움직 임
▁쓰러 진
▁있는 ,
▁되 니
▁곤 충
시 지
았 지만
▁않았 지만,
▁낮 추
구 먼
당 으로
▁" 감
▁차 리고
▁울 리는
했 다가
▁추 가
▁뿌 려
리 다
문 에서
이 .
▁없었 어요.
▁움 츠
속 에서
티 가
▁ 았다.
좋 게
▁본 다면
▁여러분 의
▁해당 하는
석 에서
토 니
▁것 의
▁말 하면서
▁눈 길로
▁미 스터
▁마음 도
이었 으나
▁치 우
▁필 립
▁이해 를
▁발견 하고
밭 에
질 에
▁애 들이
▁충 족
▁그만 한
▁더 럽
▁들어 가지
▁교 사
▁와 서는
군 요
무 니
▁대 동
▁이어 지는
▁실험 을
인 트
▁수 련
▁비 를
▁놀 러
어버 리고
술 에
치 듯
▁대 조
▁역 력
▁좋아 서
당 신
키 지
▁만 화
▁제 각
들 게
▁가 정을
▁마 취
▁입 는
▁작 전을
▁힘 차게
▁클 럽
▁나뭇 가지
▁은 하
▁슬픔 을
▁바 쁘게
▁"그 때
▁평 소에
▁욕 망을
▁쪽 이
법 으로
▁세 련
▁리 듬
▁깨닫 고
▁얼굴 이었다.
▁팽 팽
저 를
▁의 자를
▁얼굴 과
▁겁 이
▁표현 할
이었 지만,
노 는
분 쯤
어 요,
율 을
지 역
▁고 운
혁 이
▁잔 잔
3 6
태 의
▁한 반
▁무 려
▁가족 을
▁"언 제
▁없 이는
▁오 페
이었 다는
▁승 리를
▁하 사
▁마 냥
▁떨어 지지
담 의
려 던
마 !
▁" 불
▁제 품
▁슬 그머니
o re
▁이 불
▁목 적이
▁뉴 스
▁독일 의
걱 정
▁산 에
▁풍 요
▁부르 르
▁둘러싸 고
▁어리둥 절
▁ 궐
미 한
▁상 륙
▁스스로 의
▁꼴 을
관 ,
봉 을
증 에
▁유 감
▁귀여 운
l y
▁공 기가
▁추 천
▁아침 부터
▁확인 하고
견 을
다 나
▁한 복
▁동 성
▁연 신
▁받 쳐
▁진 화
▁시간 과
느냐 .
▁묶 여
▁유 기
▁점 검
기 기
▁" ..."
▁남 이
▁불 쾌한
▁계획 이
▁" 로
▁대 하는
▁거 리의
▁그렇게 도
▁맞 을
▁까닭 이
▁ )
나 서
전 ,
▁자 체를
▁되 기를
▁난 다.
▁회 상
▁회 사에
▁대답 할
▁세 자의
▁실 감
▁요 푸
▁음 성이
▁좋아 요.
탕 을
▁조 성
▁담 은
습 네
제 .
▁편안 한
금 으로
발 한
▁호 수
▁내려 오는
▁어디 가
▁부끄러 운
▁맞 서
▁그런데 ,
▁항 의
▁얻 고
▁틈 에
▁머리카 락을
인 인
▁기 대를
▁전쟁 의
비 한
▁녹 아
내 에
색 은
▁될 지
▁잊 혀
▁서울 의
▁거기 다가
▁이 재
▁수 술을
▁보 라.
▁창 피
▁갑작 스런
▁ 엽
석 으로
▁계 셨
▁법 이다.
▁서로 가
▁결혼 할
▁관련 이
▁풍부 한
▁주 일
▁비 닐
▁유 일
▁사람이 라고
▁자세 한
자 라는
판 에서
▁스 커
▁가늘 게
▁보기 에는
투 성이
▁" 좀
▁처 벌
▁떨 며
▁한결 같이
▁부지 런히
▁거 세
▁귀 한
▁응 답
▁아닐 까.
▁포기 하고
▁일어서 서
▁율 리
▁아무렇 지도
르 던
릇 한
▁뛰어 넘
▁어려 워
▁그 분은
▁거 요?
▁않고 는
▁들어가 고
▁인민 군
▁ ^
답 지
반 은
욕 이
터 로
▁헤 르
▁빛 나고
거리 다가
▁4 년
▁어렵 다.
음 악
주 었
포 로
▁지 는
▁주 신
▁동 경
▁측 정
▁의 학
▁성 적인
▁충 동
▁멀 지
▁죄 가
▁무시 무
▁내 었다.
▁성 실
구나 ,
▁꽤 나
4 .
다 며
마 자
▁부 디
▁형태 의
근 이
▁" 은
▁머 무
▁밤 에는
▁옆 을
▁나가 야
▁이 데
▁것이 었습니다.
▁전 파
▁의 혹
▁손 님을
오 면서
포 는
▁스 피
▁억 누
▁한편 ,
▁어른 이
말 고
▁그 을
▁사 장이
▁오 스트
▁적 절
▁투 입
▁상관 없
▁느닷 없이
▁마 리를
▁마 무리
▁고 아
▁데 다가
▁출 신의
▁알아 들을
눈 을
본 을
▁안 의
▁들어가 면
▁아가 씨가
▁" 연
▁마 라.
앞 으로
열 의
▁놀 고
잖아 요?
사 무
오 나
▁남 는
▁먹 어야
▁울려 퍼
! '
길 래
▁장 치
하면 ,
▁책 의
▁띄 지
다 섯
앉 아
▁내 에서
▁불 려
▁생각해 도
l d
▁언제 부터
▁레 스토
▁지역 에
록 을
페 이
▁인 연
▁미 행
▁향 해서
▁신 문에
▁외 에도
▁어디 론가
▁9 0
▁아빠 가
올 로
▁같 애
▁손 목
▁얼굴 의
▁일 대
▁무 작
▁서 슴
▁걸 리
▁배 우는
▁언 니가
▁포 르
▁한바 탕
▁세계 로
된 다
▁" 결
▁가 구
▁일 세.
▁조 명
▁ 째
관 계를
▁공 무
▁가 수
▁보 도록
▁기 껏
▁조 롱
▁환 상
▁살아 있는
▁나무 에
▁기울 여
▁ 싼
계 에서
준 을
편 에서
▁불 고
▁뒤 에도
▁복 도
▁"그러 자
) -
▁나 을
밭 을
쓰 고
우 리는
▁소 장
▁싶 지는
▁경찰 은
누 가
병 으로
▁가 느
▁잠 든
▁올 리는
▁"아 저
▁겪 은
▁겸 손
▁않 겠다고
▁전 공
▁' 자
▁처 박
▁제목 :
마 이
▁일 생
▁이것 도
▁증 언
▁승 객
▁괜찮 아
▁기대 어
▁빙 긋
▁주 문을
▁인간 에게
▁5 백
▁얻 기
▁유리 창
겁 고
루 는
▁한 없이
▁중 에도
▁보 다.
▁않았 다고
▁테 르
▁부끄러 워
잡 한
▁유 인
▁귀 중한
▁이유 도
덕 이
▁낭 만
스 도
▁지 향
▁서 늘
▁2 층
▁아침 ,
▁" 의
▁일 인
▁신 호를
▁싶 어요.
더 는
부 지
사 나
샤 는
▁대 도
▁확인 할
▁허 허
▁뛰 는
▁나 이를
▁바 쳐
▁인 하여
▁남 녀가
▁열 리는
▁듣 게
▁드러 났다.
........ ........
가 도
문 과
▁시 는
▁성 숙
▁추 경
국 과
케 이
▁아 나
▁비 겁
▁이제 까지
▁프랑 스의
당 하는
지 듯
▁수 의
▁무 수한
▁세 게
▁진 리를
▁부분 에
▁말 라.
▁그런 지
니까 요."
▁애 는
▁위해서 였다.
▁들 릴
▁해 ."
▁돌 연
▁뒤 섞
▁변 한
▁그곳 에는
▁낯 설
▁일 체
▁안 경
▁입 장이
▁싶 습니다.
스 틴
▁장 갑
▁병사 들이
▁사로잡 혀
▁여 기가
▁상 승
▁장 의
▁최 대
▁"고 맙
a in
마 누
슨 의
▁같 고
▁비 비
시켜 야
▁덮 고
▁상처 가
▁구석 구
꽃 이
▁어 처
▁소 년이
▁학생 들은
▁" 피
▁적 합
▁넘 게
▁만든 다.
▁몰아 쉬
▁주먹 으로
린 다는
▁일 인지
▁거 침
▁조 조
▁구 름이
▁풍 경
▁감옥 에
▁주 기를
▁새 가
▁얼굴 에서
▁배 낭
▁입술 에
세 요!
지 던
▁싸 게
▁꺼 져
▁움직 이
값 을
▁거 실
▁실 어
▁섬 뜩
▁소년 의
▁어색 한
송 을
▁사람 이나
▁정 인은
▁병 원으로
▁흘 렸다.
▁물론 ,
▁있지 ?
하시 고
▁마이 클
▁잔인 한
▁" 반
▁현 장
▁떨 리고
이야 ?
▁지켜 보았다.
▁"그러 니까
▁조직 의
▁말이 오.
▁인생 은
▁요즘 은
루 의
들과 는
▁남 짓
▁무엇 인가?
▁이번 에도
▁집안 을
▁말 미
▁아무 렇게
▁파 멸
▁믿 음
황 을
황 이
▁소 외
▁듯 ,
▁둘러 보
으리 라는
▁말 처럼
▁여 불
▁밤 낮
로서 ,
▁탓 에
▁" 카
▁말 하기
▁왔 다고
▁깊 고
▁해도 ,
번 이
▁생각 만
▁달 리고
▁짓 은
▁위치 에
선 에서
▁바 빠
▁급 속
▁살 았다.
▁종 이를
이라 .
▁짐 짓
▁형태 를
퍼센 트
▁거 들
▁그런 대로
▁엄 격
▁합 쳐
▁미래 의
(? )
▁있 긴
▁생각 하게
▁감 돌
▁싸 워
▁베 트
▁혜 린
▁오후 에
▁"모 르
▁정 화
▁대 변
▁부 릅
▁되 기도
▁받 는다.
▁놀라 지
▁퍼 붓
▁웬 일
미 나
이 에서
츠 는
▁19 0
▁일으 켰
▁동생 이
▁시원 한
▁나 설
▁소 름이
▁이루 어져
▁그 르
▁기 를
▁안 도의
▁못 하였다.
▁읽 었다.
습니다 만,
하였 고
▁알아 ?
먹 었다.
손 에
죽 이
▁" 처
▁어 림
▁끝 났다.
▁일본 인
▁간단 하게
운 드
편 의
후 가
▁하 기로
▁대 담
▁사 제
▁단 한
▁처 형
▁식 은
▁내려 놓았다.
▁깔 고
▁지 내고
▁5 ^
▁묻 자
▁도착 할
학 에
▁바 꿀
▁피 고
▁판 단을
놈 들이
▁햇 살이
교 육
하 구
했 지.
▁비 친
▁불 만을
▁싶 었지만
▁운 이
▁미소 지
▁사령 관
▁함 으로써
▁앉 았
▁풍 기는
,,,, ,,
▁똑똑 히
▁아 냐.
▁나 니
▁시 끄러
▁ 컨
버 는
▁없 음을
▁따 지고
▁좋아 했다.
천 에
▁내 린다.
▁위 를
▁잔 에
▁일 관
▁설 령
▁집안 으로
▁죽 으면
▁이야기 해
▁이곳 으로
이트 는
으리 라
▁하겠 습니다.
가 지를
미 로
▁부 활
▁우리 집
▁긴 장을
으므로 ,
▁플 레이
▁여러분 이
▁철저 한
형 사
▁" 차
▁전 까지
만이 라도
▁쏟아 지는
거 야
내 를
▁" 더
▁가 며
▁김 영
표 는
▁이 쪽
▁주 관
▁중 간에
▁뒤 져
▁배 워
▁추 운
▁컴퓨터 를
▁맞 았
▁그 쪽
▁아 스
▁의 사의
e ,
▁조 지
▁앞 에서는
▁돈 도
▁범 인이
당 에서
▁사랑 할
▁테 러
u m
친 구
▁지 독한
▁고 생을
▁도 시를
▁정신 의
▁놀라 며
▁때까지 는
▁물러 서
1 1
권 에
우 .
우 와
호 도
▁"그 만
▁폭 탄
."그 가
▁맑 고
▁이 태
▁제 국의
▁2 9
▁심 장이
다 !"
▁할 까?
▁아이 디어
▁옆 에는
▁사라 지는
▁끊 었다.
▁할머니 의
▁증거 가
( S
뜨 고
부 ,
▁나 보다
▁진 영
▁배 우고
더 라
망 한
밤 에
▁수 색
▁모 임
▁병사 들은
▁미루 어
규 가
론 에
필 을
▁있었 는지
▁"그 것
▁흘 렀
▁밝 히
졌 다고
▁특 이한
▁삼 각
금 의
마 르
우 면
▁다 그
▁멀 어져
한 의
▁해 본
▁재 빠
▁치 러
▁옛날 의
e p
씩 씩
짓 는
호 흡
▁" 병
▁차 량
▁강 제로
▁찾아 야
▁조직 을
했 다면
▁이 도
▁말하 기를
님 ."
리 스트
현 을
▁부 부는
하 느라
▁두 세
▁차 별
▁교 과
▁김 호
() 로
▁됐 다.
▁두들 겨
거 릴
맞 춤
▁2 백
▁시간 도
▁절 벽
▁구멍 이
n ot
암 은
▁한 ,
▁두려 움을
▁봄 이
▁요시 다
▁보 기도
▁3 천
▁기본 적인
▁말투 로
스 탄
▁바 다가
▁피 살
▁벌 어졌다.
카 의
▁아래 에서
▁사진 이
▁나누 었다.
▁뜻밖 에도
▁주 인의
▁호 위
▁체 념
그래 서
▁괴로 워
맛 이
▁수 호
▁오 라
an t
력 도
유 는
▁때 쯤
▁제 출
▁서 쪽
▁순 순히
▁벗 은
나무 가
예 를
▁신 중
▁어떻게 든
▁밤 중에
▁거 리로
▁생각 하면서
▁역 사가
▁창 작
▁미국 이
r i
▁ 맙
겹 게
▁" 죄송
▁참 된
▁표현 을
▁거슬 러
▁ 켰다.
▁향 하는
▁얘 긴
▁부르 며
▁붉 게
토 의
▁흘 리고
▁꾸 미
▁그랬 더니
거든 요."
▁' 고
▁"이 게
▁까 마
▁불 의
▁스 님의
▁초 상
▁위험 이
▁내려 가는
▁순간 을
▁언제 든지
▁것처럼 ,
▁어렵 지
어 가는
▁소 릴
▁단 편
▁바라 볼
▁나서 야
▁다니 엘
바 라
▁사 십
▁않 자
▁감 정의
▁팔 이
▁가져 온
▁동 철은
▁환 하게
▁자기 네
▁빼 고
▁잇 는
밖 에서
속 은
정 ,
▁가 방
▁동 맹
▁명 랑
채 가
▁끌어 안고
아 시아
▁하 지는
달 라는
루 에
▁부 패
▁여자 들의
자 ."
집 니다.
▁스 웨
5 0
피 가
▁아 서
▁보 라
▁전 제
▁방 식을
▁했 지.
▁뭐 야?
▁낙 엽
보 의
▁대 낮
▁방 은
▁좋 습니다.
▁향 기
주의 적
▁하루 가
▁부르 짖
선 과
섭 이
혼 을
한 다면,
▁잠 긴
▁자리 잡
여 !
▁먹 이를
▁집 행
▁다가 오고
▁아름다 움을
▁뛰쳐 나
원 들의
▁소 녀가
▁여자 들을
▁보여 준
오 며
▁대 략
▁언 니는
▁보이 기
▁신 속
▁빨 게
▁흡 수
▁이외 의
어오 르는
개 는
만 .
▁부 어
▁선 전
▁언제 까지
▁10 여
▁" 과
▁이상 하게도
▁정보 가
▁균 형을
감 하게
▁세 력이
▁손 목을
▁베 어
선 다.
▁' 한
▁붙 들고
▁대학 의
▁덮 여
▁어딘 지
▁"아닙 니다.
▁전 염
▁개 척
▁이름 의
▁하 라는
▁안 주
▁갔 던
▁이 듬
들과 의
▁청소 년
▁뚜렷 한
함 으로
▁편 지가
원 들을
저 런
판 의
한 이
혜 는
▁아 아,
▁사 상을
▁모 리
▁진 입
▁야 단
▁누군 지
▁호 랑이
▁이해 하는
기 야
▁전 하의
▁터 질
▁태양 이
▁비스 듬
겠 다."
▁이 시
▁" 설
▁마 법
▁이름 도
▁일본 군
▁이루 지
▁ 으며
▁분 주
▁강 변
▁ 았
▁가 량
▁진 우는
▁박 영
▁궁 궐
▁겉 으로
▁무한 한
격 에
근 은
사 들은
▁인 구
▁있었 다면
▁혼 인
▁엄 지
▁“ 그
옥 을
하 이
▁거 처
▁소 화
▁고 등
▁남 쪽으로
▁분 별
▁과 정이
▁벌 어졌
▁거야 ,
▁원 형
▁길 에서
▁회 사를
▁웅크 리고
▁강 인
▁자 위
▁강 경
▁하나 만
▁찾 았
▁조사 해
▁ /
▁시 시
▁안 톤
▁주장 했다.
▁죠 나
브 라
▁자 궁
▁기 쁘
▁당 혹
▁어려 웠다.
▁대 의
▁파 출
▁봉 투
갔 습니다.
광 을
▁더 군
▁들었 습니다.
▁눈빛 을
데 도
▁오 락
▁우 연
▁찾아 갔다.
▁마르 크
래 는
▁그 들도
▁일 깨
▁고 ,
▁아니 란
▁충 동을
▁이야기 하는
▁용 납
▁미국 으로
▁만들 었
▁가르 치는
▁돌려 보
테 르
풍 을
▁마 비
▁살 면서
▁넣 는
구 요?
혜 가
▁나 비
▁바 다.
▁상 감
▁존재 의
▁뚫 어지게
' 이라
▁우 석
▁성 을
▁많 아서
▁반 갑
▁빠 졌다.
▁즐 기고
▁더듬 어
▁한 계
▁것이 지
▁고 위
▁건 물을
달 은
▁절 로
▁ g
숙 을
젊 은
진 과
해 !
▁소 란
▁생각 된다.
▁않았 으나
▁국 회
저 것
종 범은
▁일 정
▁반 문
▁그때 ,
▁권 리를
▁봉 투를
▁암 시
▁내려다보 고
▁있는 지를
▁비 쳐
▁열 지
인가 를
스러 울
▁투 명한
마 일
부 대
카 를
▁소 대
▁진 주
▁지나 자
▁복 사
▁경찰 의
▁절대 적인
▁웨 이터
▁ 에서
▁말 입니다."
▁금방 이라도
퍼 를
▁전쟁 에
겁 지
끈 한
▁마 십시오.
▁불 태
▁평 안
변 이
▁도 리가
▁충 고
▁겁 니까?"
▁쓸 모
▁건강 을
▁것인가 를
하 더라도
▁미 치는
▁욕 심
▁익 은
▁증거 를
4 )
병 들이
전 과
▁성 냥
▁날 이었다.
▁요 구를
▁막 대한
▁터 무니
▁쓸데 없는
▁들어 보
이지 ."
▁암 호
▁탄 식
▁닥 쳐
산 과
일 까
▁고 뇌
▁돌아가 셨
환 은
▁안 을
▁있었 지.
▁분 은
▁있 거나
▁못 해서
▁관 습
▁힘 없이
▁그리 며
▁달려 들어
▁죄 책
▁사람들 로
쳤 을
▁" 혹시
▁다 정
▁멈 춘
▁고향 에
' "
▁기 획
▁무 명
▁뭐 라
스트 라
▁목적 은
▁자 를
▁않았 는데
▁우울 한
로 와
▁잠 겼다.
▁세계 는
▁깨달 은
▁오늘날 의
과 에
놓 을
▁오 드
▁총 독
▁봐 .
▁거두 어
참 ,
▁공 연
▁목 적으로
▁밝 게
▁바다 로
▁유 사
▁개 방
▁끝 낸
소리 와
끼 는
지 니
했 었
▁일 의
▁곳 에는
▁흔 적이
습니다 !
▁자유 로운
) 으로
말 의
▁때 나
▁위 스키
▁드 리는
▁ 랜
▁마 차
▁상 업
수 리
▁벌 게
▁없이 ,
▁농 담을
▁불꽃 이
겠 소."
▁소 망
▁생각 했다
▁안 토니
▁명 은
▁소리 였다.
▁잃 게
▁가르 침을
▁옥 수
▁사무 실에
▁훼릭 스는
놓 는
자 한
▁아 기가
▁보 상
▁전 생
▁바 둑
▁동 생을
▁속 에서는
▁전화 로
▁경찰 서
되 기도
▁하 데
▁전 체의
들이 는
▁성 인
▁쉽 사리
▁흔들 리는
씩 이나
▁않 다
▁것이 지요.
▁연 예
▁놓 으면
▁천 연
▁쓰 기
▁걷 기
감 히
치 고,
▁주 셨
▁미 치지
다니 며
▁불과 한
▁사나 이는
▁이 글
▁지 킬
▁정 체
겠 는데
뿐 이
▁전 에도
▁박 지
ou t
▁거리 에서
▁신선 한
▁어 뢰
▁1 )
▁구 실을
▁분 을
▁차 갑게
▁네 ,
외 의
▁지 르
▁건 조
▁향 하고
▁임 무
▁빨 라
이트 가
▁의식 의
거니 와
▁있 으면서도
▁위 대
▁공 간을
▁5 00
▁숙 였다.
▁착 륙
다 녔
▁밤 마다
▁왕 비
▁독 재
▁헌 신
▁근처 의
▁다루 는
▁포 옹
걸 이
앉 은
▁말 로는
▁거 였다.
▁눈 길이
▁온 다는
▁국민 의
▁눈치 였다.
▁ 셨
회 사
흐 흐
▁그 분의
▁신 성한
▁별 이
합 이
▁자 라고
▁방 위
▁입 구에
▁달 성
▁산 다는
▁각 자의
▁나머 지는
▁K 는
겠 네.
일 수록
▁보 십시오.
▁소 멸
▁배 어
▁타 일
께서 도
곡 이
▁확 장
▁에 워
▁올라 와
하였 습니다.
▁크리스 틴
내 어
할 까
▁지 낼
▁모두 에게
▁침 투
▁실제 로는
▁일 시에
▁방 아
▁빠 지는
▁출 연
▁인디 언
피 스
▁바 지를
▁들어서 자
산 한
▁보 람
▁일 생을
▁기 색이
▁이론 을
▁연결 되어
파 에
▁# 1
산 ,
▁살 지
▁병 원에서
▁띄 었다.
장 .
▁받 기
▁밑 바닥
▁편안 하게
▁창백 한
취 한
▁지 날
▁' 나는
▁속 하는
▁천 하의
▁싱 싱
치 ,
▁싫 었다.
대 전
▁시 리
▁물론 이고
▁꿈 에
▁A �
디 다.
▁있 습니까?"
▁진 압
다가 도
▁못한 다는
▁몰라 서
그 릇
랬 다.
▁시 의
▁간 이
▁받아 서
▁옷 은
▁브 래
▁모르겠 지만
▁제외 하고는
호 에
▁주 세요."
▁해 안
▁설 립
▁이야기 하고
▁좌우 로
▁퉁 명
▁" 크
▁말 야."
▁누 나가
▁가르 침
▁누워 서
h is
림 에
▁정 통
▁오 를
▁스 파
▁이 종
▁대 문을
▁분 열
▁하나 님
▁과 일
▁떨 렸다.
▁친 정
▁찬 성
s .
▁ ....
꾼 들이
페 르
▁것 까지
▁대 량
▁정 권을
▁막 힌
▁볼 을
설 은
▁않 으며
▁정 교
▁움직 임이
▁부엌 으로
2 7
▁문 명의
▁변 하지
▁팔 로
▁승 낙
라 에
▁들어 섰
▁잘 해
▁강 도
▁평 상
▁털 썩
▁달라 진
▁위치 한
▁반짝 이는
▁ =
천 으로
▁더 더
▁포 착
▁심 정을
▁믿 어지지
▁리 포
▁ 릴
렌 은
세 기에
평 은
▁많 다는
▁밤 하늘
▁뿐 이야.
> 는
o c
구 에서
▁다 는
▁내 렸
▁매 혹
티 의
▁부 추
▁안 았다.
▁서 야
▁찾아 서
▁믿 어
▁다니 고
▁십 자가
▁떠오 른
▁하 셨다.
▁정 체를
▁바 그
▁5 분
아버 지
빈 의
▁" 태
▁일이 라도
▁운 명이
▁숨 기고
▁잊 어
▁브 로
▁협 력
▁무작 정
겼 다
▁있 더라도
▁번 의
▁가지 게
▁악 을
▁없 네.
▁지 을
▁무 릅
▁조 니는
▁더 운
▁살아 서
▁꽃 잎
▁쪽 에서
▁아르 바
▁실 종
▁애 매
▁약 탈
▁빈 정
▁그릇 을
▁고스 란히
였 지만,
쳤 던
했 으니
▁원 주
() 는
▁추 방
▁거울 을
▁버릇 이
▁이 행
▁남 았다.
▁그림 이
▁성공 한
귀 가
뜨 리고
료 가
▁모 은
▁원 인을
▁표 면
▁황 제의
▁펴 고
역 에서
화 로
▁무 리가
▁처 참
회 장
▁아 지
▁주 제
▁목 욕을
▁경우 에도
▁놈 들은
▁엄마 를
▁죽음 은
다 (
▁상 자
▁당 도
▁여기 서는
▁어찌 나
▁미안 한
▁감추 고
방울 이
▁속 셈
▁내려 왔다.
▁전형 적인
무 라
▁말 았다
▁안 된
▁음 성
▁용 의
▁글 이
▁바람 은
▁끌어 올
▁니 가
▁눈앞 에서
게 ,
▁강 제
▁현 명
▁여 길
▁저 곳
▁베 를
▁즐 길
저 었다.
카 가
▁수 출
▁비 누
▁뒤 늦게
▁친구 들은
▁깨닫 지
질 적인
-------- ----
어지 기
▁아무렇게 나
허 ,
▁한 의
▁애 국
▁그때 였다.
다니 .
양 에
▁말 끔
▁아저 씨가
▁미끄러 져
▁싸늘 한
▁무심 코
▁이 브
▁놀랍 게도
) :
▁나 지막
▁기 적
▁던 지
시 오."
▁거 미
▁당 분간
▁성 에
▁군 은
▁버리 면
▁보 지도
▁조 조는
▁남 성의
▁도 중
▁특 정한
▁모르겠 어요.
▁여유 를
▁솔직 하게
관 들이
이 드
▁태 도에
▁초 청
▁운 명의
형 ,
▁" 흥
▁누 굴
▁찾 은
▁회 의를
▁끼 워
▁끄 집어
▁그 네
▁세 자는
▁마시 며
▁머릿 속에
▁눈부 신
▁발 행
▁시작 하고
▁끌어 당
호 ,
▁있 지는
▁허 고
▁사회 는
▁집안 이
▁"너 희
감 ,
묘 하게
였 으나
▁의 문이
▁여자 들
▁넘 은
▁젖 을
반 으로
벽 에
병 과
▁하 찮은
▁분 홍
▁벌 이고
▁막 았다.
▁빠져나 와
석 과
함 .
후 ,
▁거 는
▁상 공
▁범 인
▁까 다
레 의
움 도
해 ?
▁시 선으로
▁이야기 할
▁거야 !
▁이어 졌다.
▁옵 니다."
▁프로그램 을
마 와
▁거 지요.
▁등 록
▁적 대
▁매 춘
스럽게 도
▁그날 은
▁맛 있는
▁중얼 거
자 락을
▁보 던
▁거 렸다.
() 과
▁반가 운
너 스
▁어 딜
▁지 성
냈 다
사 상
▁이 룩
▁이것 저것
▁꿈 은
겠 소?
마 나
▁조 화를
▁데 에는
▁천 주
거리 던
베 이
▁세 대
▁살 았던
▁예 감이
▁"아 까
▁특 수한
▁환 자를
▁심상 치
에 까지
을 까
▁일 었다.
▁대 만
▁않 겠다는
▁김 정
▁소리 ,
▁평 화를
어버 릴
▁여기저기 서
▁레스토 랑
이 건
▁거 죠?
▁같 습니다."
▁안 기
▁인 내
▁말씀 하셨
▁돌아가 신
▁어찌 된
▁임금 이
장 군
죽 은
▁내 민
▁것이 므로
▁특 정
▁없었 어.
▁리 더
▁살인 사건
맞 는
빈 이
▁명 상
▁타 협
▁문제 였다.
▁바라보 던
( A
용 한
▁자 취를
▁다 물었다.
▁커 튼
▁아 틀
▁하 구
▁생각 하였다.
▁의 료
▁살 의
▁호 출
▁딸 은
검 은
트 ,
▁이 주
▁대 를
▁유 의
▁준 다는
녀석 이
▁그랬 던
▁그 치지
▁" 근
▁해 달라고
▁뜻 대로
▁호텔 에
▁벼슬 을
티 를
▁되 는데,
▁사랑 으로
▁하 듯이
▁지 가
." 나는
▁' 정
▁입 지
▁죽 어도
ar t
▁ 뻐
해 하고
▁부 리
▁차 차
▁버 스를
▁양 보
▁짚 고
어머니 는
▁자전 거
▁자 라는
▁거 닐
▁고 리
▁서 술
실 히
▁하 오.
▁해 리
▁김 에
▁괴 물
이트 의
▁집안 에서
▁낳 고
▁수 평
▁오 만
▁받 들어
▁청 춘
▁영혼 은
▁족 한
▁계 승
▁곳 이다.
▁어둠 을
▁온몸 에
하 오.
▁아니 하고
어서 ,
▁없었 다는
▁이해 하기
▁봉 사
▁이루 어지는
▁획 득
▁모스크 바
파 트
▁되면 ,
▁도착 했을
▁아 들에게
▁비 춰
▁동 기
▁신 분을
▁긴 장이
▁문화 적
▁마리 사는
그래 ,
시 아가
▁지 정
인가 ,
▁얻 지
시 까지
시 간에
▁윤 곽
받 았다.
▁생각 되는
▁최 초로
▁병 력을
▁내밀 고
▁정 서
▁장 소에
▁3 0년
▁숭 배
▁즈 음
▁부 들
▁인 근
▁집 에는
▁양 성
▁걸어 가는
시 쯤
점 의
▁이 어져
▁다 다
▁지 각
느냐 ,
요 를
▁천 하
▁싸 우고
▁만나 기
▁달려 와
▁그에게 서
식 한
요 가
▁지 르고
▁내 쫓
▁놀 라고
▁토 벌
▁7 .
▁캐 나
가 !
▁" 재
▁상 식
▁당 해
▁산 이
▁그만 두고
▁의미 한다.
▁닿 는
▁단단 한
궁 의
다 게
둥 이를
률 이
▁바 래
▁걸 렸
▁여자 로
▁지나 쳐
▁벗어 난
▁무시무 시한
2 2
▁그 이
▁하 였다
온 이
장 이나
▁전 ,
▁불 길이
▁저 리
▁걸 요.
▁친 한
▁합 시다.
▁" 새
▁생 태
▁들 으면서
▁무 료
▁흐 른
▁칼 이
▁탐 욕
여 자
집 고
▁의 지를
▁감 당
▁마 술
▁부 리는
▁비 벼
▁아니 었던
▁장 사를
▁흐 려
▁건물 의
▁아 폴
▁시작 되는
▁대답 해
▁틀 린
▁즐거 움을
▁ 킨
오 르
▁무 표
▁계 시는
▁힘 들어
▁제임 스
▁두꺼 운
능 을
▁가 다가
▁비 치는
▁경 향
▁접 어들
▁앞으로 는
▁범 인은
▁지켜 야
▁닥 치는
오 르고
잡 이
▁" 구
▁지 명
▁금 강
B C
승 의
▁무 전
▁아이 들과
▁발견 된
▁노동 자
▁이데 올로
5 .
치 던
▁있 나요?
▁이후 에
궁 이
부 인이
위 ,
▁수 리
▁상 세
▁명 나라
▁팔 고
▁글 로
라구 요.
월 한
▁이 사를
▁기 사는
▁감 정은
▁헤 치고
채 는
▁몽 고
▁발생 한
▁전통 적인
▁생각 났다.
... ,
▁초 등학교
▁직 면
▁패 러
▁살피 고
▁마루 에
형 으로
▁보 따
▁세 명의
▁노 리는
▁따 를
▁있겠 는가?
▁아니었 지만
▁혈 액
가 루
센 티
윤 은
▁" ....
▁자 격이
▁의 문을
▁명 칭
▁직 전
▁밝 히고
▁자네 도
터 리
▁말 고,
▁대 령
▁주 자
▁비 싸
▁친구 들
스러 웠
▁10 분
▁궁 녀
▁자유 의
▁지역 을
▁기울 이고
▁호기 심
6 ,
▁ 큼
래 에
로 워
▁이 라
▁오 미
▁만 주
▁너 에게
▁타 서
▁포함 한
▁제각 기
증 은
▁이 천
▁한 강
▁남 들이
▁' 신
▁나가 기
▁바 랄
▁동 작을
▁하늘 과
▁식민 지
▁위 기
▁연 산
▁3 8
▁추 리
▁이야 기에
주의 자
▁명령 에
▁무시 하고
▁흘러내 렸다.
디 를
족 은
▁한 손으로
▁일 할
▁고 수
▁처 녀가
▁"그래 ?
▁거 역
▁그러 더니
▁크 레
▁널 려
a k
▁영 업
▁일으 킬
▁마을 에서
▁너희 들은
대 왕
▁할 말이
▁버 럭
▁다니 며
노 의
▁생 애
▁초 인
▁먼 지
▁터 득
▁목욕 탕
두 리
▁" 양
▁정 해
▁날 로
▁가능 성은
▁깔 깔
▁나왔 다
▁잠수 함
멋 대로
▁못 하여
▁개 나
▁실 력
▁고향 으로
▁지혜 를
▁우 수
▁데 로
▁심 찬
▁생기 면
▁ ?
▁정 책을
▁제 안을
▁들어 오고
▁자기 들의
▁커 니
▁휘 둘러
▁무렵 에
겠 죠.
무 의
▁" 싫
▁나 르
▁일 련의
▁주 제에
▁기록 을
▁수 확
▁말 인지
▁마 흔
▁상대 방을
▁"무 엇
념 을
▁노 여
▁왔 다가
▁삼 국
▁"그렇 지만
( C
▁관 점에서
▁해야 만
▁"저 도
사 회
피 는
▁뿐 더러
l i
아 !"
▁있 음
▁한 테
▁기 쁘게
▁순 진
▁천 사
▁흐 뭇
▁있겠 지.
▁드러 내고
▁엉 망
▁가족 의
▁시절 을
렌 이
역 이
제 도
▁자 취
▁담 임
▁인생 이
▁무렵 ,
▁책임 이
▁짝 을
- 그
▁정 류
▁말이 에요.
▁있겠 습니까?
▁기회 에
▁의견 이
s e
듣 고
▁백성 들은
순 은
으 라는
▁주 가
▁주 인을
▁비 평
▁연 습을
▁인생 에
▁호흡 을
▁지금 쯤
▁보았 습니다.
▁것만 으로도
▁임금 의
▁보 셨
▁기 막
▁바 와
▁받아들이 는
▁단호 하게
명 이나
혈 을
▁다 나
▁않 기로
▁내 부의
▁고 발
▁인 종
▁울 먹
4 2
위 도
▁대 다
▁그곳 으로
렁 한
▁저 질렀
객 이
뜨 린
우 ,
▁정 식으로
▁느끼 면서
▁느꼈 던
▁태어 날
es t
▁굽 혀
▁구두 를
▁주저앉 았다.
벌 이
▁" 호
▁화 장을
▁따라 서는
한테 도
▁관계 로
▁계획 은
▁용서 해
청 에
▁내 말을
▁동 정을
▁열 이
▁육 체의
▁빈 틈
▁부드 럽고
업 의
일 본
▁누군 가를
▁수염 을
구 한
▁뛰어 내
▁여 옥은
▁호 화
▁어깨 가
▁손바닥 으로
레 가
부 모
▁이 은
▁수 은
▁깨끗 하게
다 이
듯 ,
▁소 홀
▁따 위의
▁메 고
▁없어 도
,, ,
▁감싸 고
▁클레 시아
4 0
▁ 퀴
놓 았
봐 !
실 과
▁남 부
▁영 어를
▁인정 하지
▁어쨌 거나
▁바뀌 었다.
▁밤새 도록
리 네
▁있 기를
▁말 들이
▁어 미
▁안 개가
▁인 연이
▁입 었다.
▁왔 어요.
▁믿 었다.
▁응 접
▁씻 어
교 에
▁오 렌
▁예 컨대
▁"그래 요.
냄새 가
근 을
▁어 우
▁기 웃
▁돌 린
▁했 더니
▁충 성
▁카 드
▁떠나 야
ig ht
간 에서
▁헤 어져
라면 ,
▁정치 가
▁언덕 을
======== ========
는 가를
▁이 성을
▁생각 되었다.
▁민주 주의
▁것을 .
▁회 장이
▁인 도의
▁서 기
▁저 자
▁화 제를
▁술 잔
▁조각 을
시 대의
▁중 위는
▁질 서를
▁대답 도
▁옮 긴
▁조건 이
겁 을
게 요.
▁" 철
▁기 존의
해서 ,
▁시작 하여
▁곳 에서는
▁던 진
▁사무 실을
비 ,
역 의
척 을
▁끓 여
▁사냥 을
' t
▁자 원
▁해 소
▁불 법
▁발 라
▁휘 파
▁뚫 어
▁닫 혀
▁할아버 지의
▁유럽 의
념 이
▁그 분
▁전 세
▁구 하는
▁형 상
▁존재 는
▁안타까 운
7 .
군 !
▁고 르
▁신 발을
▁슈 퍼
복 의
▁역 사는
▁떨 면서
▁점 잖
들에게 도
▁직 전에
▁젊 고
▁죄 수
▁약속 한
▁으 레
▁치밀 어
▁백성 들이
▁시 대가
▁벌 려
▁확 신을
▁못하고 ,
고 로
기 술
▁이 리로
▁' 미
▁선 발
▁원 장
▁치 마
들 었다
▁들 렀
▁' 가
이지 ?
▁사람들 에
▁트 레이
▁둘러 싼
▁"조 금
( T
봉 이
▁나 로서는
▁시 에
▁해 요."
▁상 대는
▁놓 지
▁찬 찬
▁꾸 려
▁흡 족
▁적극 적인
라 에게
맞 게
바 이
예 .
터 면
▁여 편
▁허 탈
▁애 정
▁떠나 기
▁찬 란한
▁싶은 데
▁심각 하게
했 으면
▁자 금
▁세 종
▁일으키 며
▁" 날
▁모르 지.
▁직 업을
▁힐 끔
자 리가
▁그래 요?
▁희 망이
u p
행 의
▁정 한
▁동 화
▁더 해
▁단 번에
▁질 질
▁뛰 고
▁떼 지
▁크리스 마스
6 .
▁정 권
▁공 주는
▁대한 민
▁맡 기고
▁지난 날
▁마찬가지 다.
▁궁금 한
▁사 뭇
▁지 도를
▁무 수
▁신 세를
▁의 뢰
▁큰 일
) 라는
적 이라고
▁아 일
▁시 트
▁구 조를
▁돌아가 서
▁뻔 뻔
겠 지?
사 였다.
함 ,
▁사 방으로
▁누 웠다.
▁그때 마다
▁동물 의
▁신기 한
늙 은
어 !"
프 랑
▁있 소?
▁이 왕
▁오 랑
▁진 실로
하여 야
▁헤 어진
▁굴 복
▁손가락 이
건 ,
▁대 공
▁시 선은
▁기 색
▁공 군
▁' 마
▁"그 랬
▁행 위는
▁왜 곡
▁편 이었다.
▁ 젠
가 리
라고 ?
▁당 당하게
▁후 로
되었 습니다.
▁올려 다보
▁"모 두
숙 하게
유 하고
▁사 방을
▁일이 야.
▁일어난 다.
림 과
▁불 끈
▁감 아
▁애 인이
▁에 어
▁말씀 하시
▁명령 했다.
클 로
▁" 별
▁좋 다
▁번 져
▁죄 의
▁탓 인지
▁36 ^
관 들은
▁" 빨리
▁기 여
▁비 탈
▁움 찔
▁석 방
감 도
수 염
▁"그 것은
▁반 찬
▁김 일
▁모습 도
▁없었 지만,
▁순간 이
▁거기 다
어 디
▁가 꾸
▁당 부
▁방 지
▁기대 고
▁맺 고
▁# 2
듯 하게
▁아 !
▁사 장님
▁무 리를
▁단 골
▁갈 망
▁울 어
▁이야기 했다.
▁휴 가
▁분노 가
▁테이 프를
▁개미 들이
▁아픔 을
▁파트 너
지 인
▁했 었
▁사랑 하지
▁곧 잘
▁빼 어
이야 ,
- 이
▁보 려
▁주 막
▁두 터
는데 ...
▁다음 의
▁잃 었다.
드 ,
발 에
풍 의
▁문 은
▁안돼 요.
는 다
둘 렀다.
▁남 게
▁찾아 낼
▁펼쳐 져
▁은혜 를
리 아가
▁것이 지만
▁당 나라
▁당 겼다.
▁저 에게
▁곳 도
▁질 렀
▁한국 인
▁시험 을
크라 테
▁스페 인
▁네 덜
▁떠올 라
▁해결 할
▁뿜 어
▁거 실로
▁사람이 라는
▁대해 선
▁던 지는
▁"안 돼
▁ 줌
을 까.
하 더
▁말 들을
▁보 잘
▁우 뚱
▁선 정
▁조건 을
▁돋 아
울 한
▁우 거
니다 ,
▁가슴 으로
달 리
절 에
▁가 던
▁상 담
▁김 민
▁직 감
하자 .
▁그 애
▁하 자는
▁나 폴
▁죽 였
▁열 등
▁게 다.
▁끝 에서
▁어지 러
지 다
▁서 운
▁의 원이
▁장 면이
▁예 방
▁먹 기
▁친구 에게
▁침착 하게
▁"어머 ,
▁간직 하고
련 은
성 이가
장 수
▁제 사
▁들어 주
▁속 옷
▁처 지가
▁각각 의
▁은밀 한
삼 아
▁지 원을
▁시 설
▁유 언
▁차 이를
▁건네 주었다.
명 과
▁여 는
▁친구 와
▁상상 할
▁부들 부들
가 면
리 .
어 와
▁가 축
▁' 오
▁계 실
▁잘 하는
하기 까지
▁빨 려
▁권 리가
▁나가 면
▁이용 할
▁녀석 의
▁포함 되어
▁흘러나 왔다.
n d
▁자 리는
▁현 상은
▁일본 에서
▁아침 이
▁ 램
렬 히
르 몬
차 례
▁그 리는
▁사 물
▁한 밤
▁달 을
▁싶 어.
▁애 기
▁대접 을
▁비스듬 히
혁 의
희 와
▁않 으니
▁더 할
▁속 도
▁떠 밀
▁양 을
▁찾아 온
▁삼 년
▁슬 슬
라 비
청 이
▁대 위가
▁토 지
▁전쟁 은
▁있 기도
▁나 간다.
▁것이 요,
▁생각 에서
▁신 부는
▁취 할
아버 지가
▁내일 은
▁아빠 는
▁뚜 을
발 은
부 인의
▁줄 어들
▁보이 게
▁기 절
▁단 념
▁늘 어서
▁ 릭
문 ,
프 레
▁없 으며,
▁지 급
▁' 무
▁영 어로
▁참 ,
▁세상 에는
▁찌푸 렸다.
▁기 숙
▁걸 리지
하기 에는
▁야 구
거든 ."
이야 !
▁가느 다란
▁이듬 해
) 라고
보 다가
형 에
힌 다.
▁말 에서
▁돌 진
▁중국 에
▁사용 한
견 이
맥 을
잠 시
▁자 이
▁왜 ?
▁이야 기도
▁승 무
▁그림 자를
▁들여다보 고
뿐 인
▁소 형
▁현 대의
▁믿 는다.
▁작품 은
> 라는
▁ 년이
거 의
기 보다
▁주 둔
▁면 도
▁도망 을
▁씻 고
▁나갔 다
그런 데
시 오
여 명의
직 에
▁공 간이
▁출 렁
▁뜨 거워
▁오른 쪽으로
▁빙 글
▁비롯 된
▁신 성
▁구 겨
▁강 물
▁잡 았
▁얘기 할
리아 를
▁익 히
▁제외 한
님 에게
▁" 없
▁세 웠
▁강 간
▁빠 질
▁체 크
▁글 자
▁높 고
▁땅 으로
▁표현 이
▁장난 을
짐 이
쩍 은
▁그 나
is t
▁흥분 을
▁C IA
▁빠져나 왔다.
▁다이 아
▁노골 적으로
" 라는
▁제 멋대로
▁세 균
... 그
▁김 이
▁분명 하다.
▁넓 고
▁지역 에서
▁기다려 야
▁쇼 팽
성 적인
처 가
▁가 담
▁자 매
▁동 서
▁3 ,
▁내용 의
▁기술 이
▁쾌 락
프 리
▁안 전한
▁유 익
▁질 서
▁올라 온
▁끄 는
으리 라고
남 을
▁지 냈다.
▁알 을
▁장 군은
▁감 동을
▁자기 와
▁요란 하게
▁ 는다.
▁하 겠다는
▁않 으려
▁전 송
▁차 이는
▁몸 매
▁엄 격한
▁- 이
▁풍 수
▁바뀌 어
▁부정 적인
느 는
들 까지
보 려고
아 ."
었 으니
' 이다.
> 에서
▁소 원
▁스 치고
▁태 우고
▁용 기
▁취 하고
▁이해 해
하였 으나
▁의하면 ,
에 요?
▁" 바로
▁마 마
▁못 했습니다.
▁이르 자
골 을
▁생각 보다
▁막 기
▁플 라스
▁" 손
▁시 끄
▁소 작
▁동 창
▁' 지
▁받 았던
▁단 추를
▁인간 과
▁레 코
▁에너 지가
궁 에
키 를
▁인 물을
▁물 의
▁재 정
▁중요 하다.
▁전화 기를
▁휘 둥
이다 ,
▁벗어나 지
복 은
사 인
▁인 지
▁속 임
▁죽 어서
▁정도 를
▁10 .
ar d
▁일행 이
▁전 까지는
▁불 현
▁구 제
▁뒤 흔
▁시작 했습니다.
▁설 명이
하자 면
▁잘못 이
어지 면
▁젖 가슴
1 7
섭 의
째 서
품 에
▁한 탄
▁시 집을
▁정 성을
▁유 쾌
▁어려 움을
▁영화 의
▁상상 도
▁답답 한
▁요즈 음
받 침
▁인 수
기는 커녕
▁변 함
▁책 에서
▁북 쪽으로
▁쳐다보 는
▁압 박
r o
시 30
▁고 조
▁선 을
▁일이 지만
▁부모 를
니 에
영 과
천 은
타 이
▁" 해
▁노 랫
▁진 을
▁합 의
▁안간 힘을
상 하게
운 다.
▁단 둘이
▁이용 해서
▁비행 기를
▁받아들 였다.
▁둥 글
▁백성 들의
▁전화번 호를
▁나 그
▁공 은
▁공 이
▁실 린
▁형 의
감 치
▁빠 지게
▁욕 구를
▁깔 린
▁"글쎄 ,
▁다 리에
▁발 전을
▁정도 면
▁회 장님
▁추구 하는
백 이
왔 을
토 벤
▁" 걱정
▁장 치를
▁속 도가
▁감 정에
▁야 릇한
▁결혼 식
▁알았 던
▁만났 던
장 하고
▁오 오
▁발 산
▁아침 을
▁편 하게
▁홍 진
on e
▁한편 으로
▁도로 를
▁웅 성
▁밟 고
아 니,
▁한 다면,
하는 지
▁그것 이다.
▁원 하지
▁질 문이
▁확 립
▁순간 이었다.
▁" 파
▁하 겠다고
▁대 목
▁처음 이었다.
셔 도
▁호 칭
▁편 히
▁막 대
▁약속 이
▁뚱 뚱한
▁초라 한
▁부끄 럽
▁찬찬 히
겠 지."
판 은
▁그 렸다.
▁이 진
▁여 우
... ?
▁떨어 졌
▁살아 있
▁있겠 지만
▁18 9
▁업 고
병 원
줘 요.
▁수 립
▁명 훈은
▁놀 이
▁책 에
▁선생 을
▁닿 을
냐 !
노 라
▁노 리고
▁감 소
▁등 등
▁난 이
▁꿈 에도
▁자극 을
번 을
킨 다.
▁철 이
▁꾸 준
▁숲 이
년 ,
▁하 야
▁대 치
▁정 반
▁들 게
▁고 집을
▁돌 리며
기로 는
▁19 세기
▁드러 누
▁말미 암
시 기
▁내 리지
▁관 중
▁예 로
▁계속 되는
▁까 만
대 학교
카 르
프 에
▁책 상에
▁버려 야
> 은
부 도
하 진
▁지 폐
▁해 마다
▁음 료
▁있어서 도
디 아
장 에는
장 님,
▁사 도
▁없 단
▁여 겼
▁정 치를
▁전 갈
▁통 곡
▁외 로운
▁올라 갈
▁라 이터
▁활 발
▁젊은 이가
in d
▁측 은
▁어처 구니
" 을
알 을
▁있 나?"
▁제 지
▁누 나는
▁추 격
▁향 기가
으 루
▁있 듯이
▁소 중
▁폐 쇄
▁곳곳 에
단 과
바 퀴
칼 을
클 리
▁무 거
▁내려 서
▁( 이
▁카 드를
▁좋아 하고
▁나서 ,
▁전화 벨이
▁첫째 ,
▁새삼 스럽게
▁사 치
▁나 에
▁한 잔
▁주 게
▁피 우는
▁심 어
▁않을 까?
▁끌 었다.
▁말씀 은
▁휴 대
▁비롯 하여
▁"오늘 은
가 면서
습 이
▁지 섭은
▁순 전히
▁청 했다.
▁않아 요."
▁선생 님을
▁어린 애
▁신경쓰 지
학 ,
▁사 대
▁국 경
▁겨 냥
▁서울 을
▁다니 던
해 할
▁보고 서
▁염 두에
▁모르겠 습니다.
건 한
▁습 격
▁불편 한
▁간절 히
겠 습니까?"
▁일 부는
▁상 류
▁미 인
▁"그 녀가
▁치 워
▁빠 지
▁명령 이
el l
겨 울
레 옹
▁사 다
▁일 찌
▁네 게
▁나라 로
▁물고 기
놀 이를
프 와
호 로
▁신 음을
▁발 기
▁데 미
▁"내 일
▁껄 껄
▁하 자고
▁보 충
▁건 물이
▁싶 다
▁채 우고
▁낯 익은
상 태
▁다 름이
▁내 놓고
▁현 기
▁"이 것
▁농 업
▁나무 의
▁마을 로
기 자는
름 은
▁끝 없는
▁담 을
▁토 마
▁사람들 ,
▁ 져
례 가
택 을
▁안 도
▁눈 길
▁매 년
▁순간 부터
▁긴 급
▁종교 적
▁왼 쪽으로
▁어 김없이
▁도 깨
▁성 질
시키 려고
▁가득 히
▁너희 들이
▁손님 들이
▁껴 안고
▁거침 없이
▁ 딜
자 들과
프 스키
▁그녀 에
... ?"
▁일이 었다
▁머 지
▁약 이
▁산 골
▁국 립
▁침 대로
이지 ,
▁호기 심을
▁잊어버 리고
▁샤워 를
▁가 려고
▁정 을
▁무 당
▁교 양
▁과 시
▁것일 까
▁어딘 가에
▁부 채
▁돌 리는
▁황 제는
▁사용 하고
▁까 게
▁이용 하는
▁묵 고
▁유 머
▁군 주
▁외 계
▁웃 을
▁권 위
▁공포 를
▁이 정
▁수 군
▁자 갈
▁전 신
▁부 자가
▁안 되었다.
▁이후 의
▁불빛 을
▁손수 건을
▁재능 을
▁애썼 다.
▁더군 다나
개 로
여 ?
▁숨 쉬
▁권 했다.
▁바다 의
보 아
▁주 리의
▁생각 과
▁' 여
▁메 어
▁페 니
▁직접 적인
리 안
▁그 레이
▁지 경에
▁화 살을
하자 마자
▁겪 고
통 은
▁하 려면
▁시 황
▁두 면
▁위해 ,
▁욕 설을
▁닫 았다.
▁곰곰 이
디 ,
정 보
▁대 리는
▁시 종
▁세 탁
▁유 배
▁선 진
▁반 박
▁타 락
▁백 성을
▁이리 하여
▁작용 을
당 신은
▁허 겁지
▁벌 어
▁돌아가 야
▁ 랍
거 리로
덩 이를
▁박 물
▁지하 철
▁떠오 르지
" 의
▁머 슴
▁앉 으며
▁본 래의
▁존재 로
▁"여 러
▁두드 렸다.
세 기의
▁있 느냐
▁수 잔
▁안 나
▁3 00
▁막 연한
어야 만
아가 씨
아버 지는
▁대기 하고
- 5
b e
왕 에게
▁하 라
▁대 화가
▁조 만
▁상 상을
▁들어 야
▁걸 을
▁하나 인
▁오래 도록
▁학생 들의
▁쓴 다.
데 ?
타 고
형 과
▁" 살
▁사 물을
▁않 소.
▁여 성을
▁생 선
▁눈 도
▁누 르고
▁원 인은
▁교 차
▁엄 습
▁망 쳐
▁웬 지
▁흙 을
▁자 초
▁고 향을
▁떠 서
▁빨 래
▁"어 느
들에 겐
▁"만 약
▁강 철
▁물건 들을
▁11 .
es s
따 .
버 둥
▁이 기지
▁지 났다.
▁대 면
▁바 치
▁감 염
구 니를
넓 은
목 의
뭐 .
▁주 식
▁오 이
▁죽 었다는
▁심 정으로
▁난 폭
▁이루 어졌
▁"나 를
▁익 숙한
▁위 기를
▁순 찰
▁아 카
▁남 녀의
▁진 리
() 에서
▁바라보 다가
▁나오 게
▁급 하게
겠어 요?"
▁나타나 고
▁팽 창
▁햇빛 이
▁데이빗 은
입 은
▁장 군의
▁알아 .
▁정신 은
( M
▁" 몰
▁가 마
▁지 위를
▁안 됩니다.
▁도 모
▁도 피
▁문 의
▁뒤 통
▁외 침
▁귀 엽
▁청 산
▁답 을
▁휴 식을
▁녹 색
▁동생 은
기 자
서 울
역 으로
▁다 정한
▁철 수는
▁어찌 하여
▁주저앉 아
▁돌아왔 을
▁무 례
▁제 어
▁제 사를
▁합 류
▁주 부
▁알 코
▁뒤 였다.
▁받 으면
▁갈 래
▁되었 는데
ou ld
▁상상 해
붙 였다.
▁전 한
?" 하고
▁감 행
▁임 진
▁냉 정
▁호텔 로
▁붙잡 아
▁헬 리
겠 는가.
만 으로는
들이 고
▁외 치는
▁식 량
▁선택 한
▁혹시 나
▁이 로써
▁지 윤
▁본격 적으로
월 의
쨌 든
▁바 바
▁그러 기
▁조 치를
▁비 워
▁상 체를
▁살 다
▁입 력
▁배 경
▁역 도
▁환 자는
하시 오.
▁되돌 려
앞 에
▁당 시에
▁영 문
▁재 수
▁일본 을
▁잊 은
어버 리
▁찔 렀다.
림 으로
▁광 대
▁8 .
▁펼쳐 진
▁결심 했다.
께 .
▁올 해
▁처 지에
▁볼 까
▁팔 꿈
▁올라 간
▁두려 움이
▁하필 이면
규 의
아 직
▁하 세요.
▁무 용
▁영 희는
▁등 에서
▁일이 라면
▁파 도가
▁독 서
▁헤 라
▁걱정 은
▁늦 추
거 주
관 에게
바 지
▁취 소
▁밖 에는
▁혀 가
▁구석 이
▁들어갔 다
▁오 자
▁해 주고
▁제 갈
▁의 지가
▁살 림을
▁빛 났다.
▁춤 추
형 사의
▁사 교
▁하 하
▁대 자
▁전 수
▁다음 으로
하자 고
▁지 게
▁작 가의
▁놀 아
▁환 한
▁나무 는
▁닦 고
▁햇빛 을
마 른
▁국 가를
▁개미 들은
▁만지 작
▁무 자
▁소 요
▁따 르고
▁데 까지
▁최 악의
▁갖 은
▁친구 들을
▁자동 차를
▁근처 에서
▁개념 을
거 리에
다 만
▁사 장의
▁지 를
▁대 는
▁우 수한
▁날 의
▁재 앙
▁사랑 해
▁빛 으로
시 에서
▁것이 란
▁영 토
▁양 식
▁대답 한다.
나무 를
▁사과 를
▁기원 전
대 도
뜻 을
라 ?
즈 에
▁한 계를
▁부 질
▁안 됐
▁처 해
▁상대 방이
르 렁
▁해 라.
▁제 도를
▁영 을
▁차 서
▁뭐 니
▁휘 청
스 .
프 게
▁" 화
▁전 라도
▁오 라고
▁잠 그
이라고 도
▁무엇 에
▁울 리고
▁아가 씨는
▁빵 을
▁필사 적으로
▁" 약
▁하 인
▁가 도
▁불 량
▁그것 의
▁원 고
▁원 리
▁밝 고
▁군사 들이
예 ,
▁당 당한
▁관 료
▁태 수
▁애 정을
▁필요 했다.
▁( 그
▁터 라
▁떼 어놓
▁다스 리는
▁이 다.
▁" ......
▁잠 들
▁번 호를
▁원 치
▁천 하를
▁얻 었다.
▁돼 .
거 야."
▁사 시
▁정 돈
▁번 개
▁용 이
▁아닌 지
▁십 년
▁도덕 적
랑 은
력 ,
명 ,
배 우
▁벌 이
▁차림 으로
랑 의
분 ,
책 은
품 은
할 지도
▁있 소."
▁두 드려
▁선 명하게
▁성 기
▁성 은
▁진 열
▁스 탈
▁느 릿
▁날 라
▁참 이었다.
▁밀 착
▁농 사를
▁이혼 을
▁이 인
▁후 손
▁원 로
▁쓰 이는
▁변 경
▁창 녀
▁환 호
▁사라 질
▁면 이
갔 고,
심 도
업 은
정 부
▁일 인데
▁지 경이
▁떠 는
▁여러 가지
▁멋 대로
▁전투 를
▁즐거 워
▁없 으며
▁시 신을
▁부 려
▁감 이
▁양 자
▁병 은
▁보여 준다.
▁싸움 은
▁요 동
▁허 우
▁박 억
▁로 스
▁올라 오는
▁멈 다.
▁휴 가를
▁흔들 리고
▁작품 이
▁이외 에는
▁지 연
▁부 장
▁구 려
▁베 토벤
▁탐 구
나 온
▁어 이가
▁기 침을
▁정 해진
▁안 에서는
▁우리 들을
▁성 과
▁산 산
▁궁 리
▁컴 컴
▁하마 터면
a ke
번 의
▁' 저
▁허 락을
▁야 간
▁한국 에서
re s
' 란
슬 렁
▁정 식
▁소 지
▁손 해
▁박 수
▁음 식이
▁풀 었다.
▁보내 어
하겠 다.
▁노래 는
▁브 레이
▁클 로
▁어렴 이
▁도 시에
▁했 으니
▁대답 하였다.
▁달려 들었다.
▁키 우
▁누군 가의
▁집어넣 었다.
▁" 국
▁기 묘한
▁선 두
▁반 갑게
▁날 이면
▁너희 들
▁회사 에서
▁텐 데,
▁자그 마한
거 는
되 어서
중 으로
▁신 부가
▁반 발
▁걱정 할
▁오르 내
- 7
군 으로
▁것이 지.
▁성 경
▁흔 한
▁의심 할
▁감추 지
시 시
▁흐 름을
▁고통 스러운
it y
▁미래 에
▁수 단을
▁주 재
▁파 게
▁알아 내
▁취 직
▁같아 요."
▁깔 끔
서 방
▁통 증이
▁빠 졌
▁불구 하고,
(1 8
레 는
접 한
▁차 린
▁피 에
▁군 대가
▁어디 에도
▁기다 리며
▁굳 어
▁머리카 락이
▁재촉 했다.
어 요"
▁고 소
▁세 라
▁내려 앉
▁용 맹
미 ,
방 송
월 이
▁아 아
▁기 세
▁상 자를
▁에 스
▁부탁 했다.
o k
밀 하게
▁그 렉
▁"그 야
▁노 트
▁노 력이
▁예 전의
▁축 제
▁교회 에
▁생생 하게
덕 은
▁목 사는
▁마음 과
▁버 튼을
▁산 으로
▁나오 기
▁되돌 아가
예 요
▁" 개
▁정 색을
▁1 시간
▁올 림
▁문제 도
▁덕 분
▁전 반
▁우 편
하지 요.
▁변 하는
이라 면,
▁인간 적인
▁야 만
▁응 급
▁방안 의
께 요.
렸 다고
▁주 방
▁무 모
▁무 성
▁할 까.
▁예 배
▁3 백
▁존재 할
▁있겠 는가.
▁받아들이 지
품 으로
▁우 체
▁도 구
▁손 짓을
▁예 ,
▁현 장을
▁벌 이는
▁지금까지 의
( B
겠 는가?
익 을
▁이 보다
▁사 르
▁나 하고
▁일 이나
▁영 구
▁파 헤
▁팔 자
▁체 질
▁싸 인
▁복 수를
▁가까 이에
▁쉬 는
▁스스로 가
▁전체 에
▁돋 보
열 은
▁" 종
▁여 동생
▁삼 켰다.
리 니
마 음
▁다 급하게
▁고 난
▁의 도를
▁방 한
▁성 가
▁침 실로
▁악 화
▁틀림 없는
▁뚝 뚝
▁벌거 벗은
하 십시오.
▁가 락을
▁자 격
▁마 틴
▁거 론
▁권 유
▁풍 겨
▁현실 에
▁보 답
▁생 기고
▁고 립
▁간 청
▁허 리가
▁은 은
▁테 레
▁술 은
▁얘기 하는
▁아파 트를
▁겨울 이
▁끌어안 았다.
▁시커 먼
각 의
어 떤
▁하 더군요.
▁시작 했고,
▁벌 어지는
▁병 력
▁창 의
▁되었 으니
▁있으니 ,
▁나름대로 의
미 널
입 에
▁무 뚝
▁"이 봐,
▁자네 에게
겠어 요
▁바닥 이
▁졸 라
▁"지 난
▁인정 하고
엔 가
일 도
▁이 득
▁매 력을
▁박 수를
▁3 2
▁아래 를
▁있어서 ,
▁테니까 ."
신 ,
▁한 심
▁만 류
▁간 다
▁기억 할
▁의미 는
▁소설 의
뿐 만이
사 실
습 니까."
시 대에
원 한
▁문 장
▁연 설
▁관 여
▁건 달
▁송 수
▁나왔 을
▁뼈 가
▁더더 욱
> 이
▁못 살
▁' 대
▁"그 의
▁예 사
▁완 강
▁"알 고
▁교회 의
▁일으키 고
리라고 는
t he
▁ 으면
꾸 러
▁시 코
▁생 성
▁설 정
로서 도
▁과학 의
바닥 을
▁아줌 마
궁 으로
생 긴
▁비 정
▁저 만치
▁결혼 은
▁꼼 꼼
▁말일 세.
▁자 물
▁들 린다.
▁안 정을
▁날 에
▁곳 까지
▁학 문을
▁저녁 식
나 기
바 다
순 한
어 에
▁" 문
▁하 십시오.
▁마 담
▁반 성
▁통 에
▁10 만
▁것으로 ,
▁기분 은
▁묵 은
▁썩 은
▁시 기를
▁기 습
▁소 스라
▁그런 가
▁차 원에서
▁곳 의
▁크 림
▁담 뱃
▁각 별
▁불과 했다.
▁불현 듯
m e
년 간
▁사 우
▁하 곤
▁2 만
▁행 위가
▁다음 엔
스럽 다는
▁계획 에
▁도망 쳐
▁틈 이
▁유지 하고
▁숫 자가
사 진
▁해 봤
▁편 지는
▁흔 적을
▁착 수
▁분위 기는
▁섞 어
▁찢 어
느니 라.
▁당 선
▁저 술
▁"그 걸
▁달 은
▁"아 !
수 처럼
▁오 ."
▁유 독
▁역 설
하였 을
▁테이블 에
각 에
데 ."
오 와
환 의
▁노 크
▁후 반
▁말이 다
▁땅 은
▁만들어 낸
녀석 은
▁자 욱
▁바 리
▁여자 에
▁사실 도
▁육체 적
▁응시 했다.
바 의
어 떻게
화 하는
▁내 달
▁돌아 가지
▁순 진한
▁난 데
▁사실 ,
▁"오 ,
▁상관 없이
▁부딪 쳐
▁감각 을
꾸 라
레 한
여 겨
조 와
▁가 지만
▁않 더라도
▁주 면서
▁봐 라.
▁견 해를
▁부인 과
▁측 면
▁몰아 넣
▁받아들이 고
▁사 전에
▁전 보다
▁무 르
▁팔 뚝
▁그리 로
▁꼬 리
▁등장 하는
▁본능 적으로
▁자존 심이
▁떠들 썩
' 라
▁사 전
▁상 반
▁동 물이
는데 ."
▁화 폐
▁왕 위에
en d
▁" ,
▁아 담
▁고 도
▁작 아
장이 라도
어지 면서
▁눈동 자가
노 를
비 에게
주 신
▁발 버둥
▁번 이고
▁왔 어.
▁독 점
▁숨 은
▁물러 가
색 한
올 랐
▁가 닥
▁그것 들이
▁잠 잠
▁임 광
▁쥐 었다.
▁반대 하는
▁겹 쳐
어 요!
책 에
▁가 두
▁마 라
▁의 심이
▁먹 이
▁들어가 기
▁얘기 하고
i ve
열 에
왕 과
티 스
▁상 점
▁구 먼
▁사용 하지
▁” 하고
▁쇼 핑
름 에
이 번
▁" 뭔
▁말 예요.
▁더 는
▁개 시
▁실 업
▁현 장에
▁힘 의
▁숨 어서
▁로 마의
▁사무 실에서
▁지배 하는
▁영향 력을
▁제2 의
▁ ----
간 으로
그 들은
있 지
▁대 치는
▁쓰 던
▁탐 지
▁"미 스
데 요.
미 르
▁" 몇
▁해 체
▁분 해
▁3 1
▁골 목을
▁플 래
▁힘들 게
▁슬픔 이
▁기다렸 다는
곡 의
평 을
품 의
▁가 사
▁전 망
▁학 습
▁곧 이어
▁누구 인지
( P
보 라고
세 와
혜 의
▁이 놈
▁기억 에
▁다행 이
▁않으 셨
▁허공 에
내 로
옆 에
청 의
▁시 고
▁주 리가
▁눈 의
▁미 묘한
▁발 굴
▁후 미
▁멈추 지
▁헤아 릴
▁안 절
▁두 근
▁하나 였다.
▁화 면에
▁비밀 이
르 고,
빠 진
씨 !
▁달 랐
▁피 터
▁통 찰
▁여기 에는
▁않은 가?
▁가져 야
▁러시아 의
위원 회
▁알코 올
끝 이
쳐 다보
층 에서
▁하 든
▁말 해야
▁서 재
▁공 원
▁힘 과
▁"하 하하
▁"음 ,
나 갔다.
다 니,
브 리
▁일 에는
▁안 하고
▁방 식이
▁앞 이
▁종 족
▁갈 고
▁왔 습니다."
▁터 진
▁마시 오.
▁깨어 난
▁제이크 는
▁대 여섯
▁유 성
▁선 천
▁관 해서는
▁광 범
▁세워 져
▁레이 더
▁형편 이
▁돌아다 녔
▁심부 름
단 한
언 제
▁" 니
▁바 란
▁발 에
▁사나 운
▁잠자 리를
구만 .
▁유일 하게
쉽 게
▁살 금
▁있었 으나,
▁성 질이
▁찾 으러
▁만나 기로
▁코 가
▁그대 에게
▁아테 네
했 습니다."
▁뒤 이어
▁교 향
▁박 대
거리 기
▁호텔 에서
▁치명 적인
능 이
주 에서
▁서 명
▁추 락
▁팔 려
소리 도
▁진행 되고
▁말미암 아
a w
간 다고
으로 만
▁거 행
▁도 박
▁연 인
▁관 객
▁반 은
▁있어 요
▁간 접
▁화 면을
▁술 과
▁먼 지가
▁누구 에게도
▁욕 망이
▁"우 린
▁"그렇 습니다.
▁건너 편
▁짐작 이
▁좋겠 다.
야 가
추 경
▁들 기
▁전 면
-- .
▁성 직
▁명 성을
▁박 차고
▁남자 들의
▁만나 야
▁꺼 낸
하였 으며,
▁비틀 거리며
▁있는 가를
▁피 는
▁원 한
▁백 만
▁새끼 를
▁덩어 리
」 「
▁여 진
▁' 우
▁날 고
▁황 폐
▁검 찰
▁존재 하고
▁아주머니 가
▁튀어나 온
모 도
▁자 손
▁개 별
▁스 키
▁일이 었
▁기록 이
▁호기 심이
s h
▁어 슬렁
▁자 들이
▁그녀 에게는
▁있을 까요?
▁매 장
▁인물 이었다.
▁기다리 던
먼 저
▁" 다시
▁가 해
▁알아 요.
▁끝나 지
벅 이
새 는
▁당 장에
▁1 차
▁군사 들은
▁밟 아
닥 터
단 으로
할 지
▁" 와
▁차 의
▁근 원
▁이용 한
u st
류 는
살 이를
▁이 방
▁대 구
▁아니 지
▁김 성
▁아버 지도
▁토 르는
▁납 작
▁둘째 ,
▁근본 적으로
▁명예 를
건 대
전 하는
침 한
테 는
▁있 니?
▁두 어야
▁원 하고
▁재 료
▁루 스터
▁가 이
▁동 남
▁살 인을
▁때문 이었다
▁차 창
▁배 경으로
▁채 지
▁망 원
▁만큼 의
▁ r
령 에
울 을
▁바 르게
▁물 질을
▁저 것
▁영 의
▁사람이 라
▁폭 격
▁의미 로
▁준비 하고
▁표현 하는
▁멋 지게
살 에
▁불 타는
▁몸 집이
▁게 으
▁심 문
▁뿐 이었다
▁창 가에
▁까닭 은
▁근본 적인
▁매력 적인
러 를
쯤 에
▁" 배
▁하 네.
▁수 비
▁중 세
▁집 요
▁단 어를
▁지금 껏
▁매 를
▁급 기야
▁찬 양
▁가져 오
▁쉽 다.
▁연구 에
▁양반 이
▁난처 한
i e
음 으로써
좌 는
▁있 소
▁" 돈
▁말 한다
▁보 스
▁내 주
▁연 주를
▁간 다는
▁길 가에
▁치 우고
▁채 우
▁질 주
▁삶 과
▁"그렇 지
▁흰 색
▁백성 들을
▁감각 이
▁주위 에서
급 을
났 다
력 한
정 신
크 에
▁" 할
▁시작 하자
▁자기 들이
▁길 래
▁회 피
▁믿 음을
▁쳐 들어
▁낮 에는
▁불과 하다.
▁값 이
▁딱딱 한
글 라
▁부 스
▁발 가
▁강 무
▁매 번
▁숙 인
웨 이
팔 이
▁" ....."
▁나 나
▁생 식
▁들 먹
▁되 물었다.
▁아니 기
▁외 삼촌
▁시간 이었다.
▁갈 매
▁휘 감
▁바닥 으로
▁대수 롭지
세 포
저 의
▁아니 지만,
▁작 정이
▁애 처
▁담 담
▁행동 으로
▁"네 ?"
▁걷 잡을
8 .
나 !
이 긴
중 은
▁손 상
▁구 리
▁감 사의
▁올 릴
▁까닭 을
지 기도
▁없 습니다
▁다 리는
▁들어가 게
하겠 습니다."
▁석 유
ou r
들 에서
취 가
▁" 테
▁말 했던
▁여 하
▁정 중하게
▁불 만이
▁물 로
▁세 울
▁있었 으면
▁살피 며
N A
단 말이
댄 다.
희 에게
▁사 납
▁제 압
▁깃 털
병 들은
▁나 만
▁오 던
▁경 계를
▁' 인
▁종 사
▁국 무
▁침 실
▁집어 들고
▁이외 에
반 장은
▁아 사
▁다 급한
▁오 가는
▁고 추
▁2 )
▁밤 이면
▁헤 쳐
▁하느 님의
▁수양 대
이 요,
▁오 르고
▁불 은
▁집 도
▁데 리
▁처 한
▁치 면서
▁벌 여
▁이름 과
▁다가 서
▁켜 고
▁불평 을
▁내 부에
▁사람 만
▁조 민
▁중 심을
▁그렇 지.
▁비교 해
▁덧붙 여
o g
려 다
▁돌 봐
▁피 하고
▁예 감
▁사실 대로
▁맞 장
▁이것 으로
▁불러 서
▁후에 야
적 일
층 을
하 느냐
▁두려워 하는
▁것인지 ,
? ?
는 가?"
▁발 밑
▁열 매
▁백 제
▁알아 낼
거리 에서
▁곤 란한
▁식탁 에
경 ,
번 은
복 으로
수 인
어 ...
▁" 용
▁느 긋
▁깨 물었다.
▁얘 기도
▁커 서
▁아저 씨는
건 의
보 로
▁다 비
▁발 언
▁받 으면서
▁가르 치
▁몽 롱
▁있으니까 .
▁스위 치를
아 와
연 합
▁" 관
▁오 기를
▁서 민
▁입 에서는
고는 ,
▁여성 들이
▁엉 거주
드 리고
루 스
브 를
▁이 쪽을
▁수 경
▁바 꾼
▁조 치
▁선 조
▁"아 주
▁밝 힌
▁담배 에
▁싱 글
빛 을
▁" 목
▁발 길
▁진 한
▁죽 이지
▁했 으면
▁그렇 고,
▁농 장
▁나무 로
▁아파트 에
▁앤 드
업 에
▁그 밖에
▁아 담은
▁유 사한
▁선 교
▁있다. "
▁번 이
▁빼 내
▁뒷 받침
▁입구 에서
▁의자 에서
▁아인 슈타
만 ."
액 이
▁있 느냐고
▁가 속
▁가 히
▁가 졌다.
▁노 인을
▁새 는
▁쓰 면
▁점 도
▁음 모를
되었 기
▁넣 을
▁지켜 보는
▁부엌 에서
▁메시 지를
▁눈초 리로
▁아랑곳 하지
날 에
전 자
▁것 없는
▁도 울
▁간 곡
▁화 염
▁얼어붙 은
- 6
사 장이
▁사 살
▁자 살을
▁신 세가
▁몸 도
▁이상 적인
▁놀 려
어져 서
▁빌어 먹을
� a.
▁없 지요.
▁비 명이
▁제 아
▁신 용
▁적 힌
▁그래 ."
▁채 택
▁인간 들이
▁취 했다.
▁납 득
기 면서
▁대 가로
▁미 련
▁드러 낸
▁부모 는
라구 ."
▁하시 오.
▁ 앗
극 을
리 려고
항 을
▁인 해서
▁누 런
▁처 치
▁야 생
▁젊은 이는
▁마주 쳤다.
▁낳 는
▁낳 아
▁생겨 난
▁싱 긋
▁ 얀
길 에서
따 라
▁자 진
▁장 인
▁드 라이
▁삼 가
▁돼 서
▁쓸쓸 한
▁" 위
▁말 이나
▁일 부를
▁우 르르
▁상 하
▁동 쪽으로
▁진 술
▁역 사에
▁사이 은
▁어머니 도
▁붙 들
▁기분 에
▁대학 에서
▁소설 은
네 ?
댁 의
▁어 고
▁대 우
▁통 화를
1 4
절 의
하 든
▁무 도
▁위 기에
▁' 시
▁장 소가
▁스 코
▁강 의를
▁후 원
▁버 스가
적으로 도
▁잡 으며
▁태 상
▁천 문학
▁회 원
▁트 렁
▁옳 지
▁지키 기
▁받았 을
룡 은
▁" 토
▁고 인
▁보고 도
▁합 창
▁밀 었다.
▁터 펜
▁들려 주
▁따르 면,
▁웬 만한
c m
자 처럼
지 마
파 와
혀 서
▁일 삼
▁' 제
▁영 영
▁형 을
▁외 쳐
▁혁 명의
▁낸 다.
▁고마 운
▁ 려
쳤 습니다.
칠 을
▁여 겼다.
▁위 안
▁남 성이
▁경 이
▁줄 리는
▁군 사가
▁잡 히
▁빠 르
▁베 란다
▁극 도로
▁굴 뚝
▁집안 은
▁시절 부터
▁목숨 이
다 면서
천 만
▁일 자리를
▁동 해
▁유 복
▁계 기가
▁배 웅
▁흘 리는
▁씨 를
▁전투 기
▁청년 의
된 다면
부 장이
했 소.
▁그 치
▁대 가를
이라 든가
▁임 수
E R
렁 이
우 드
초 는
▁구 경을
▁참 조
▁백 년
▁먼 지를
▁언제 까지나
▁이러 는
▁그곳 의
▁엉덩 이
▁견디 기
▁비추 어
▁아득 한
그 럼
답 니다."
사 .
신 문
줘 ."
합 니까?
▁지 방에
▁추 고
▁찾아 왔
▁올라가 서
▁따뜻 하게
귀 는
온 은
하 도
행 은
▁나는 ,
▁예 기
▁처 녀의
▁넘 긴
▁소용 돌이
a v
동 에서
이 렇게
▁사 투
▁오 너
▁건 장한
▁편 을
▁삼 켜
▁달려 온
0년 대에
▁휴 식
소리 ,
▁어지 간
▁마땅 한
" (
신 도
▁정 부를
▁세 진
▁버 림
▁박 살
▁"아 마
▁찾아 낸
▁별 의
▁나가 자
▁아끼 지
▁신경질 적으로
▁대규 모
버 릇
▁그 루
▁수 사를
▁지 독
▁주 린
리고 는
▁경 상
▁호 의
▁쓰 라
▁베 네
▁없어 져
▁내밀 어
▁입술 은
▁겉 으로는
▁엄지 손가락
직 하고
탄 의
▁소 생
▁데 이터
▁매 스
▁모두 의
▁김 옥
▁축 구
▁설명 하는
▁십 여
▁b e
s ,
▁ 낄
빛 의
오 빠
▁지 구를
▁시 기가
▁마 리아
▁거 려
▁소 령은
▁눈 여겨
▁치 유
▁변 화는
▁15 0
▁언니 의
▁아쉬 운
어 느
웠 을
체 와
▁" 교
▁아 기의
▁시 킨
▁박 은
▁지나 가고
▁야 기
▁자연 스러운
▁벌써 부터
▁탓 으로
▁샤 를
변 에
패 가
▁보 좌
▁무 가
▁손 과
▁받 았다
▁깊 어
▁사라 졌
▁봉 건
▁F O
▁재빠 르게
▁다이아 몬
그 렇게
▁자 비
▁바 다는
▁장 정
▁중얼 거리며
▁목표 로
u re
질 하는
효 가
▁향 기를
▁출 동
▁서로 에게
▁"어 제
▁잃 을
▁마시 지
▁공부 하는
om e
2 3
거 려
독 을
▁해 낼
▁손 등
▁좋 겠다고
▁행 운
▁변화 에
▁어때 ?
네 이
수 선
▁중 한
▁서 글
▁때문 이었
▁치 르고
▁법 은
an g
노 가
▁일 부분
▁물 과
▁더 미
▁입 장에
▁영 상
▁열 정
▁형 제가
▁귀 신이
▁막 강한
▁이르 게
▁오빠 의
어머니 가
▁한때 는
▁승용 차
기 둥
려 니
브 가
살 의
야 지.
언 니
▁다 고
▁대 서
▁주 말
▁부 대를
▁제 니
▁영 문을
▁강 남
▁배 의
▁처 녀는
▁잡 히지
▁천 지
▁짓 눌
▁엉 뚱
▁탐 험
▁18 8
▁" 군
▁" 옛
▁수 시로
▁않 으면서
▁인 자
▁입 김
▁매 듭
▁벌 어질
▁스스로 에게
▁늦 었
▁며느 리
동 사
모 니
▁유 쾌한
▁장 만
▁성 당
▁진 나라
▁반 도
▁반 란을
▁병 력이
▁인간 에
▁죄 악
▁전해 져
▁원래 의
균 은
글 쎄
밀 리
▁소 중히
▁발 각
▁채 고
▁변 형
▁깊 숙
▁머리 의
해지 면
▁긴장 된
가 기
대 하고
세 웠다.
▁기 차를
당 해
더 군.
서 운
탄 에
▁아 들과
▁사 위
▁지 주
▁소 모
▁경 지에
() 와
▁3 4
▁풀 을
▁조직 이
▁두리 번
▁사람 .
▁번씩 이나
▁오렌 지
▁않 으며,
▁인 연을
▁등 산
▁나타나 서
▁멍 한
▁아프 게
셨 습니다.
소 나
▁수 동
▁손 길이
▁막 는
▁오늘 이
▁슬 며
▁월 요일
▁자랑 스럽게
단 말
보 에
출 한
▁사 춘
▁나 이로
▁연 행
▁강 박
▁모습 과
▁직 장을
▁없었 으나
▁이곳 의
▁솔 직한
기 서
들 일
아 까
으 실
▁" 혜
▁거 리고
▁주 며
▁소 음
▁악 의
▁예술 가
▁가졌 던
신 에게
울 이
▁" 큰
▁시 켰
▁번 뜩
▁심 사
▁심 리적
▁초 점을
▁음 미
▁돈 의
▁아름다 움
▁멍청 한
▁기 상
▁오 싹
▁노 을
▁따 위가
▁건 가요?
▁여자 ,
▁왕 성
▁황 제가
▁빙 빙
▁숫 자
▁고민 을
▁일방 적으로
러 지게
입 니
▁수 월
▁있는 가.
▁세 자를
▁방 치
▁회 장의
▁왕 을
▁사람들에게 는
▁어지 럽게
▁나폴 레옹
모 든
이 에게
▁그 까
▁사 사
▁가 서는
▁보 란은
▁기 색을
▁생 전
▁제 비
▁유 교
▁속 속
▁발 가락
▁양 주
▁태양 의
▁아틀 란
▁무뚝 뚝
u c
러 스
▁부 임
▁인 기가
▁도 움
▁현 실로
▁천 막
▁체 육
▁봉 지
▁물러 났다.
▁군사 들을
▁태어 났다.
▁사업 에
걸 이를
끼 가
단 지
더 라고
▁마 감
▁정 비
▁주 기로
▁무 명의
▁죽 었을
▁일이 라는
▁옮 길
▁번째 로
▁인물 은
▁위협 을
▁두려움 에
임 에도
하 에서
황 의
▁모 로
▁정 적인
▁직 원이
▁골 드
▁느낌 은
▁못했 지만
▁ 뭇
린 다고
였 으며,
▁우 릴
▁허 전
▁3 3
▁극 동
▁모르겠 어.
▁멈추 어
▁판단 이
▁더러 는
▁"안녕 하
▁블라 디
군 요"
설 에
션 을
▁" 역시
▁소 린
▁생각 해야
▁남 성은
▁장 담
▁자신 만
▁또 ,
▁현 장에서
▁힘 겹게
▁리 차
▁전화 는
▁섬 에
▁그려 져
▁"좋 아
▁가 자고
▁지 긋
▁주 었던
▁우 산을
▁고 문을
▁영 적
▁분 비
▁요 약
▁치 열한
▁크 나
▁둘 을
▁활 을
▁루 카
▁현실 의
▁머물 고
▁손바닥 을
c on
굴 을
라 든가
요 ..."
저 녁
▁인 기를
▁우리 들에게
▁열 차
▁게 임을
▁넘 겼다.
▁보기 에도
▁미사 일을
▁칭찬 을
일 .
임 의
▁안 해
▁유 유
▁설 교
▁백 두
▁글 씨를
▁물러 섰다.
▁밀어 넣
▁"제 발
▁사냥 꾼
▁카메 라를
구 도
인 들과
▁' 내
▁돌아 갔
어나 는
▁계속 되고
▁결과 로
▁넘어 갈
▁유리 한
▁눈빛 은
곡 은
님 께서는
마 루
여 사는
▁시 인의
▁인간 으로
▁붙 이
▁흔 들고
▁골 치
▁뜨 거
▁데이 비
분 도
진 에
▁어 마
▁관 측
▁넓 게
▁과학 적
▁말하고 는
▁육체 적인
▁안전 하게
▁"경 찰
신 한
▁사 각
▁나 른
▁일 부가
▁비 둘
▁새 까
▁배 제
▁효 율
▁초조 한
▁ 릿
▁ 혔
그 래도
▁말 에는
▁않 다면
▁같 군요.
▁들어 온다.
▁재 주
▁힘 들었다.
▁병 원을
▁없었 다고
▁에 이다
▁뛰어 들었다.
▁당시 에는
호흡 을
I N
오 른
우 스를
▁아 찔
▁바 랍
▁발 동
▁시작 하면
▁왔 지만
▁벗 기
▁것이라고 는
서 에서
천 한
▁것 만이
▁사 유
▁말 했을
▁주 리
▁완 료
▁살아 가고
▁극 장
▁가족 들이
i v
아 이의
▁사 샤
▁자 랐
이라 기보다는
▁것도 ,
▁체 제
스럽 다.
▁지난 번
▁하 지도
▁속 한
▁누 그러
▁몸 소
▁배 로
▁편 한
▁지나 갈
▁뛰어 들
▁움켜쥐 고
▁따스 한
▁어려서 부터
군 요?
▁아 슬
▁바 실
▁천 둥
▁초 가
▁보내 지
▁벼 락
▁오페 라
드 니
변 의
손 은
▁대 장이
▁때 렸다.
▁고 을
▁알 겠습니다.
▁불 교의
▁손 자
▁차 근
▁돌아 보지
▁순 경
▁삼 는
▁휘 말
▁ 칙
▁ 요.
거 지
다 '는
순 의
좌 를
▁대 청
▁시 인이
▁서 지
▁작 게
▁만들 지
▁사내 들이
▁아닙 니다
▁됩 니다."
▁갈등 을
▁ 욱
겠 소
보 지도
▁하 자,
▁대 결
▁대 상을
▁내 키지
▁생각 하여
▁원 리를
▁허 는
▁틈 도
▁따르 지
▁ ."
나 가는
려 다가
짜 고
▁아 기는
▁예 약
▁교 실
▁뒤에 야
▁쾌 감을
▁남겨 두고
말 할
일 과
▁하 소
▁지 녔
▁대 성
▁않 지만,
▁것이 ,
하는 데,
▁오 죽
▁조 합
▁도 취
▁속 해
▁발 짝
▁하나 같이
▁면 회
▁흥분 한
▁아파트 로
▁은밀 히
작 가
▁수 업을
▁앉 을
▁뭐 든지
▁머리 와
▁덮 쳐
어놓 은
▁이끌 려
▁연결 된
비 서
유 럽
장 이었다.
▁대 나무
▁안 가
▁연 대
▁금 요일
▁숨 기
▁되었 는지
▁집어 던
▁떼 고
▁람세 스는
▁의 무를
▁입 맞춤
▁듣 던
▁임 금을
시키 려는
▁공격 해
▁떠올 리며
▁20 세기
▁우아 한
선 ,
▁" 꼭
▁마 차를
▁실 비
▁어머니 ,
▁망 가
▁이렇 다
되 며
이 어서
진 ,
츠 의
▁주 소를
▁눈 짓을
▁시 체는
▁거 기가
▁우 월
▁도 를
▁내려 오
▁황 소
▁끄 고
▁비행 기가
▁베트 남
온 을
▁이 광
▁지 갑
▁모 범
▁선 물로
▁응 용
▁분위 기에
▁기록 되어
▁버렸 다
▁돌이 켜
▁본격 적인
- 4
▁다 정하게
▁구 사
▁"그 들은
▁용 서를
▁모양 인데
▁가족 과
▁새겨 져
당 신이
보 자.
▁한 가지
▁때 마침
▁오 ?
▁오 솔
▁아니 야
▁경 례를
▁유 령
▁것을 ,
▁하지 요.
▁접 시
▁하기 야
부 인과
출 을
▁이 윤
▁내 야
▁여 직
▁오 디
▁신 통
▁허 나
▁에 로
▁행동 하는
▁휴 게
▁여겨 졌다.
▁터무니 없는
B S
▁소 크라테
▁조 수
▁두 번째
▁뒤 로는
▁태 운
▁든 든
▁소년 을
n e
알 이
▁전 까지만
▁관 하여
▁진 격
▁추 상
▁이야 기로
▁크 기의
이지 요."
▁급 격
▁가운데 는
0년 에
▁혼란 을
▁안녕 히
▁제정 신이
▁이 화
▁아 껴
▁남 학생
▁발 음
▁뒤 적
▁실 력을
▁간 다고
▁천 만
▁깊 숙한
▁북한 의
( D
당 했다.
▁사 주를
▁일 개
▁조 준
▁건 져
▁라 틴
▁쪽 의
▁번째 의
▁하더라도 ,
▁자존 심을
▁안절 부
" 에
▁ as
▁마 다
▁아니 야."
▁백 작
▁이미 지를
▁그날 의
▁여성 들은
▁새끼 가
▁매달 린
적 이라는
▁수 작
▁아니 었을
▁세 가지
▁유 부
▁열 매를
▁처 분
▁왔 었다.
▁되어 버린
▁"이 젠
▁사건 으로
▁싫 어서
▁실패 한
' s
' 도
야 를
했 으므로
▁대 할
▁고 모가
▁손 도
▁영 신은
▁감 춰
▁깨 고
주의 에
▁검 사를
▁발견 하게
▁작업 이
▁물질 이
시 니
씩 을
었 으며,
철 학
카 이
▁보 물
▁그녀 들은
▁손 길을
▁적 게
▁김 주
▁친 히
▁아닌 ,
▁좋아 할
▁견 해
▁털 이
▁떠오 른다.
▁것 조차
▁사 격
▁내 서
▁방 바닥에
▁본 부
▁최 성
▁운 전을
▁탁 월한
: 이
▁자 각
▁유 발
▁3 개월
▁짐 이
▁드러 내는
▁고통 에
▁그려 진
▁눈물 로
▁달러 를
네 시아
주 인이
초 부터
▁대 책
▁하나 밖에
▁왔 고,
▁격 렬하게
▁늙 어
입니다 "
" 를
▁ 에게
요 ..
▁" 매
▁모 방
▁전 락
▁상 한
▁입 맛을
▁성 난
▁벌 린
▁김 희
▁특 성을
▁코 스
▁끄덕 거렸다.
▁딱 한
▁기쁨 이
▁망설 이
▁아 님을
▁중 위가
▁들어 왔
▁통 하지
▁빠져나 갔다.
▁"여기 서
너 무
담 에
▁수 건을
▁드러 나는
▁패 턴
랑 한
일 곱
▁생 략
▁앉 는
▁친구 인
▁취 향
▁코 트를
▁흔들 렸다.
▁장소 로
▁무덤 을
▁말인가 ?"
나 에
▁바 야
▁부 부의
▁방법 에
▁띄 는
▁어지 럽
겨 를
시 험
했 으나,
▁있 죠.
▁하 품을
▁같 지가
▁안 쪽
▁조 약
▁의 원은
... ”
▁몇 십
▁바라 본
▁알고 는
▁뒷 걸음
▁개인 적으로
되 ,
박 혀
▁수 보
▁무 명은
▁제 의를
▁원 정
▁회 장은
들어 가는
▁충 청
▁풀 리지
▁약간 은
▁아닙 니까?"
▁동생 의
단 에서
▁않 나
▁선 사
▁후 계
▁모으 고
▁ 라는
▁ 댔다.
기 사
놓 지
로 몬
▁바 친
▁분 간
▁호 박
▁충 고를
▁술 한
▁투 명
▁읽 기
▁현실 이
▁종교 의
▁옳 다고
▁공포 의
소서 ."
u d
▁ 닷
몸 을
하 네.
▁이 어진
▁한 계가
▁알 렸다.
▁차 갑
▁벌 렁
▁찾아 왔다.
▁누구 든
▁걱정 하는
▁그들에게 는
▁서양 의
동 도
혁 명
▁대 책을
▁기 자가
▁생 기지
▁소 집
▁되 던
▁세 우는
▁저 쪽에서
▁도 사
▁없는 ,
▁누구 라도
▁거기 까지
▁어둠 에
▁조심 스레
▁쌀 을
▁노릇 이었다.
▁노려 보았다.
▁자전 거를
▁ 혔다.
▁지 식이
▁과 정에
▁왕 세
▁로 렌
▁미국 과
▁육 체가
▁북 부
▁"사 실
▁태어나 서
▁내쉬 며
▁털어놓 았다.
▁황홀 한
▁잔잔 한
보 자
▁이 산
▁대 장은
▁하나 ?
▁드 리고
▁울 면서
▁되었 는데,
▁일본 으로
▁달려 왔다.
▁재미 있게
▁이 긴
▁한 글
▁일 상적인
▁거 둔
▁빠 지고
▁에 리카
▁칼 라
▁가져 와
▁가족 은
▁불빛 에
▁지시 했다.
▁조나 단은
르 와
인 이었다.
▁소 식은
▁영 화가
▁아이 와
▁회 사가
▁사람들이 었다.
▁알았 어.
▁못했 다는
▁무릎 에
▁하였 습니다.
▁무수 히
래 .
수 사
지 마는
▁동 북
▁' 내가
▁속 마
▁따 돌
▁단 백
▁매 고
▁김 지
▁자연 을
in e
▁인물 로
▁무엇이 든지
바 가
▁아 부
▁않 습니다."
▁거 고
▁생각 나는
▁그것 과
▁강 동
▁김 씨
▁확 고
▁옷 에
▁아닙 니다."
▁싸움 에
) 도
강 은
▁전 용
▁상 속
▁코 트
▁20 여
▁내리 기
▁여름 에
▁흐느 끼
▁냉장 고
실 하게
▁" 분
▁말 았습니다.
▁거 냐?
▁주 장이
▁공 주가
▁' 성
▁열 대
인가 요?"
▁필요 하다고
▁취 하는
▁쓸 고
▁바닥 에서
▁무엇인가 가
검 사
곤 하였다.
론 과
아 비
▁전 인
▁계 산을
▁과 도
▁여러분 ,
▁마디 도
▁돌아다니 며
주 려고
▁이 원
▁사람 입니다.
▁되 자,
▁두 른
▁물 었습니다.
▁동 조
▁돌 릴
▁연 설을
▁투 표
났 을
박 하고
▁내 포
▁바 치는
▁부 사
▁안 심이
▁얼 떨
▁선 포
▁개 성
▁대답 했다
▁히 말
▁봄 에
▁눈앞 이
붙 은
탕 한
파 로
▁이 년
▁시 카
▁주 었습니다.
▁고 의
▁들어 ,
▁공 중에
▁앞 두고
▁리 처
▁고통 과
▁연구 가
▁영화 는
▁비난 을
궁 은
테 의
▁모 릅
▁방 학
▁반 해
▁데 모
▁천 장을
시키 고,
▁베 개
▁빠져 들었다.
▁나오 면서
▁운동 의
▁혁 명을
쯤 으로
▁무 방
▁안 색이
▁아니 나
▁유 방
▁죽 자
▁잘 려
▁보내 야
▁경험 한
▁불행 을
▁물질 의
▁맘 에
▁부풀 어
말 고는
▁싸 구려
▁모여 서
▁일주 일에
▁아랫 도
▁주위 에는
해 !"
혜 를
▁하 염
▁일 순
▁내 걸
▁입 구를
▁차 리
▁군 인이
▁될 까
다니 고
▁섬 을
▁S S
▁눈치 채
밀 히
심 하게
층 이
▁하 물며
▁소 프트
▁고 귀한
▁했 으며,
▁건 의
▁붙 들어
▁항 해
▁희 롱
▁두드 리는
▁견디 지
평 이
▁" 타
▁기 다.
▁전 했다.
▁장 도
▁구 절
▁했 지요.
▁실 존
▁중요 하지
▁도망 가
▁불가 피
▁"자 네가
▁닦 았다.
▁처리 할
▁관광 객
▁ 닐
기 한
▁가 정의
▁한 시
▁두 게
▁느 린
▁순 종
▁쫓 아가
▁뉴 에
▁발생 하는
사 촌
시 장
▁사 상의
▁거 요."
▁무 거워
▁차 로
▁싶 었다
▁근 로
▁헤 어
▁결과 에
▁학교 로
▁학생 들을
▁새겨 진
닿 는
드 린
▁수 소
▁차 릴
▁애 초에
어버 리는
▁됐 어.
▁오빠 를
▁군데 군데
3 1
계 와
도 덕
론 적
서 .
줄 기가
투 성이가
히 도
▁정 당한
▁들 자
▁전 력을
▁아니 예요.
▁돌 로
▁' 비
▁네 놈
▁선생 님,
▁설명 하고
▁폐 허
▁18 0
▁고려 의
▁웬 일이
▁P C
▁내보 내
▁광범 위
노 ?
일 (
푸 는
하 니,
▁기 왕
▁원 수
▁재 생
▁자기 들
▁김 상
▁왔 고
▁민 망
▁붙 어서
▁분노 와
▁헤매 고
▁누구에게 나
책 으로
▁동 그게
▁못 합니다.
▁진 실한
▁예 .
▁범 인을
▁휘 몰
▁옮 기는
▁넘어 가는
▁"좋 은
돌 을
붉 은
스 톤
양 양
지 구
▁보 태
▁다 케
▁들 떠
▁주 장은
▁장 비
▁단 계에
▁말이 지.
▁알아 냈
▁메 리
▁벼 랑
▁울타 리
▁ 쩔
▁하 녀
▁집 권
▁집 에서는
▁피 하기
▁애 들은
2 4
a f
았 어.
▁하는 가?
▁뛰어 갔다.
▁물어 볼
하거나 ,
우 에
줄 에
▁자 발
▁유 능한
▁목 사가
▁일이 란
▁재 미가
▁앞으로 의
일이 면
▁출판 사
▁죄송 합니다.
백 의
에 요?"
▁다 하고
▁대 었다.
▁많 다
▁작 가는
▁치 마를
▁추 는
▁책 상을
▁세계 적인
▁욕 심이
▁월 간지
그 리
로 만
▁부 는
▁전쟁 에서
▁떼 를
▁케 네
▁바꾸 는
▁일어났 던
▁엉거주 춤
물 도
뿐 이다.
우 에게
처 에
▁것 에는
▁고 치
▁저 와
▁방 문이
▁데 이트
▁강 연
▁먹 게
▁사라 지
▁훼릭 스의
▁공중 으로
▁하밤 을
아 슬
양 ,
오 !"
▁나 로
▁기 고
▁문 자
▁노 름
▁실 용
▁양 심
이라 곤
▁밝 히는
▁퍼 뜩
그러 운
▁음악 에
▁눈동 자를
▁투쟁 을
▁비서 실
▁히틀 러는
▁네덜 란드
감 각
▁가 공
▁문 화가
▁많 다고
▁결혼 식을
▁느끼 기
▁축 적
▁학생 은
▁호텔 을
▁캐나 다
▁" 심
▁정 문
▁주 고,
▁해 주는
▁유 래
▁열 리
▁아무 데
▁명 훈
▁배 워야
▁당신 들은
▁행 위에
▁싸 운
▁방법 도
▁을 지
▁죽음 과
▁만족 을
▁근무 하는
렌 티
▁생각 지도
▁걸 ."
▁감 미
▁순 조
▁"아 가
▁4 ,
▁이루 어질
▁괜찮 을
▁"자 네는
▁ 란
길 의
제 이
칙 한
▁일 행을
▁조 바
▁세 개의
▁신 중하게
▁구 하기
▁시작 된다.
▁간 의
▁종 범은
▁산 소
▁리 즈는
▁누구 보다
▁판 이
2 6
▁보 신
▁전 주
▁무 인
▁들어 도
▁차 원
▁분 들이
▁허 가
▁가능 할
▁고통 의
▁개의 치
▁포기 할
▁장소 에서
▁h ave
th at
라 미
아 마
주 고,
쯤 에서
▁없 으나
▁다 친
▁비 치
▁아니 할
▁피 의
▁그렇 듯
▁언제 라도
▁선택 할
▁컴퓨터 가
▁촉 촉
▁하 니,
▁결 단
▁누 릴
▁않고 도
▁좋아 한다.
▁모양 이야.
▁달려 들
▁어려 움이
▁확인 하는
▁�a� �
데 ?"
착 한
▁수 빈
▁세 자가
▁미 란
▁영 리
이나 에게
▁길 이었다.
▁로 라는
▁코 르
▁걸어 가고
시켜 서
er s
▁맥 이
▁인류 가
▁갈아입 고
▁손잡 이를
경 도
해 하며
▁저 어
▁공 평
▁분 부
▁교 무
▁벌 인
▁지나 면서
▁프 린
▁믿 음이
▁맡 긴
▁거리 면서
▁느릿 느
마 시
자 (
▁이 영
▁조 정의
▁서 부
▁막 막
▁한쪽 에
▁팬티 를
▁백화 점
5 )
능 력
되 거나
병 ,
▁수 직
▁기 는
▁날 에는
▁언 어를
▁표 준
▁최 선의
▁향 상
▁어디 까지
▁쓸 모가
▁아까 부터
▁당황 했다.
며 칠
유 .
츠 가
▁가 에
▁시 어
▁들 락
▁전 전
▁그러 시
▁조 조의
▁저 수
▁그는 ,
▁살 에
▁하나 님이
▁타 임
▁빠 짐
▁빠 지지
▁크 다.
▁압 력을
▁잎 사
▁꾸준 히
▁있 잖
▁보 라고
▁마 크
▁비 오
▁못 난
▁자신 감을
▁따 랐
▁화 끈
▁삼 천
시키 려
▁가져 갔다.
▁보기 엔
▁말했 지만
놀 이
척 의
학 적인
▁있 기에
▁내 겐
▁인 형
▁상 옥은
▁적 에
▁와 이
▁없어 졌
▁보여 줄
▁성공 할
▁목표 는
▁무릅 쓰고
나 간
▁배 심
▁김 소
▁않았 었다.
▁몰 았다.
▁대답 하는
▁덮 인
▁스트 레
겠 군.
야 에
포 에
행 에
▁두 달
▁' '
▁누 르
▁피 부가
▁떨 려
▁변 명을
▁학 자
▁혼 자가
▁가능 하다.
▁맘 대로
그렇 다면
e ar
양 과
하 느
▁" 승
▁마 리는
▁전 이
▁인 천
▁때문 이라는
▁계 략
▁본 다
▁친 절한
() .
▁산 맥
▁확 신이
▁부인 에게
▁안절부 절
▁ 듭
뜨 렸다.
책 임
▁가 파
▁말 문을
▁말 입니까?
▁기 구
▁정 사
▁부 유한
▁관 능
▁너 와
▁등 도
▁끝 도
▁끝 내는
▁느껴 진다.
▁이른 다.
▁덩어 리가
p l
▁일 가
▁만 드
▁싸 웠
▁달리 기
▁기대 할
▁내놓 았다.
망 의
무 도
▁" 왕
▁정 안
▁정 원을
▁소 문은
▁고 모
니까 !
▁예 고
▁순 서
▁그렇 듯이
▁꾸 고
스트 로
▁자랑 하는
** **
▁머금 고
▁그 렁
▁이 들에게
▁사 리
▁상 해
▁서 러
▁건 넌
▁당신 네
▁리 엄
▁생활 에서
▁있었다 ,
▁"저 ,
▁형태 가
▁바이올 린
근 의
아 침에
▁있 잖아
▁자 체의
▁눈 ,
▁신 분이
▁성 질을
▁진 단
▁심 정이
▁찾아 와서
▁왔 기
▁기회 는
▁이리 노
▁하였 으나
> 가
받 게
야 는
자 식
조 ,
▁있 사
▁거 센
▁좋 으
▁반 역
▁함 락
▁아이 도
▁글 자를
리스 토
▁방안 은
▁운동 이
▁핵 무
▁받아들 인
▁묶 인
▁이집 트의
▁내려다보 며
거 렸다
워 졌다.
▁이 명
▁거 문
▁서 정
▁권 위를
인데 .
▁스스로 도
▁조용 했다.
▁사나 이의
▁쿠데 타
▁울려퍼 졌다.
▁퉁명 스럽게
십 니다."
▁아 비
▁일 고
▁연 필
▁강 아
▁이상 하다는
▁충 혈
▁뜻 한다.
▁위해서 도
▁욕 심을
▁바꾸 었다.
▁주머니 를
▁켜 져
▁나름 의
▁공중 전화
담 배
엇 다.
▁나 쁘게
▁내 미는
이었 으므로
▁먹 고,
▁양 녕
▁김 형
▁출 세
▁않아 ."
▁중국 은
▁과학 자들은
▁굽 어
▁숫 자를
▁ 댔
트 에서
▁이 란
▁시 퍼
▁못 이
▁' 기
▁박 고
▁출 가
▁권 력의
▁말씀 하셨다.
▁쪽 지를
▁찍 혀
텐데 .
▁"모 든
▁흘러나 오는
-------------------------------- --------------------------------
▁서비 스
8 3
겠 군요.
내 게
영 에게
▁무 선
▁우 주를
▁안 다고
▁둘 의
▁믿 기
▁중국 인
▁느껴 지지
▁확인 했다.
▁낳 을
▁돌아오 면
▁화장 실에
▁팽 개
�a� �
▁이르렀 을
너 가
▁전 념
▁소 매를
▁남 기지
▁스 스
▁분 부를
▁허 게
▁잡 기
▁테 일
이다 !
▁멋 있
▁힌 두
▁내뱉 었다.
화 도
▁이 희
▁보 려는
▁쓰 며
▁힘 도
▁작품 의
▁인정 하는
▁들여다보 며
▁피곤 한
거 가
균 이
입 고
자 루
▁일 렀다.
▁입 수
▁피 했다.
▁동안 에도
▁다가 온
▁가리 켜
가 지가
다 한
분 히
▁이 치를
▁보 란
▁인 정을
▁없는 지
▁꽃 은
▁방안 에서
!! !
▁"응 .
▁쳐다 봤다.
▁아메 리카
비 하게
푸 른
▁정 인의
▁눈 만
▁피 신
▁음 모
▁활 약
▁굳 어졌다.
▁부르 지
▁상대 적으로
▁의식 은
▁무어 라고
▁말끔 히
러 지
룡 이
물 ,
밖 에도
보 이
슨 을
웅 은
자 락
▁있 으려
▁한 대
▁지 으면서
▁세 속
▁구 는
는데 요.
▁명 문
▁간 절한
▁형 님이
▁뜻 에
▁승 상
▁음악 은
▁대개 는
동 생이
진 으로
▁안 동
▁계 기로
▁요 정
▁당신 들이
▁박 상
▁알아 낸
▁깔 아
▁감사 합니다.
▁옹 호
▁다짐 을
막 에
▁가 동
▁일 꾼
▁동 이
▁열 한
▁통 나무
▁혼 돈
▁취 미
▁섬 세한
▁떨어져 서
▁억울 한
▁사람 만이
▁인 상이
▁좋 았을
▁동안 을
어가 며
▁용서 할
▁w ith
스 라는
조 판
히 기
▁있 나.
▁소 령
▁마음 에서
▁청 와
▁"저 기
▁일찍 부터
▁시험 해
▁뭉 쳐
▁친절 하게
답 이
주 에게
▁" 레
▁요 리를
▁요 컨대
▁10 시
▁능 히
▁가득 했다.
▁계곡 을
▁뚜렷 이
▁꿈꾸 는
▁허우 적
유 ,
▁나 ,
▁저 스틴
▁속 은
이었 지.
▁호 감을
▁왕 후
▁위험 에
▁마당 으로
▁이따금 씩
▁세련 된
▁아니 더라도
다고 는
▁구 상
▁아버지 ,
▁바깥 으로
▁페르 시아
더 ."
리 히
벗 고
▁" 각
▁보 병
▁우 정
▁문 서
▁뒤 엉
이나 의
▁강 아지
▁국 가가
▁5 일
▁다녀 온
▁못지 않
주 세요.
트 럭
프 라
▁이 모는
▁" 벌써
▁시 피
▁주 기도
▁더 없이
▁실 마
▁처 절한
▁현 지
▁매 컴
▁순 환
▁리 어
▁죄 다
▁하루 도
▁탐 색
▁가게 를
▁안내 했다.
▁고개 만
다 간
▁선 이
▁행 여
▁뜻 밖에
▁해서 ,
▁연구 하는
▁9 .
▁닿 았다.
▁티 셔츠
▁노려 보고
▁아뢰 었다.
▁페이시아 의
2 1
다 녀
밭 이
채 의
프 리카
▁또 렷
▁번 호
▁김 치
▁맞 춘
▁밝 혔다.
▁불안 을
▁띄 게
▁이빨 을
▁ 냄
면 은
천 왕
▁같 지만
▁생각 나
▁공 짜
▁감 당할
▁죽 어야
▁열 광
▁마음 만
▁예 요.
▁천 년
▁막 혔다.
▁광 해
▁폭 로
▁중국 에서
▁아름다 웠다.
▁응시 하고
덩 어
아 에
었 으면
▁기 름을
▁기 차가
▁두 개
▁서 쪽으로
▁유 학을
▁감 사를
▁했 으나,
▁하나 .
▁요 소가
▁사람이 란
▁박 사를
주의 가
▁정신 적으로
▁판 에
▁욕 구
▁꽃 다
▁느껴 질
▁귀찮 게
꽃 을
엘 은
지 시
짓 고
포 도
▁보 증
▁다 방
▁소 령이
▁신 라의
▁피 하는
▁있어 ?"
▁군 인들이
▁특 성
▁그리 운
▁늘 어져
▁냉 정하게
▁성격 의
▁알아차 렸다.
류지 오는
드 에게
▁그 보다는
▁하 기에
▁사람 한테
▁소 주를
▁상 이
▁감 겨
▁재 주가
▁행 방을
▁심 장을
▁벗 었다.
▁가능 성도
▁운동 에
▁닿 지
▁"처 음
본 이
장 난
택 이
▁마 중
▁중 산
▁통 로를
▁태 극
▁약 점을
▁보고 만
▁메 뉴
▁겨 드
▁갔 습니다.
▁꾸 지
▁� e
▁대학 교
▁상징 하는
해 가는
▁들 끓
▁바 위에
▁불 필
▁눈 보
▁경 감
▁유 산
▁' 소
▁영 감이
▁군 이
▁나무 들이
▁자연 과
▁9 시
▁사 자
▁편 리
▁백 병
▁없어 지고
▁얘기 했다.
▁날아 갔다.
▁해주 었다.
▁콘 크리
d on
가 에는
원 들
째 로
▁지 칭
▁바 느
▁안 이
▁찾 게
▁통 로
▁재 떨
▁병 든
시키 며
▁바다 에서
▁소설 가
▁18 6
▁분야 에서
기 처럼
던 가
▁그 애를
▁" 됐
▁하 와
▁시 장에
▁여 사
▁해 산
▁신 엽
▁경 악
▁태 연
▁남자 들
▁지나 도
▁커 다게
▁빨 개
▁사고 로
▁칠 리네
▁습 관이
▁외국 인
▁운명 에
마 차
▁자 정이
▁불 상
라고 도
▁뒤 쪽
▁김 순
▁경찰 관
▁겪 는
▁식당 에서
봉 은
크 와
▁그 치고
▁사 타
▁말 리
▁소 수
▁구 태
▁환 경에
▁자유 로
▁역사 상
p .
깜 짝
축 을
프 ,
▁다 하여
▁시 켰다.
▁공 업
▁연 유
이었 으며,
▁모두 는
▁엄 숙한
▁떠나 서
▁죽어 가는
▁신비 한
▁법칙 을
겠 습니다
▁여 름이
▁불 사
▁노 르
▁김 승
▁남자 도
이라 ,
▁철 렁
▁즉 위
▁이론 은
해지 면서
▁# 3
▁물결 이
▁어마 어
보 살
자 에서
▁아 한
▁있었 기에
▁떠 돌아
▁산 과
학교 에
▁세워 진
르 티
택 은
▁할 수록
▁붙 이는
▁한국 을
▁7 년
▁빌 리
으로서 ,
▁컴퓨터 에
▁슬픔 에
▁아주머니 는
일 지라도
▁그 네는
▁저 서
▁도 가
▁떠 맡
▁태 종은
▁아래 의
▁드러 냈다.
▁지도 자
▁맹 목
▁벗어 던
▁특징 을
▁베풀 어
비 노
▁" 들어
▁사 방
▁때 리는
▁정 령
▁장 수가
▁있었 지요.
▁발 끝
▁실 재
▁알았 는데
▁건너 가
▁도망 치
▁찰 스
▁둘러싸 인
▁개구 리
았 기
▁사 립
▁가 쁜
▁지 식의
▁시 즈
▁여 사는
▁전 멸
▁소 박한
▁열 리며
▁원 고를
▁앉 는다.
▁벌 벌
▁필 리
▁이미 지
▁누구 든지
▁병사 들을
저 가
▁일 체의
▁신 장
▁많 습니다.
▁향 수
▁메 인
▁밑 을
그러 면
▁찌 꺼
▁기술 의
▁뻗 쳐
▁끊임 없는
▁베를 린
람 쥐
야 지
었 으며
출 해
▁자 루
▁없 나
▁없 으
▁되 며
▁예 가
▁외 곽
▁막 걸
▁활 기
▁엔 진
▁ he
띠 를
버 스
씨 ."
한 ,
▁그 간
▁보 스턴
▁오 류
▁스 프
▁말이 야,
▁점 이었다.
▁레 베
▁있어서 의
▁음악 의
▁차지 하는
▁편안 히
n ow
그 만
예 요?"
▁가 문의
▁생 리
▁해 볼
▁두 르고
▁공 감
▁화 물
▁변 함이
▁터 키
▁올라 서
▁이야기 의
으니까 ."
▁요시 다는
▁수단 으로
탁 을
해 라.
▁" 폐
▁성 분
▁얼굴 ,
스럽 지
▁바람 직
▁골 고
▁불가 사의
▁깨달 음을
▁새로 이
▁값 을
까 진
드 은
섭 을
종 과
▁" 금
▁시 동을
▁조 조가
▁공 주의
▁반 지를
▁양 복을
▁패 트릭
스트 를
▁수염 이
▁오줌 을
괴 한
버 린다.
신 다면
예 가
▁너 한테
▁나타 내고
▁대답 하고
▁법 도
▁붓 을
▁퍼부 었다.
시경 (
동 과
시 에는
추 어
▁매 만
▁울 지
▁그럴 수록
▁히 고
▁내밀 며
▁하느 님
▁끈질 기게
▁것이 어서
▁시 게
▁장 작
▁김 석
▁변 하고
▁판 사
▁가능 성
▁꾸 민
▁말고 .
▁결정 하는
▁리포 니아
브 의
▁그 야
▁수 신
▁자 처
▁지 평
▁시 베
▁되 새
▁중 심이
▁강 원도
▁머 리로
▁태 조
▁아이 들도
▁한국 이
▁탄 압
▁흘러 가는
▁"뭐 라고
▁유지 할
▁쾌 락을
▁깊숙 히
> 이라는
o b
아 리를
우 리가
▁" 메
▁자 체는
▁제 인
▁신 인
▁경 기도
▁' 우리
▁적 고
▁난 리
▁병 정
▁특 이
▁폭 파
▁잃 어
▁소유 하고
▁젊은이 들이
▁원숭 이
▁조만 간
e v
레 일
▁그 놈의
▁바 랐
▁소 극
▁생각 이다.
▁비 에
▁강 대
▁풍 경을
▁만들 어서
▁지구 가
▁도시 로
▁두려워 하지
▁아슬 아슬
. (
디 .
랜 치
사 (
▁조 아
▁남 기
▁중 반
▁장 편
▁순 결
▁뿐 이다
▁모양 입니다.
▁응 ?
▁밥 이
▁철학 의
r om
▁ 꾼
겠 나?
되 기를
레 나
▁" 송
▁어 지고
▁자 국이
▁얼 버
▁살 다가
▁성 리학
▁실 력이
▁외 투를
▁편 찬
들에게 서
▁젊 었을
▁보았 으나
▁충분 했다.
▁부러 워
▁탑 승
▁달빛 이
놀 리오
대 지
몸 이
벌 의
사 기
▁그 애가
▁자 질
▁정 박
▁공 명
▁공 주를
▁발 작
▁재 가
▁합 성
on g
▁졸업 하고
▁오랑 캐
전 도
▁그 애는
▁이 층
▁가 린
▁수 원
▁정 적
▁눈 꺼
▁신 과
▁1 일의
▁싶 더니
▁이런 저런
▁침 범
▁돈 과
▁뜻 인지
▁높 였다.
▁쏟아 졌다.
▁지키 지
▁빼앗 긴
▁"응 ."
▁내부 에서
덩 이가
▁다 락
▁서 해
▁원 을
▁재 즈
▁창 가로
▁로 즈
▁접 수
▁딸 과
▁끄덕 이고
▁인도 네시아
▁멈춰 섰다.
▁여지 없이
▁가 기로
▁정 사를
▁정 부에
▁결 의
▁성 벽
▁글 자가
▁봉 쇄
▁기쁨 과
▁육체 는
▁동작 으로
꼬 가
▁무 리의
▁문 헌
▁분 쟁
▁잠 옷
▁친 밀
▁추 스
▁드나 들
▁방아 쇠를
겠 네
삼 국
술 의
쩌 면
▁들 리고
▁만 만치
▁해 명
▁달 하는
▁귀 양
▁출 산
▁없어 !
▁끼 어들
▁핑 계
▁다행히 도
▁눈부 시게
두 의
시 스코
암 의
피 트
▁고 분
▁하나 둘
▁참 았다.
▁충 격이
▁듣 고는
▁엄마 ,
▁내용 이었다.
▁덕 을
시간 은
▁날아 가는
▁만족 할
▁겨울 에
▁이론 이
란 하게
여 자가
위 에는
입 으로
짝 을
했 지요.
▁대 부
▁기 침
▁고 고
▁조 국
▁돌 파
▁새 우
▁않았 더라면
▁몰 락
▁흘 끔
▁로 이는
▁없어 ,
▁북 경
으니까 ,
▁달라 질
▁도시 에서
▁18 7
▁"뭐 ,
S A
와 .
황 은
▁생 을
▁소 득
▁시작 해
▁출 간
▁기다 리지
▁이유 에서
▁긴 장한
▁이루 어졌다.
▁능 력은
▁축 늘
▁규 모가
▁구성 된
▁두터 운
법 과
▁자 국
▁일 류
▁지 목
▁않 으시
▁것이 오."
▁진 은
▁했 다면
▁사랑 ,
▁질 문은
▁삼 았다.
▁요구 했다.
▁접근 해
▁똑똑 한
▁마사 오는
관 리
▁자 도
▁대 령은
▁부 리고
▁부 담을
▁상 사
▁결 심한
▁같은 데,
▁치 를
▁않았 으면
▁내려 가서
▁기억 은
▁옛날 부터
▁단호 한
하 죠.
▁나 돌
▁생각 하시
▁실 상
▁호 르몬
▁합 니까?
▁환 경을
▁상태 는
▁에워 싸
기 였다.
단 계
는데 요."
▁무엇 일까?
▁왕 실
▁늘 어진
▁캐 서
바 는
바 를
▁집 무
▁건 가
▁프 라
▁터 널
▁다니 면서
▁정리 해
▁가로막 았다.
장 까지
▁있 으나,
에게 ,
▁불 확
▁유 엔
▁배 웠다.
▁버 드
▁막 히
▁확 인을
▁레 닌
▁들려 오고
▁결과 ,
▁가정 에서
▁안내 를
▁늘어 선
▁않으 려는
o od
었 지요.
읍 니다
자 리에서
▁사 슬
▁지 르는
▁것이 야.
▁생각 했을
▁되어 도
▁글 은
▁결과 적으로
▁플 레
▁기어 이
▁짚 어
5 ,
받 기
창 에
톤 의
▁사 이는
▁한 은
▁신 데
▁지나 치
▁가운데 에
▁나아 갔다.
▁수수께 끼
몬 은
▁" 적
▁모 호
▁그래 ?"
▁2 학년
▁5 6
▁금 발
주의 는
▁10 3
▁악 마의
▁쪽 은
멀 리
현 실
▁자 문
▁감 쪽
▁새 도
▁친 근
▁최 선
▁독 신
▁전에 ,
▁꾸 벅
▁품 은
is h
▁기쁨 에
▁고속 도로
▁흉내 를
▁철민 이는
갔 고
▁수 로
하게 .
▁개 미는
▁내려 갈
▁중국 을
▁휘 날
▁자세 가
▁"사 랑
▁끈 을
▁뼈 를
꼬 리를
선 수
▁사 방에
▁우 정을
▁몸 서
▁단 일
▁시작 했을
▁존 경을
▁망 명
▁학교 의
▁찌 르는
▁아닙 니까.
▁뻔 했
▁셋 이
8 0
기 자가
저 으며
▁개 미가
▁군 복
▁끝 마
▁필 시
▁독 한
▁정신 분
▁엄마 와
▁잡아 먹
▁다르 지
▁포기 하지
▁임금 은
달 의
대 신
득 한
소 !
▁말 야
▁바 르고
▁우리 에게는
▁문 질러
▁선 명
▁아무 나
▁간 첩
▁질 이
▁알아 보지
▁만들어 야
▁고통 은
▁곤 혹
▁압 록
▁다르 다는
였 으며
치 에서
허 는
▁이 모
▁여 전
▁거 래를
▁무 영
▁영 적인
▁건 방
▁허 구
▁난 감
▁평 가를
▁준 다
▁되는 지
▁헌 데
▁기능 이
▁기준 으로
▁모험 을
들 짝
▁차 렸다.
▁길 들여
▁학 살
▁계속 해
▁뭐 ,
▁선택 의
▁고맙 다는
▁허둥 지
센 트
▁어 져
▁전 하고
▁오 백
▁오 케
▁부 시
▁비 굴
▁중 년의
▁작 가가
▁보고 했다.
▁옷 깃
▁엘 렌
▁짐작 하고
▁밀어 붙
( 6
군 요,
여 ."
▁사 탕
▁사 악한
▁보 였던
▁내 놓은
▁마 워
▁여 대
▁여 사가
▁부 유
▁위 반
▁유 용
▁누 비
▁재 배
▁최 신
▁민 첩
▁"당 신의
▁욕망 의
본 부
웃 고
▁" 간
▁대 우를
▁생각 되
▁개 화
▁놓 았던
▁짐승 의
곳 을
관 계가
도 하고
인 이나
조 금
▁하 기는
▁정 진
▁미 경은
▁유 니
▁유 형
▁박 아
▁보고 서를
▁왕 위를
!! !!
▁들어갔 을
▁체험 을
▁지났 을
날 은
놓 고는
▁조 소
▁스 미
▁강 하고
▁후 한
▁종 이에
▁웃 었다
▁편 견
▁좀 해
▁윤 리
입니다 !
▁민족 이
▁절망 적인
당 과
였 으므로
▁유 가
▁건 가?"
▁얼굴 만
▁화 산
▁않았 나
▁맥 아
▁파악 하고
▁텔레비 전을
아 들
웠 지만
이 지만,
카 드
▁것이 지만,
▁것이 니,
▁부 각
▁눈 살을
▁방 출
▁결 단을
▁성 욕
▁개 최
▁후 면
▁예 쁘게
▁카 지
▁달려 오는
▁섬 세
▁물건 은
▁반응 은
▁맞은 편
▁험 한
▁브라 운
) 이라는
거 렸
계 집
버 를
▁사 찰
▁가 상
▁재 판을
▁군 대는
▁김 도
▁갈 기
▁깨 진
▁돈 에
▁키 우는
▁나타나 기
▁아들 인
▁보통 의
▁기막 힌
▁그 윽
▁" 집
▁같 고,
▁알 면서
▁방 영
▁영 희가
▁후 가
▁후 들
▁본 토
▁사랑 했던
▁빈 곤
▁걱정 스러운
▁s p
께 ."
화 하고
▁그 릴
▁" 흠
▁사 방에서
▁일 인가
▁선 한
▁심 호흡을
▁않고 서는
▁찾아 가서
▁버려 진
▁ ......."
탈 을
▁한 양
▁모 색
▁하나 에
▁명 훈이
▁합 법
▁총 에
-1 9
노 라면
원 들에게
▁지 만
▁모 서
▁같 던
▁신 에게
▁하나 라도
▁예 견
▁치 열
▁타 이를
▁별 을
▁쳐 들고
▁숲 으로
▁며칠 이
구려 .
▁작업 에
▁박정 희
> 라고
▁ n
▁비 위를
▁따 서
▁진 료
▁예 뻐
▁있어 요?"
▁떠 도는
▁사람이 라도
▁중얼 거리
▁"만 일
격 은
니 라.
되 도록
▁사 상은
▁소 방
▁되 뇌
▁신 지
▁성 숙한
▁온 다
▁양 식을
▁애 착
▁막 힐
▁민 감한
▁용 감한
▁찢 어진
▁턱 이
▁처녀 를
▁스트 레스를
▁침착 한
▁무게 를
▁ 슨은
라 기보다는
비 스
험 한
▁기 르는
▁바 위를
▁남 산
▁동 포
▁신 임
▁계 약을
▁예 리한
▁지금 에
▁숨 길
▁빈 번
▁어둠 의
▁교육 의
▁같았 습니다.
장 님이
▁수 류
▁주 된
▁알 다시피
▁선 호
하지 ?
▁커 녕
로부터 의
▁스승 의
짜고 짜
▁소프트 웨
눈 에
더 라는
만 약
할 수록
▁보 듯
▁강 수
▁청 바
▁야 마
▁능 가
▁비슷 하게
▁24 시간
독 이
증 의
하 느라고
▁가 다
▁대 개의
▁들 렸
▁당 장이라도
▁방 패
▁번 번이
▁그래 야만
▁말이 야?
▁넘 길
▁머리 에서
▁접 시를
▁30 대
▁마음 먹었다.
▁번 해
▁참 다운
▁김 재
▁충 실한
▁레 오
▁그림 은
▁분노 로
▁철학 을
1 3
류 에
월 을
하 다니
▁" 귀
▁아 치
▁한 일
▁안 현
▁' 부
▁등 ,
▁천 진
▁웃 기
▁식 사가
▁회 사는
▁출 장
▁잃 는
▁다름 없
▁유태 인
래 ?"
론 하고
소 리로
진 다
▁말 끝을
▁한 을
▁거 스
▁소 재
▁알 리고
▁여자 라는
▁과 장이
▁치 른
▁"아 빠
▁속으로 는
▁부모 님이
▁쓰다듬 었다.
떨 어진
▁" 열
▁나 으리
▁없 소."
▁전 통을
▁공 자
▁창 문으로
▁철 민은
▁마시 면
▁주변 에서
▁괴로 움을
▁자존 심
으 세요.
적 도
▁이 봉
▁가 릴
▁가 고,
▁보 호를
▁상 념
▁유 아
▁진 학
▁행 성
▁치 르
▁맞 으며
▁모습 의
▁바라 지
▁귀 퉁
▁바람 직한
▁가족 들은
▁못했 기
▁태양 을
7 )
갑 니다.
죄 로
째 ,
▁대 화는
▁들 으니
▁동 거
부터 가
▁날 씨는
▁정도 에
▁백 과
▁밑 의
▁브 루
▁자동 차가
▁생긴 다.
▁허벅 지
▁튼튼 한
▁느릿느 릿
였 지.
함 도
혔 던
▁있 잖아.
▁지 현
▁무 참
▁그렇 다는
▁타 격을
▁놈 들을
▁꿈 의
겠어 ?"
▁정치 적인
▁무서 워서
( G
급 의
▁남 규
▁때문 인
되었 으며,
▁학생 들에게
▁조심 해야
해지 자
▁"여보 ,
▁한밤 중에
밤 의
▁그 로서는
▁부 담이
▁생각 이나
▁중 화
▁공 유
▁자신 들을
▁분 개
▁교 묘하게
▁위해 선
▁테 고
▁제자 리에
▁주인공 이
▁파묻 혀
( I
▁ ----------------
겼 던
여 자는
율 은
지 은
▁이 순
▁이 기는
▁" 생각
▁있어 !
▁잡 힐
▁없다. "
▁흐 르
▁그대로 의
▁논 문
▁하루 의
▁학생 들
▁12 .
▁청년 을
▁찌푸 리며
혔 다
▁주 셔서
▁지금 처럼
▁타 입
▁혼 합
▁북 극
▁자세 하게
▁플 렉
▁"뭐 가
▁-- -
▁회의 가
▁가로막 고
겠 네."
면 도
세 대
증 으로
▁다 급
▁한 방
▁해 준다.
▁방 에는
▁매 어
▁순 례
▁공격 에
▁사고 의
▁"왜 ?"
▁왼 손
▁구석 에서
▁썩 어
▁늦게 까지
▁접촉 을
▁우습 게
만 히
색 과
욱 이
웠 고
▁" 술
▁보 더라도
▁우 렁
▁부 조
▁고 진
▁강 이
▁배 출
▁재 미를
▁허 름한
▁소리 만
▁넘 었다.
▁의미 의
▁주장 하고
▁시끄러 운
레 에
시 하고
쓰 는
통 신
▁오 실
▁고 구
▁' 도
▁돌아 보고
▁원 효
▁박 쥐
▁국 왕
▁확 고한
▁근 사한
▁커 튼을
▁헤 어질
▁쓰러 질
▁올라가 면
▁궁금 했다.
▁근거 가
웠 고,
피 에
▁고 모는
▁단 독
▁날 렸다.
▁배 설
▁천 하에
▁막 무가
▁승 진
▁하여 도
으로부터 의
▁보였 고,
▁우리나라 의
▁적합 한
8 )
납 니다.
너 에게
색 ,
진 다는
▁이 르고
▁어 수선
▁있는 지,
▁그러 기에
▁중 전
▁발 해
▁열 기가
▁까 딱
▁뒷 골
▁행복 의
▁그랬 을
▁깜 깜
▁선택 을
▁노력 하는
▁테니까 요.
기 침을
전 화를
평 의
▁가 운을
▁우 르
▁표 를
▁난 생
▁절 제
▁싸 고
▁괴 상한
▁"뭐 라구
▁소녀 를
관 인
리 듯
붙 어
자 연
찬 을
▁그 칠
▁어 설
▁지 방에서
▁들 판
▁부 흥
▁되 므로
▁고 선
▁손 질
▁구 요.
▁앞 까지
▁게 을
▁과 정은
▁앉 았던
▁타 당
▁필 자는
▁"아 .
▁흘 린
▁쓸 려
▁뿌 리가
▁들어오 면
▁"좋 아.
▁있으리 라고
▁끼어 들었다.
▁흐트 러
▁일찌 감치
동 ,
중 국
프 스
▁수 표
▁말 인
▁내 시
▁고 사
▁알 라
▁안 방
▁동 그
▁' 유
▁가슴 에서
▁유지 하는
▁"좋 아,
꾼 은
▁기 른
▁정 휴
▁조 기
▁죽 었다고
▁잠 도
▁초 기의
▁6 개월
▁월 남
▁전투 에서
▁"아무 래도
▁지저 분한
▁히말 라야
다 와
망 할
사 단
오 에게
이 니까
▁자 못
▁보 건
▁선 량한
▁단 련
▁단 절
▁나가 게
▁마시 면서
▁현실 적인
▁측 근
▁나선 다.
개 미
합 시다.
회 ,
▁지 름
▁여 부를
▁정 재
▁되 지.
▁아니 한
에는 ,
▁도 리를
▁재 주를
▁그렇 지가
▁산 다.
▁뒷 좌
▁측 면에서
▁포기 한
▁끈 적
전 기
제 목
▁사 절
▁때 와는
▁소 개를
▁속 히
▁그렇게 까지
▁될 까?
▁없었 으므로
▁순간 의
▁다가 가서
▁운동 은
▁가게 에
▁어른 들이
▁크리 스는
▁숨겨 져
▁기다렸 다가
▁명백 한
▁머리칼 을
! ”
의 는
창 으로
▁우 주가
▁알 콜
▁신 부의
▁군 대에
▁사랑 한다는
▁높 게
▁"어 ,
▁경찰 을
▁의식 하지
▁다녀 오
▁아줌 마가
노 인은
누 이
다 음
실 에는
▁아 드
▁한 단
▁무 심히
▁고 지
▁살 핀
▁장 마
▁강 사
▁3 만
▁음 이
▁철 도
▁그때 가
▁법 정
▁맡 게
▁십 상
▁해주 지
▁가을 이
▁것인 지를
▁예민 한
▁죠나 단은
봐 도
뼈 가
쇠 가
시 마
영 이가
▁아 세요?
▁나 르는
▁어 르
▁다 카
▁대 사는
▁생각 하자
▁두 한
▁경 솔
▁시간 ,
▁쓰 인
▁기다 란
▁황 종
▁석 달
▁지난 해
▁뉴 스를
▁흔적 도
고 기
버 드
▁시 일
▁기 댄
▁들 린
▁연 료
▁파 리의
인지 라
▁거예 요?"
▁보이 기도
▁덕 에
▁전투 가
▁전부 였다.
▁있으리 라
세 자는
역 은
짓 말
▁전 원
▁부 대가
▁당 나
▁잡 으려고
▁갈 거
▁운 명은
▁관계 의
십시 오,
▁털 고
▁초조 하게
▁미소지 었다.
여 보
온 의
▁실 정
▁군 을
▁최 면
▁환 상을
▁마침 내는
▁주인 에게
▁전화번 호
w as
나 보다
망 에
씬 한
▁수 년
▁말 게.
▁없 군요.
▁만 세
▁안 전을
▁' 동
▁절 정에
▁되었 으며,
▁올라 왔다.
▁미국 을
▁가르 치고
▁시절 이
▁맞은 편에
▁공동 체
▁알아듣 지
쥐 고
해 졌다
▁자 금을
▁정 수
▁인 력
▁간 판
▁그리 스의
▁놈 덜
▁총 이
▁사회 적인
▁낭 패
▁겪 어
▁않았던 가.
▁몰랐 던
▁망설 였다.
▁무어 라
쇼 .
졌 지만
틀 림
▁있 음이
▁안 드레
▁노 파는
▁성 인이
▁감 을
▁하나 이다.
▁사랑 한
▁최 후
이라 며
▁숨 막
▁체 제를
▁빛 은
▁사용 하여
▁흥 건
▁11 시
▁미친 듯이
▁수준 을
▁제공 하는
▁균 형
e )
갔 다는
녀 와
밭 에서
선 배
측 의
크 ,
▁" 있
▁모 았다.
▁상 주
▁시작 해서
▁힘 주어
▁궁 전
▁잊 어버린
하였 는데,
▁싫 다고
▁젖 혀
▁가로 저었다.
▁어울 릴
( L
작 용
▁알 파
▁친 다.
▁충 성을
▁광 고를
▁투 항
▁조용 하고
▁20 대
▁거두 었다.
▁엘리베이터 를
▁공손 히
▁지루 한
▁휘몰 아
r y
▁지 갑을
▁시 다."
▁위 성
▁불 면
▁유 비는
▁진 찰
▁재 단
▁김 병
▁준 은
▁믿 게
▁에 세
▁궁 리를
▁못한 다고
▁마을 이
▁보낸 다.
▁살피 는
▁은행 에
▁계집 애
▁싱싱 한
가 던
래 요.
액 의
커 니
희 도
▁기 인
▁들 면서
▁전 속
▁조 정에
▁상 급
▁도 움으로
▁발 목을
▁잠 자는
▁가지 런히
▁채 널
▁학 원
▁민 중의
▁뭐 하는
▁옷 도
▁베 고
▁이루 어지지
▁정치 에
▁트 라비
▁"왜 ?
▁S t
▁말한 다면
▁땀 으로
▁감추 어
▁개념 이
▁시내 를
▁포도 주
그 를
처 에서
▁한 준
▁내 년
▁우 연한
▁생각 했습니다.
▁신 호가
▁않는 가.
▁타 오르는
▁확 산
▁걸어 왔다.
▁다만 ,
▁녀석 을
▁개인 적
▁의견 에
▁물질 적
▁�� �
▁거울 에
▁이때 부터
▁극단 적인
래 요?
▁사 상이
▁나 리
▁전 신을
▁물 체
▁방 해가
▁구 걸
▁놓 는다.
▁별 안
▁( 주
▁존재 에
▁하겠 습니다."
▁땀 에
▁모여 들었다.
▁찢 겨
▁"아무 리
▁무관 심
▁링 컨
너 도
창 은
쾌 하게
토 리
▁모 진
▁기 마
▁거 두고
▁방 의
▁버 는
▁창 문이
▁왔 는데,
▁짐 은
▁맞추 었다.
▁수첩 을
민 과
전 문
직 히
하 야
홍 이
▁다 구
▁다 짜고짜
▁대 어
▁시 치
▁위 인
▁지금 ,
▁행 진
▁앉 혀
▁외 투
▁되었 지만
▁보이 던
▁크리스 틴은
▁살해 한
▁태평 양
변 호
영 화
▁무 성한
▁남 겼다.
▁본 질을
▁가지고 는
▁꿈 에서
▁"나 의
▁20 일
▁문화 는
▁부지 런
▁구태 여
▁ 롱
미 안
좌 의
▁" 놀
▁바 삐
▁' 불
▁싶 지도
▁먹 구
▁말씀 드릴
▁꿈 도
▁중국 이
▁같아 ."
▁훌륭 하게
▁안돼 !
▁빠져나 온
▁온몸 으로
▁골목 으로
▁늘어놓 았다.
▁"감 사
▁예기 치
대 던
리 기도
메 리카
일 시
▁있 읍니다.
▁이 한
▁모 텔
▁시 큰
▁원 수를
▁재 상
▁재 산이
▁드 백
▁귀 찮은
▁평 소의
▁노력 했다.
▁달아 났다.
▁진짜 로
▁시내 로
▁고구려 의
▁모자 라
게 요."
하 군요.
한 국
▁전 을
▁소 원을
▁감 안
▁단 속
▁잡 히는
이었 으며
▁페 이지
▁도시 가
▁호텔 의
▁지켜보 던
강 에
봉 의
적 이지
▁소 수의
▁부 녀
▁유 민
▁걸 세."
▁감 자
▁친구 도
▁토 미는
나라 가
▁있어야 만
▁쌍 둥이
ec t
리 즈
망 은
민 족
수 라
▁나 위
▁나 혼자
▁대 들
▁주 권
▁공 략
▁사랑 하게
▁남자 였다.
▁바라보 았다
▁말씀 하신
▁메 아리
▁이곳 이
▁"알 겠습니다.
▁갑작 스럽게
▁우러 러
▁목덜 미를
생 물
예 의
차 근
▁" 광
▁가 셨
▁말 구
▁전 율
▁미 지의
▁당 의
▁때문 이야.
▁잠 복
▁끝 장
▁치 면
▁애 정이
▁침 대를
▁── ─
▁아닐 까요?
▁낳 았다.
▁종교 를
▁생각했 기
▁논쟁 을
끼 리의
졌 기
▁주 전
▁눈 시
▁시작 하면서
▁시작 했고
▁점 잖은
▁"아 ...
▁금 이
▁않은 가
▁미국 인
▁휘 어
ou s
▁죽음 으로
▁뻗 은
▁가리키 고
▁ ()
보 험
성 이나
세 요!"
중 에도
층 은
튼 은
▁시 사
▁1 일
▁성 사
▁없었 다면
▁금 새
▁희 고
▁다가 섰다.
▁만들어 내는
▁맡 을
▁모르겠 다는
▁겨울 을
▁뚜렷 하게
▁떨어뜨 렸다.
▁달라붙 어
고 속
월 은
주 자
출 이
▁사 물의
▁한 해
▁들 면,
▁주 원
▁간 파
▁먹 어도
▁흔 드는
▁존재 한다는
▁둘러 보며
or k
▁클레 오
▁근육 이
=-=-=-=- =-=-=-=-
날 ,
반 장이
삼 은
요 ......
했 더니
했 어요."
▁" 준
▁지 상의
▁오 해를
▁신 고를
▁분 들
▁강 지
▁번 거
▁화 합
▁타 인의
▁변 변
▁울 리며
▁이루 어지
▁답 변
▁손바닥 에
▁손아 귀에
▁낄 낄
o ok
등 록
호 에게
▁" 곧
▁것 에서
▁대 감
▁대 위의
▁정 의를
▁경 직
▁등 지고
▁그래 요,
▁3 학년
▁뛰 기
▁나서 도
▁떠나 게
으니까 요."
▁어쩌 다가
an y
▁씨 익
▁났 을
▁떠오 르
모 토
스 름한
▁" 루
▁사 신
▁해 봐야
▁성 장을
▁성 과를
하기 보다는
▁태 연하게
▁빛 나
▁페 인
▁냉 정한
▁업 무를
▁경제 적인
or d
▁버렸 을
▁ 낌
도 .
도 시
좌 가
하 단
▁말 .
▁없 으므로
▁않 습니까?"
▁불 로
▁처 지를
▁파 리에
▁먹 으면서
▁크 기
▁찾아 간
▁청 소를
▁울 기
▁되어 ,
하였 다는
▁있겠 지만,
▁아름다 워
스트 가
▁설명 한
▁근거 를
빛 은
▁내 말
▁잘 하고
▁박 혜
▁김 을
▁복 숭
▁"어 쨌든
▁방법 이다.
▁뜨 는
▁호흡 이
▁아르바 이트
모 두
언 은
해 요,
▁수 배
▁거 지?"
▁' 사랑
▁모르 기
▁뜻 :
▁희 수는
▁망 각
스트 는
▁덕 택
▁즐거 움
▁스승 이
▁드라 마
▁곳곳 에서
▁블라디 미르
I I
▁ 겐
하 군.
흐 로
▁" 헤
▁사 비
▁자 수
▁정 면
▁영 역을
▁원 장은
▁시작 되고
▁채 웠다.
▁참 기
▁바람 의
▁악 물고
▁폭 포
en ce
▁온몸 의
( N
사 전
평 생
▁나 흘
▁나 처럼
▁경 복
▁가지 지
▁추 세
▁절 규
▁페 리
▁닿 아
▁튀어나 왔다.
섰 다
줄 기를
즉 ,
▁나 야
▁영 락
▁차 분한
▁분 산
▁재 현
▁형 상을
▁김 인
▁술 병을
▁로 버
▁희 생을
he n
▁중심 의
▁보살 펴
( 주
풀 을
▁" 못
▁가 정이
▁보 기가
▁내 비
▁기 와
▁주 소
▁부 적
▁부 렸다.
▁안 할
▁미 니
▁미 간을
▁살 롱
▁할 리
▁감 기
▁무엇 으로
▁얼마 간
▁계속 하고
▁복 합
▁바람 과
▁벽 이
▁"우 선
▁건너 다
▁그녀에게 서
달러 를
▁빙긋 이
나 나
보 던
▁지 이를
▁정 인
▁거 에요.
▁주 선
▁소 를
▁진 의
▁박 원
▁설 탕
▁네 모
▁갖 춰
▁나라 에서는
▁"그래 요?
▁가져 올
▁알았 다
▁뿌 리는
▁낭 월
▁공포 가
▁마이크 로
▁부동 산
사 라는
어 "
역 주
웠 습니다.
저 도
틈 으로
▁전 도
▁고 만
▁세 수를
▁강 성
▁적 었다.
▁통 증을
▁화 난
▁"아 아
▁충 만
스트 의
▁기껏 해야
▁일깨 워
? '
주 곡
▁" 외
▁시 합
▁바 는
▁아니 니까
▁아니 지.
▁장 본
▁집 과
▁새 들이
▁행 운을
▁산 에서
▁6 년
▁밑 에는
▁� e�
▁손가락 에
▁여태 껏
~ "
했 음을
▁" 필
▁일 종
▁지 지를
▁모 닥
▁주 력
▁무 안
▁저 래
▁단 조
▁위해서 라도
▁봐 요."
▁빈 민
▁"뭐 야?
▁철학 적
▁중앙 에
▁맞장 구를
던 가.
혁 을
혼 이
▁" 순
▁보 트
▁다 할
▁시 비
▁알 지도
▁공 민
▁아무 에게도
▁예 의를
▁산 책을
▁( 2)
▁중요 하게
▁넣 는다.
▁벽 난
그러 면서
▁것이다 !
▁20 분
▁비교 할
▁바뀌 는
▁잇 지
▁마당 을
▁지옥 의
광 의
뜨 려
랜 드의
리 즘
▁어 둑
▁하는 가
▁간 간이
▁화 약
▁형 제는
▁난 장
▁추 종
▁식 구가
▁커 져
▁생각해 요.
▁아내 로
▁트 로
ou g
▁나이 든
▁종교 적인
▁됩 니다
▁강력 하게
▁염려 가
▁예측 할
▁패러 다
냈 을
여 진
▁어 투
▁생 전에
▁후 세
▁3 7
▁소리 치며
▁병사 들의
▁섭 취
▁카이 사
3 5
▁있 으시
▁어 금
▁소 중하게
▁오 니
▁물 체가
▁미 남
▁있었 소.
▁강 구
▁곳 ,
▁봐 주
▁칼 은
▁해결 해
▁블 홀
▁가라앉 아
▁제공 해
가 을
탁 한
▁" 절
▁기 세로
▁우 유를
▁입 각
▁매 니
▁허 정
▁사실 로
▁찾아 올
▁찾아 냈다.
▁곧 이
▁복 도로
▁취 임
▁마을 은
▁주먹 이
▁결론 이
▁"요 즘
▁일그러 진
▁신념 을
▁옥수 수
공 으로
안 녕
▁문 에
▁건 성으로
!" 이
▁넘 도록
▁느꼈 다
▁목표 가
▁독립 을
▁저항 을
밖 의
▁내 몰
▁기 자들이
▁거 인
▁주 어서
▁오 대
▁비 아
▁관 통
▁일이 다
▁본 다는
▁추 기
▁막 론하고
▁왕 성한
▁폭 탄을
잖아 ?"
▁할머니 를
▁헤아 려
l l
로 니
였 는지
하 와
하 라!
▁기 간이
▁해 병
▁신 나게
▁' 천
▁필요 하다는
▁이루 었다.
되었 지만
▁거기 엔
▁무렵 이었다.
▁식구 들이
▁프란 시스코
▁ 처럼
원 인
자 료
장 치
준 다고
▁아 미
▁소 름
▁되 며,
▁죽 였다.
▁채 용
▁시간 이나
▁내려 간
▁좋아 ,
▁10 일
▁8 년
▁정보 는
▁햇 살을
▁자체 에
▁눈동 자
▁애쓰 는
도 다.
애 와
▁기 우
▁부 상을
▁동 그라
▁문 명을
▁명 분
▁재 난
▁병 신
▁청 구
▁부르 기
▁찌 르
▁뚫 린
▁C D
▁활동 에
▁증명 해
▁심정 이었다.
들 었던
야 마
찮 게
턱 을
▁고 로
▁아니 했다.
▁발 레
▁스 는
▁열 여섯
▁길 이가
▁타 지
잖아 도
▁준비 한
▁옮 겼
▁알았 을
▁보아 서
▁짜 증이
▁흥분 이
▁웃음 소리가
▁싸움 에서
▁춘 추
▁뚱 뚱
( E
관 도
목 에서
▁사 려
▁한 들
▁시 장을
▁마 찰
▁할 지도
▁"그 거
▁따 가
▁단 다.
▁사람이 야.
▁난 쟁이
▁호 들
▁쓰 면서
했다 ,
▁어렵 다는
▁실패 로
▁대꾸 도
▁수준 의
틀 을
▁" 빌
▁가 루
▁부 쩍
▁아니 야,
▁세 개
▁돌 격
▁결 여
▁뒤 쪽으로
▁스 님을
▁명 중
▁매 복
▁군 대의
▁놓 고,
▁시간 쯤
▁병 사가
▁몇 분
▁일어나 기
▁상황 이었다.
▁꼬 치
▁틀림 이
▁얻어 맞은
▁지혜 가
▁문학 의
▁입장 에서는
▁사항 을
▁마누 라
▁스크 린
필 이
행 으로
▁" 눈
▁말 까
▁자 백
▁주 입
▁동 부
▁신 민
▁아버 님
▁넘 기고
▁터 미널
▁중요 성을
▁사내 에게
▁"너 ,
▁나이 도
▁쇠 약
▁정리 하고
▁사태 에
▁누군가 에게
▁"말 씀
너 희
마 워
삐 를
에 의
조 직
죄 가
▁있 네
▁" 농
▁다 람쥐
▁기 계를
▁거 대
▁진 우의
▁단 언
▁떠 받
▁심 판
▁형 식으로
▁어떻 든
하였 다고
▁자유 와
▁행복 이
▁이르 면
▁펜 을
▁날짜 를
▁지저 분
▁말 ,
▁해 는
▁공 교
▁공 간에
▁선 동
▁작 년에
▁군 수
▁호 응
▁변 할
▁크 라
▁찾아 가는
▁민 병
▁독 수
▁보이 면
▁맛 있게
▁버렸 습니다.
겠 지요?
놓 아
도 도
씨 에
탄 은
▁아 바
▁고 도의
▁제 5
▁아니 오?
▁공 양
▁선 희는
▁돌아 보니
▁원 피
▁요 한
▁세상 으로
▁결국 에는
▁덕 이
▁"지금 은
▁최근 의
▁벤 치에
▁꼭대 기에
( 그
걸 은
배 에
▁다 수의
▁때 보다도
▁기 동
▁해 상
▁신 들의
▁신 체의
▁1 분
▁유 한
▁관 장
▁반 면,
▁적 막
▁하고 .
▁산 악
▁은 퇴
▁뿐 이라고
▁갖 는다.
▁없어 졌다.
▁축 소
▁맺 힌
▁테이 프
로 에서
예 는
편 은
▁전 남
▁세 금
▁경 보
▁구 워
▁결 정한
▁새 를
▁허 술
▁박 현
▁아이 고
▁쓸 한
▁맡 길
▁빌 었다.
▁협 조를
▁절대 적으로
▁그릇 된
▁갈라 진
▁영광 을
마 당
메 이
시 .
▁수 선
▁알 맞은
▁' 남
▁스 르르
▁하지 ?
▁"이 곳
▁독 창
▁광 장
▁짓 누
▁하루 아침에
▁잡아 서
▁끝나 기도
▁말했 어.
(1 7
▁무언 가가
▁첩 보
구 석에
까 하고
로 스
십 니
예 요,
▁속 력을
▁통 행
▁놓 칠
▁뜻 하지
▁4 8
▁자유 가
▁흔들 면서
▁자식 은
▁덜 덜
▁건물 은
▁시험 에
▁전체 적으로
▁것인가 ,
▁의아 한
▁ 니까?
누 구
▁마 하
▁고 약한
▁알 이
▁조 는
라고 ,
▁구 원을
▁입 어
▁웃 지
▁책 들을
▁나타 낸
▁사회 적으로
▁있다 ,
▁쳐다보 면서
▁꾸 러
▁옳 을
▁공포 와
생활 에
▁파악 할
가 들이
굴 이
께 요."
미 니
올 리
자 라
▁아 리스토
▁수 반
▁장 갑을
▁선 고
▁목 격한
▁치 기
▁국 가에
▁달려 가는
▁으 르렁
▁"누 군
,,,, ,
▁소홀 히
( ,
만 년
몽 은
았 으나
우 스와
장 사
▁정 이가
▁당 했다.
▁손 님은
▁청 중
▁써 도
▁비밀 로
▁만족 한
▁텐데 .
▁직업 이
▁점잖 게
▁컴컴 한
m y
▁ 렁
미 도
▁그 동
▁" 발
▁" 흐
▁동 방
▁의 욕
▁연 약한
▁사실 입니다.
▁골 프
▁있겠 다.
▁탓 이
▁지배 하고
▁예상 했던
▁안정 된
▁"형 님,
었 나
▁동 의를
▁신 에
▁선 출
▁실 질적인
▁책 봉
▁밀 치고
▁아들 로
▁구경 꾼
▁벨 이
▁히틀 러
▁ 씨가
것 을
꼈 다.
릴 라
익 이
▁사 인
▁시 인은
▁우 회
▁해 보는
▁안 성
▁저 질러
▁공 장을
▁아이 스크
▁출 신이
▁별 장
▁급 제
▁송 이
▁그날 도
▁주장 한다.
▁실패 를
▁작업 은
▁불가능 하다.
▁설치 되어
▁사르 므
진 에게
▁보 자고
▁일 차
▁입 밖에
▁떠 드는
▁양 육
▁돼 요.
▁선생님 께
▁수행 을
▁거절 할
▁색깔 이
박 물
삼 이
셨 던
워 드
▁지 능
▁대 대로
▁정 직
▁위 압
▁상 투
▁못 하다.
▁살 면
▁' 영
▁차 원의
▁원 천
▁줄 리
▁식 품
▁절 약
▁환 히
▁토 막
▁밀 쳐
시키 면
▁일어나 며
▁그곳 이
▁빼 돌
▁패 션
▁척 하고
▁방송 국
▁훼릭 스가
▁아라 크
겠 니?
겠 지요."
꼬 의
자 니
퍼 는
▁있 단다.
▁" 함
▁대 합
▁전 부를
▁만 무
▁세 면
▁장 래
▁입 속으로
▁원 한을
▁매 주
▁천 왕
▁뿐 인
느냐 에
▁흥 미가
▁클 래
▁성공 했다.
▁평화 로운
▁범죄 를
▁되풀이 했다.
▁주요 한
▁안톤 은
▁차근 차근
9 )
군 도
롭 다.
생 들이
▁사 원
▁것이 리라.
▁안 했
▁구 .
▁재 물을
▁맞 대고
▁"아 ..
▁크 은
▁평 정
▁총 명
▁메 마른
▁골 이
▁결정 할
하려 던
▁가을 에
▁아파트 에서
▁설치 된
▁보시 오.
▁분야 에
▁흐느 낌
▁내다보 고
▁거세 게
놈 ,
드 디어
▁그 은
▁나 랑
▁1 학년
▁입 안에
▁개 개
▁열 기
▁열 다섯
▁당신 한테
▁왕 과
▁폭 력을
▁아까 운
레 스는
마 르트
소 사
없 고
으 라
▁" 삼
▁기 만
▁인 구가
▁찾 으려고
▁함 흥
▁줄 지어
▁( 1)
▁겁 먹은
▁[ 그
▁면 을
▁늦 지
▁도착 하자
▁살펴 보고
as t
▁큼 직한
▁여하 튼
기 운
연 에
증 과
▁말 다
▁대 견
▁세 금을
▁열 세
▁승 강
▁끄 떡
▁클 레이
▁느껴 지
▁옛날 에는
▁I n
▁진행 되는
▁티 베
▁포도 주를
▁집요 하게
너 와
늦 은
부 리
표 의
▁" 치
▁보 나
▁한 도
▁한 자
▁대 피
▁안 다는
▁남 정
▁비 집고
▁' 진
▁매 력이
으면 ,
▁인생 에서
▁부딪 치는
나 왔다.
의 의
좁 은
질 과
하 네
▁사 지
▁가 는데
▁지 점에
▁전 무
▁고 종
▁비 타
▁' 수
▁열 자
▁열 었다
▁외 무
▁보고 가
▁복 용
▁권 한
▁글 씨가
이란 다.
▁매달 렸다.
▁화장 실로
▁졸업 한
▁솟구 쳐
▁"선생 님,
▁옆구 리를
▁대한민 국
끈 을
리 스는
묵 은
별 이
악 !
틀 랜드
히 면서
▁나 라도
▁지 시에
▁기 성
▁고 대의
▁저 지를
▁구 름을
▁영 주
▁성 문
▁배 척
▁애 당
▁절 차를
▁토 르
▁사회 에서는
되었 는데,
▁좌 석
▁사진 은
▁아가 씨를
장님 .
▁가라앉 은
▁흥미 로운
여기 서
다 '
무 덤
살 이나
턱 에
▁오 수
▁못 을
▁장 이
▁예 루
▁심 복
▁치 욕
에도 ,
▁이상 할
▁사이 도
▁계속 할
▁발견 하지
▁무너 지는
▁거부 하는
▁차분 하게
례 는
지 대
▁다 림
▁지 수는
▁기 나
▁주 유
▁생각 으로는
▁중 사는
▁느 슨
▁명 함을
▁온 전히
▁와 락
▁슬 리
▁쏘 는
▁새벽 이
▁바꾸 고
▁조건 으로
▁관심 은
c i
단 히
랑 이를
전 부터
치 한
▁" ......."
▁아 야
▁사 러
▁전 선
▁해 답을
▁개 조
▁등 받
▁왔 으니
▁술 렁
▁검 게
▁글 라
▁즐 겁
▁숲 에
▁멋 있는
▁지구 에
▁현실 적으로
▁영화 에
▁크리 슈
▁오토바 이를
바 르
테 오가
▁고 칠
▁있었 으니
▁좋 고,
▁했 소.
▁버 리기
▁않았 으며,
하였 으며
▁알았 어요.
▁문화 에
▁맹 렬한
수 .
▁" 단
▁" 확
▁않 기를
▁방 정
▁목 도
▁바라 다
▁침 대가
▁왕 자는
▁베 일
▁사건 과
어지 며
▁비밀 리에
▁"너 도
▁노력 은
▁두려워 하고
아저 씨
국 인
권 과
묻 은
▁시 비를
▁주 시는
▁바 랐다.
들은 ,
면서 부터
▁영 이
▁감 출
▁호 령
▁포 로가
▁근 사
▁존재 한다.
▁활 활
▁봐 ."
▁맡 았다.
▁뿌 리고
▁소설 이
▁신음 소리를
▁어밤 에
▁0 .
c om
암 이
일 세.
해 와
향 은
▁생 의
▁부 당한
▁조 선을
▁유 격
▁유 우
▁구 한
▁집 단의
▁약 화
▁편 이다.
▁포 스터
▁토 론을
▁주고 받는
▁부탁 이
▁말했 었다.
▁두드 리며
요."그 녀가
물 들이
었 소.
지 한
▁이 다
▁마 저
▁정 찰
▁생각 에는
▁삼 백
▁뜻 에서
▁누구 한테
▁취 해서
▁않아 ?
▁결정 했다.
▁시절 ,
▁머릿 속
렴 .
로 디
올 렸다.
자 들도
점 과
클 린
▁" 자기
▁지 훈의
▁시 대는
▁도 시는
▁성 기를
▁먹 으며
▁애 들을
▁절 도
▁확 률
▁지나 칠
다보 니
▁않아 요?
▁아침 의
▁걱정 하고
▁상관 없는
▁촉 진
▁휘두 르며
▁ e
습 니까,
식 도
테 니
하 다,
에서 만
▁시 녀
▁시 중을
▁신 입
▁돌아 다니는
▁피 웠다.
▁피 부를
▁새 의
▁광 경
▁이러 고
▁칼 에
▁자동차 의
▁영웅 이
▁못마땅 한
▁새어나 왔다.
▁뒤통 수를
o ve
어 요!"
잠 깐
차 원
치 나
▁" 게
▁수 상한
▁마 가
▁주 름이
▁고 독한
▁상 현은
▁신 상
▁신 현
▁구 해주
▁목 청을
▁열 여
▁날 개가
▁줄 줄
▁표 시를
▁놓 쳐
▁양 말
▁밤 이었다.
▁찾아 내는
▁울 음이
▁욕 실로
▁얘기 다.
▁사람들 로부터
▁피해 가
원 짜리
처 는
▁나 날이
▁가 나
▁가 혹한
▁말 머리를
▁정 희
▁생각 난
▁위 치가
▁서 고
▁연 금
▁함 정
▁가슴 과
▁묻 힌
▁들려 주었다.
▁억 센
▁디 자인
▁플 랫
▁뻔 히
ac k
고 리를
들 면
풍 은
하 리라.
▁있 기만
▁말 았던
▁거 지."
▁세 르
▁박 인
▁골 히
▁남아 서
▁들었 지만
▁돌아오 자
합니다 ,
▁있으리 라.
▁내면 의
▁속마 음을
놓 고,
들 만이
지 기를
짐 은
▁" 웬
▁일 한
▁않 소?
▁정 리를
▁고 여
▁두 개를
▁저 격
▁노 동을
▁달 구
▁외 치고
▁울 리
주의 와
다니 면서
▁알았 습니다.
▁나이트 클럽
담 당
통 으로
▁수 석
▁것이 다,
▁사람 인데
▁구 만
▁계 엄
▁감 금
▁번 득
▁찾아 보
▁임 신을
▁친구 들에게
▁달려 드는
▁못한 다면
▁끊 어
▁7 일
▁착 취
▁해결 될
▁맺 은
▁흩 어진
▁괴롭 히는
▁연극 을
봐 요."
파 운드
▁사 기를
▁어 질
▁일 렁
▁대 관
▁모 면
요. ”
▁위 선
▁비 용
▁불 리한
▁아니 ?
▁당 하게
▁잘 도
▁허 영
▁편 지에
▁야 당
▁다이 애
▁일시 적인
하 리라
▁이 륙
▁사람 보다
▁거 같
▁오 ?"
▁위 축
▁서 적
▁1 억
▁노 리
▁성 실한
▁잡 지를
▁빠져 서
▁조선 에
시간 을
▁가로 지
▁찍 힌
▁혁 명이
▁봤 자
▁에너 지의
▁오디 세
▁ 룩
모 ,
야 "
출 판
▁가 치는
▁지 울
▁오 가
▁경 상도
▁공 장에서
▁앞 에서도
▁명 료
▁지금 이라도
▁허 준의
▁아버지 에
▁마찬가지 이다.
▁트 리
▁워 커
▁하느 님이
▁스피 커
i a
로 라는
포 드
▁말 뜻을
▁마 세요."
▁같 소.
▁위 생
▁스 가
▁강 은
▁삼 일
▁야 ,
▁욕 구가
▁낮 아
▁익 혀
▁기뻐 했다.
▁분야 의
색 에
요 는
▁부 대는
▁미 세한
▁달 의
▁온 천
▁이제 부터는
▁왕 비의
▁돈 만
▁활 성
▁엉 터리
▁상처 는
▁보호 해
▁복잡 하게
▁쓰여 진
▁시끄 럽게
▁사납 게
곤 하는
국 가
다 ?
▁모 시는
▁기 에
▁그녀 석
▁중 위
▁미 지
▁서 려
▁손 해를
▁단 추
▁"아 아,
▁나타 냈다.
▁부모 와
▁내리 쳤다.
▁시야 에
매 의
찬 이
▁안 식
▁스 쳤다.
▁총 성이
▁악 한
다니 !
이야 ?"
▁건강 이
▁동료 들이
▁기업 의
▁숨겨 진
▁글쎄 ,
▁"참 ,
▁"엄 마,
▁ 쇄
고 을
▁정 오
▁무 궁
▁무 진
▁해 에
▁불 멸
▁공 부는
▁먹 는다.
▁형 용
▁호 의를
▁드 래
▁초 에
▁토 지를
▁밀 수
▁카 릭
▁것으로 서
▁졸 개
▁왜냐하면 ,
▁가 운
▁지 상에
▁시 한
▁전 히
▁부 두
▁알 고,
▁얼 씬
▁도 난
▁구 도
▁교 황
▁양 치
기에 ,
▁4 천
▁터 졌다.
▁읽 지
▁흥 얼
아버 렸다.
▁끄덕 여
▁그걸 로
▁12 0
▁한참 이나
▁어렵 고
▁식당 으로
▁부질 없는
거 리지
량 과
론 으로
벽 이
자 네가
▁가 문
▁가 시는
▁대 번에
▁위 력을
▁더 군요.
▁의 회
▁집 합
▁영 정은
▁웃 기는
▁올라 다.
▁딸 에게
▁저녁 이
▁지난 날의
▁블 루
▁카운 터
▁껴안 았다.
검 이
귀 의
기 적
말 처럼
풍 에
▁있 거든
▁말 까지
▁기 소
▁위 함
▁얼마 쯤
▁뜻 풀이
▁망 정
▁키 에
▁중국 과
▁조용 하게
▁니 .
▁며칠 을
▁성격 은
▁무의 미
▁싸늘 하게
당 하지
우 면서
평 가
▁그 길로
▁남 세
▁장 가
▁사실 과
▁뜻 이었다.
▁성공 적으로
or y
▁제기 랄
▁원주 민
거 늘
마 사
법 ,
아 들이
키 고
▁" !"
▁않 니?
▁기 어나
▁도 끼
▁결 정이
▁개 인이
▁너 덜
▁배 나
▁양 쪽으로
▁이상 했다.
▁풀 지
▁있지 ."
▁숙 박
▁히 로
▁공격 이
▁떠올 려
▁색 의
▁자식 들
▁공부 에
▁K 가
▁불어 넣
▁시각 에
응 ,
▁위 안을
▁아니 니
▁방 랑
▁시작 했던
▁말씀 드려
▁공격 할
▁때까지 도
입니다 ,
▁근거 로
▁지붕 을
▁처참 한
▁얼버 무
( 2
( H
▁ 습니다.
물 인
었 다면
중 에는
▁이 여
▁수 북
▁대 군을
▁거 룩한
▁오 세요.
▁감 춘
▁시작 될
▁명 상을
▁배 회
▁형 식을
▁호 통을
▁산 은
▁소리 쳐
▁청 을
▁권 리
▁"그렇 다고
▁숲 의
▁날아 갈
▁신문 의
▁낫 지
▁르 네
▁만남 을
▁드나 드는
렸 기
즈 니
창 의
플 레이
▁수 중에
▁인 희
▁미 심
▁' 전
▁누 나의
▁열 렬한
▁잡 수
▁3 대
▁섬 의
▁한마디 도
▁죽이 려고
▁부서 진
▁내세 워
▁지리 산
버 그
불 은
사 슬
았 는데
향 의
▁" 돌
▁수 만은
▁기 이한
▁오 피스
▁안 되어
▁남 다른
▁제 시는
▁살 기가
▁영 감은
▁일이 든
▁벌 였다.
▁드러 내지
▁졸 고
▁규 모의
▁방송 을
▁나갔 다가
▁생기 게
▁반가 워
시30 분
보 다.
불 에
▁그 쳤다.
▁고 프
▁상 인
▁때문 이었을
▁교 훈
▁파 인
▁깨 물
▁술 이나
▁로 비
▁올라 오
▁헤 어지
▁투 숙
▁저녁 ,
▁사람들 처럼
냄새 를
▁방안 에는
▁첫째 는
▁죽이 려
▁"어디 로
무 게
▁" 대체
▁하 수
▁다 수
▁대 인
▁시 점에서
▁기 반을
▁거 니?
▁주 석
▁안 락의
▁손 쉽게
▁놓 고는
▁초 기에
▁듣 고,
▁활 동이
▁죄 로
▁굴 고
▁폐 기
▁혼란 에
물 처럼
▁그 후
▁이 을
▁주 위는
▁제 스
▁진 실이
▁강 렬
▁등 용
▁날 도
▁올 시다."
▁국 경을
▁대답 에
▁끼 치는
▁브 레
▁여러분 에게
▁지하 실
▁일어서 며
ic h
▁삐 걱
▁"잠 시
▁골짜 기
▁엇 갈
댁 에
렸 어.
맥 이
▁사 정은
▁있는 지는
▁조 리
▁조 언을
▁줄 여
▁백 성이
▁4 일
▁풀 린
▁혼자 만
▁지구 는
▁자식 들이
▁덩 달아
▁조각 이
▁들어올 렸다.
제목 :
각 으로
배 나
태 와
▁지 칠
▁대 사를
▁기 르고
▁못 가
▁문 장을
▁걸 요."
▁강 타
▁강 물에
▁양 심의
▁않았 으며
▁좋아 하
나무 는
▁장소 는
▁"글쎄 요.
▁독자 적인
▁상세 히
▁ 줘야
거 푸
명 도
미 에게
숭 이
약 의
웃 으며
해 한
▁가 봐야
▁말 문이
▁모 욕을
▁들 고,
▁공 명이
▁걸 작
▁했 어요."
▁관계 없이
▁디 스
▁맥 을
▁18 세기
▁요구 에
▁곡 식을
▁거부 하고
▁반사 적으로
▁역력 했다.
. C
▁ 윽
교 회
군 들이
군 요?"
등 한
량 으로
충 이
츠 를
▁보 완
▁부 릴
▁아니 에
▁"그 것도
▁줄 기를
▁의미 도
▁언제나 처럼
▁숲 에서
▁부엌 에
▁"일 본
▁갈등 이
▁꾸미 고
▁오드 리는
▁바야 흐로
만 일
▁한 순
▁지 중
▁미 녀
▁장 성
▁강 민
▁천 리
▁문제 와
▁갈 대
▁넘 을
▁용 감
▁기다 린
▁위해서 ,
▁죄 인
▁잘못 하면
▁대부분 을
▁춤 추는
▁부처 님
▁추억 을
▁필리 핀
' 인
수 였다.
추 의
▁" 물
▁자 율
▁불 완
▁중 시
▁의 도가
▁들어 .
▁달 랑
▁스 치는
▁귀 환
▁삼 을
▁테 지.
▁새끼 들
▁짜 증을
▁말아 라.
▁시내 에
▁그늘 에
▁최소한 의
결 은
읍 니다."
▁정 직한
▁거 품을
▁부 라
▁중 력
▁연 쇄
▁뒤 척
▁당신 들
▁놀 이를
▁"어 이
▁"어 찌
▁기대 하고
▁건강 에
주시 오.
▁되어서 야
▁부근 에
▁ 텔
났 던
올 라가
욱 의
▁이 씨
▁하 네
▁가 누
▁일 해
▁기 존
▁정 벌
▁정 정
▁소 장은
▁분 배
▁엄 숙
▁떨어 지기
▁별 일
▁사라 지지
▁잘못 한
▁가운데 서도
▁의식 적으로
▁인정 할
▁"알 겠습니다."
▁효과 적인
▁태어나 는
▁깨어 났다.
▁애쓰 고
▁몸부 림을
▁골고 루
▁아리스토 텔레
u b
겠 죠?
구 !
국 ,
났 다는
답 은
▁하 죠.
▁고 생이
▁조 국을
▁죽 었다
▁문제 들을
0년 대의
▁불안 해
▁감시 하고
▁대륙 의
▁사기 꾼
거 요."
네 다.
더 미
송 의
일 지
주 도
▁아 쉽
▁정 조
▁주 장에
▁도 련
▁듯 했다
▁행 방
▁외 치며
▁타 르는
▁추 궁
▁막 한
▁철 은
▁믿 기지
▁움직 인
▁관계 도
▁보았 다는
▁교육 이
▁소개 했다.
▁무시 할
▁대표 하는
▁구성 되어
▁장교 가
등 을
연 대
▁모 기
▁오 징
▁미 용
▁경 련을
▁난 로
▁리 의
▁풍 겼다.
▁드러 난다.
▁한마디 를
▁거리 낌
a� �
▁생겨 서
▁D NA
▁주었 으면
▁엿 보
ac h
▁불꽃 을
는 다고
립 을
부 에게
석 한
▁하 시고
▁말 야,
▁되 니까
▁잘 한
▁순 녀는
▁군 림
▁근 우는
▁여기 지
▁일본 과
▁카 레
▁헤 어졌
▁빛 과
▁그럴 리가
▁끌어 들이
▁컴퓨터 의
▁분노 의
▁것들이 었다.
▁속삭 이
▁스트 레스
▁안심 하고
▁도서 관
▁셋째 ,
▁오토바 이
테이 블
드 에서
▁다 하는
▁지 대
▁거 라.
▁안 됩
▁' 공
▁구 조가
▁날 렵
▁결혼 하고
▁그대로 였다.
▁딸 린
▁압 니다.
▁들어오 게
▁아끼 는
▁무의식 적으로
란 에
많 이
▁" 갑자기
▁사 방이
▁것이 었고,
▁거 실에
▁남 성을
▁개 도
▁채 운
▁이상 ,
▁음 성은
▁한다. "
▁절 에
▁광 경이
▁풍 경이
▁푸 는
▁하겠 지만
▁나왔 던
▁거절 했다.
▁강조 하는
▁특징 은
▁상기 된
▁임호 정은
" 이라고
리 다.
야 ...
자 루를
쟁 이가
▁자 행
▁여 신이
▁부 정한
▁입 혀
▁좋 겠다는
▁파 일
▁민 속
▁믿 었던
▁에 리
▁사람들이 다.
▁학교 가
▁자식 의
▁어른 들은
▁들어오 자
▁태양 은
▁흩 날
▁있으니까 요.
▁상대방 에게
개 발
노 라.
▁나 들이
▁모 의
▁부 쳐
▁서 구의
▁했 지
▁등 장한
▁크 지
▁공격 하는
▁맑 게
▁변호 사가
▁마디 를
▁말투 가
n g
▁ 니,
결 혼
구 정
군 !"
▁수 단이
▁없 자
▁일 는
▁지 켰다.
▁것이 기도
▁시 기는
▁정 하고
▁알 레
▁돌 며
▁성 스러운
▁음 을
▁에 스트라
▁정신 으로
▁말해 주
▁닥 칠
▁상관 하지
▁텔레 마
▁매스 컴
( 3
6 )
간 다
거 라."
생 으로
이 미
▁이 장
▁사 천
▁가 자.
▁되 리라는
▁남 궁
▁미 망
▁유 통
▁너 그
▁화 들짝
▁혼 동
▁생각해 .
▁폐 지
▁18 5
▁차례 가
▁봤 다.
▁깨끗 하고
▁턱 수염
▁더듬 었다.
▁둘째 는
▁잎 이
▁개혁 을
▁원칙 을
▁채찍 을
계 ,
란 과
살 은
아 시
월 :
하 옵
▁" 솔
▁정 중
▁생각 조차
▁안 드
▁두 둑
▁저 물
▁' 일
▁관 대
▁마음 먹
▁최 재
▁풀 리는
▁이후 ,
▁알려 주
▁색 다른
▁장난 감
▁공산 당
▁법칙 에
연구 소
▁모퉁 이를
▁급격 히
가 들은
다 닌
렌 의
밭 으로
여 름
임 .
즘 을
처 녀
▁지 위
▁거 처를
▁해 고
▁제 자가
▁성 문을
▁뒤 쪽에
▁"아 냐,
▁내려 가고
▁침 공
▁토 대로
▁멈 출
or t
▁조사 한
▁블 라우
▁무너 지고
▁찰 스는
▁깃 발을
▁맞이 했다.
거 야?
네 들이
땀 을
조 심
쳤 다는
탄 한
▁" 포
▁말 소리가
▁어 .
▁전 술
▁전 부가
▁아니 냐
▁아니 오
▁"그래 요,
▁굴 욕
▁걷 다가
▁나타나 면
▁썼 던
▁튀 어
▁비롯 해
▁찢 어지는
▁걸음 걸
▁접근 할
▁도달 할
▁존경 하는
겠 는
▁아 실
▁내 렸다
▁비 관
▁동 전
▁동 전을
▁미 혼
▁공 기는
▁참 말로
▁그렇 지,
▁찾아 볼
▁민 철은
▁뭐 .
▁억 눌
▁불안 하게
▁쌀 쌀
▁시원 하게
▁어색 하게
▁피아노 를
▁소문 난
▁ 톤
너 머
비 행
오 오
했 습니다
▁수 야
▁장 터
▁구 출
▁후 였다.
▁머 무는
▁군 속
▁외 딴
▁하여 튼
▁8 시
▁저지 르고
▁비웃 는
e e
m m
기 관
베 르트
비 싼
첩 을
▁" 홍
▁시 무
▁소 장이
▁공 명은
▁올 리며
▁군 용
▁학 대
▁쉬 며
이야 !"
▁어리둥 절한
T V
지 도록
▁이 스
▁서 방이
▁유 학생
▁' 보
▁방 대
▁또 래의
▁종 류가
he re
하시 면
."그 녀가
▁하면서 ,
▁케 이크
▁사상 과
▁있으리 라는
▁서랍 을
▁총알 이
! .
% 가
고 개를
길 ,
악 !"
이 거나
재 와
팔 로
▁한 적한
▁내 색
▁모 레
▁인 제
▁공 존
▁구 키는
▁개 ,
▁재 차
▁민 비는
▁술 마
▁술 취한
▁흘 겨
▁축 복을
▁찔 끔
▁웬일 인지
o st
앞 을
약 은
자 !
▁" 총
▁것 보다도
▁위 조
▁비 구
▁구 하고
▁목 사의
▁후 지
▁확 정
▁떨어 지자
▁권 하는
▁자연 에
▁무너 진
▁공식 적인
▁여태 까지
▁거든 .
기 랄
왔 다고
▁것 쯤은
▁나 굴
▁남 겼
▁군 복을
▁막 지
▁총 소리가
▁터 지는
▁위해서 라면
학교 를
▁쫓 기는
▁밝혀 진
▁다루 고
▁이익 이
▁제주 도
단 ,
웃 었다.
▁기 밀
▁아니 요,
▁유 미
▁명 훈의
▁박 탈
▁양 손을
▁호 전
▁필 라
▁금 치
in k
▁유혹 을
▁""그 럼
냈 던
메 테
빈 을
었 었다.
훈 련
▁" 생
▁여 기를
▁여 왕의
▁거 무
▁주 드는
▁고 사하고
▁비 우고
▁아니 며,
▁저 한테
▁장 비를
▁"그 것이
▁변 신
니다 !
▁떨어 진다.
주의 적인
▁욕 실
▁커피 잔을
▁소개 해
▁대꾸 를
돈 이
사 내는
사 옵니다.
입 니까.
장 치가
친 한
▁" 건
▁것 입니까?
▁나 기
▁보 기는
▁보 자는
▁정 거
▁저 놈
▁"그 ,
▁"아 이고
▁놈 도
▁풀 기
▁논 을
▁잡아 야
▁쫓 고
▁30 42
▁지배 를
▁눌 려
▁헛 된
▁깃 발
▁간호 사가
▁요청 을
▁앞뒤 로
)- >
▁변함 없이
고 리
도 하는
이 야."
▁이 면
▁가 차
▁다 마는
▁동 철의
▁선 봉
▁일이 지만,
▁행 하는
▁밀 접한
▁증 상
▁북 적
▁뛰어 가
▁능 력에
▁뉴 턴
▁기록 은
스크 를
▁익숙 해져
▁부친 은
▁쓰다듬 어
h y
니 에게
아 로
엄 마
▁보 다가
▁내 로
▁생 김
▁미 요
▁1 주일
▁공 헌
▁걸 까.
▁편 에
▁민 감
▁그때 까지도
▁밝 힐
▁이루 어지고
▁둘러 보고
▁묵 직한
▁덜 어
▁좋겠 어.
▁궁금 해
▁어처구니 없는
▁ 씨는
락 으로
▁자 들은
▁주 려고
▁주 셔야
▁무 능
▁무 리는
▁소 행
▁되 지는
하게 ,
▁제 대
▁미 시
▁현 상에
▁허 비
▁먹 으러
▁채 비를
▁벌 어지
▁풀 릴
▁만들 고,
▁고통 으로
▁내용 에
▁과학 자
▁"예 ?
▁것만 도
▁눈앞 의
▁묶 은
▁아프 로디
▁맞추 고
▁기본 적으로
▁소련 의
? )
▁" 추
▁하 후
▁다 문
▁동 시
▁저 건
▁' 주
▁목 은
▁건 널
▁말이 냐?
▁별 들이
▁멀 한
▁뭔 가가
▁종교 가
▁살려 주
▁감옥 에서
▁ 님
고 와
마 조
방 과
할 까?
▁이 형
▁사 명
▁수 건으로
▁지 방을
▁집 필
▁앞 둔
▁후 부터
▁번 쯤
▁표 출
▁김 수
▁증 권
▁- 아
▁풍 습
하였 는데
▁경험 은
▁묘 하게
▁가끔 은
▁발표 한
▁수준 이
다" 고
▁무게 가
▁섬뜩 한
르 에
순 을
▁아 플
▁말 뚝
▁정 권이
▁당 하지
▁형 제를
▁외 부의
▁복 귀
▁머리 도
▁극 심한
▁있겠 소?
▁내게 로
▁격 파
▁붉 히며
▁엘 레
▁전체 적인
▁불어 오는
▁현관 으로
▁럭 저
▁어떨 까?
습네 다.
▁데리 러
뭐 ."
▁그 쳐
▁있 지도
▁" 앞으로
▁아 그
▁다 한
▁시 계가
▁' 세
▁후 는
▁최 상의
▁크 기가
▁표정 에
▁격 리
▁검은 색
▁택 시가
▁일단 은
▁아니었 지만,
▁여름 의
▁분노 에
▁우스 운
란 ,
어 먹을
터 였다.
핑 크
▁사 연을
▁동 아
▁미 운
▁문 쪽으로
▁자신 있게
▁스 어
▁태 자
▁3 분의
▁작품 에
▁깨달 을
▁그리스 도의
▁레이 저
▁플로 렌티
깊 은
마 치
▁한 나
▁사람 씩
▁우 주는
▁만 년
▁경 감은
▁장 남
▁강 훈의
▁단 어가
▁요 령
▁외 국의
▁애 인을
▁리 스
▁라 스
▁패 거리
▁뒷 날
▁"네 ?
▁밥 상을
▁척 도
▁버렸 던
▁착각 을
▁재능 이
▁공교 롭게
값 이
누 군
점 ,
차 별
▁나 날
▁없 잖
▁기 거
▁정 녕
▁생각 한다면
▁매 기
▁매 운
▁김 미
▁사랑 한다고
▁무엇 인지를
▁"이 미
▁들었 는지
▁주장 한
▁숫 자는
▁대원 군은
( 고
대 사
덕 의
마 니
머 리는
신 앙
▁" 회
▁좋 지만
▁받 자
▁떠 벌
▁온 다고
▁않는 가?
▁천 한
▁질 식
▁15 년
▁수준 에
▁합리 적인
노 동
션 이
품 과
▁그 분을
▁" 창
▁기 초를
▁부 착
▁부 산에
▁안 드로
▁인 위
▁눈 짓
▁유 라는
▁발 의
▁노 파
▁노 파가
▁병 실
▁침 이
▁술 도
▁4 00
▁카 라
▁상태 의
▁알려 지지
▁십 분
▁달라 졌다.
▁무너 뜨
▁서류 가
------------ --
▁애당 초
하 얀
▁그 중
▁주 물
▁오 !
▁비 운
▁아니 며
▁공 수
▁유 년
▁입 문
▁자기 방으로
▁행 위의
▁허 망
▁철 조
▁야 외
▁"어 째서
▁석 탄
▁마지막 에
▁집어 들
끄러 운
▁쏘 았다.
▁맑 아
▁유유 히
가 루를
나 스
비 린
▁들 판을
▁만 치
▁경 고를
▁문 명이
▁장 래를
▁진 시
▁추 위를
▁음 식은
▁목소 리의
▁빨 래를
▁들어가 야
▁혹 독한
▁만들어 져
되었 는데
▁사용 되는
▁하루 에도
▁곡 을
▁겪 게
? !
목 과
▁수 레를
▁모 신
▁만 만
▁조 여
▁장 로
▁장 군을
▁계 책을
▁버 지
▁종 을
▁직 원들이
▁근 무를
▁총 총
▁꿈 과
▁짜 릿한
▁퇴 원
▁폴 란드
▁뿌리 치고
▁40 대
▁몸짓 으로
▁무모 한
격 의
손 의
지 배
해 지지
혈 이
▁그 물을
▁있 소?"
▁" 히
▁없 는데,
▁한 마
▁생 애를
▁해 보고
▁눈 치가
▁도 우
▁집 들이
▁입 대
▁줄 줄이
▁참 담한
▁정도 이다.
▁프 라이
▁야 스
▁7 시
▁억 지
▁폐 하의
▁기뻐 하며
▁뿜 어져
▁완성 된
▁"어디 서
▁과장 된
ver y
▁빙빙 돌
무 진
스 틴은
주 면서
집 과
▁것 만큼
▁생 기가
▁제 마는
▁저 울
▁집 결
▁열 기를
▁열 리면서
▁종 의
▁음 양
▁찾아 갈
▁청 동
▁커 졌다.
▁희 끗
▁기억 하는
▁송 두리
▁둔 다.
▁밝혀 졌다.
▁사업 이
▁노려 보며
a h
c an
반 도
선 거
지 라
▁않 는데
▁기 자는
▁진 저
▁단 행
▁피 어오
▁함 양
▁허 약
▁천 국
▁병 호는
▁침 울
▁평 평
▁넘 겼
▁친구 들의
▁키 를
▁행복 에
▁"예 ?"
▁살아남 을
▁엎드 린
0 5
권 도
데 요."
▁이 스는
▁대 두
▁동 물을
▁신 흥
▁방 망
▁발 길이
▁그것 이었다.
▁잘 된
▁베 개를
▁낙 하
▁교육 은
▁씨 름
▁하였 고,
▁닥 친
▁벗어나 고
▁"하 긴
▁뭉 클
희 ,
▁주 었고,
▁고 꾸라
▁두 가
▁당 당
▁집 집
▁영 리한
▁감 다.
▁많 으면
▁했 습니다."
▁원 통
▁통 역
▁언 급한
▁누구 와
▁언제 쯤
▁오르 기
▁생각했 었다.
▁슬픔 과
▁개념 은
▁보편 적인
▁옆구 리에
a ,
▁ 니다."
았 어요.
타 게
퍼 가
피 의
혹 은
▁당 구
▁받 고,
▁요 소를
▁간 략
▁참 견
▁최 수
▁국 한
▁금 빛
▁살아 나
▁높 았다.
▁발견 되지
▁모르겠 지만,
▁변화 의
▁충격 적인
ow n
19 9
▁작정 이었다.
▁모니 터
▁따름 이었다.
▁슬프 게
기 구
림 도
문 화의
상 대
익 의
▁수 다
▁일 리가
▁기 대에
▁소 곤
▁조 개
▁서 둘
▁피 투성이가
▁간 과
▁추 호도
▁리 즈의
▁흐 릿
▁원래 는
▁흙 이
▁갈라 져
▁장면 은
▁뒤섞 여
▁" 2
▁어 제의
▁내 머리
▁기 하
▁사람 다
▁무 식
▁해 ,
▁중 고
▁했 으며
▁파 리에서
▁골 몰
▁학생 을
▁낙 동
▁고향 의
▁고향 이
▁출발 한
▁끌려 가
▁흐느 껴
▁브로 커
( 정
난 한
박 하게
였 다면
▁이 랑
▁보 겠습니다.
▁일 들은
▁내 지는
▁마 티
▁주 임
▁고 시
▁같 지도
▁도 주
▁경 향을
▁성 분이
▁관 할
▁앉 자
▁김 창
() 도
▁산 길을
---- -
▁혼 이
▁5 0년
▁되었 기
▁친구 ,
▁멀 고
그러 니까
▁행복 은
▁요구 하고
▁벗어나 는
▁출발 했다.
▁마당 에서
▁보였 고
▁아르 테
▁알아차 린
▁스쳐 갔다.
기다 려
▁우거 진
검 사는
록 이
사 들의
▁있 군요.
▁" 산
▁수 요일
▁고 찰
▁미 치게
▁유 별
▁방 식은
▁강 실
▁현 금
▁금 고
▁프 랜치
므로 ,
▁싶어 했다.
▁좁 혀
▁고맙 게
▁발휘 할
▁이전 에는
▁읍 내
▁생생 한
되 지는
림 ,
절 은
▁" 샤
▁" 염
▁사 면
▁만 하다.
▁조 급
▁조 언
▁불 문
▁제 목을
▁눈 에서는
▁살 기를
▁손 놀
▁관 람
▁진 심
▁모르 지
▁호 리
▁쓰 고,
▁연구 는
▁부서 져
▁의도 적으로
▁솜씨 로
▁바랍 니다."
균 의
부 한
쉬 는
은 행
장 군이
▁보 자,
▁눈 감
▁반 이
▁언 어의
▁필 름
▁바로 잡
▁갖 기
▁풍 만한
▁것처럼 .
▁굴 었다.
▁쌓 은
▁맨 발로
▁외출 을
( p
부 들이
잎 을
장 처럼
▁오 나
▁눈 깜짝
▁의 외
▁했 지?
▁지금 이나
이었 다면
▁왕 실의
▁세계 와
▁달려 가서
▁어쩌 고
▁설명 하기
▁9 9
▁괜 한
▁아파 서
▁딱딱 하게
▁휘파 람을
( s
들 하고
비 치
찍 한
털 이
▁" 코
▁수 축
▁일 대의
▁생 쥐
▁우 산
▁할 까요?
▁강 훈이
▁몸 짓을
▁버 스는
▁과 제
▁음 흉
▁침 몰
▁철 거
▁4 2
▁4 6
▁나무 와
▁행동 의
▁엄마 에게
시킨 다는
▁났 다
▁의지 할
8 8
렸 으나
▁" 데
▁자 만
▁해 질
▁안 방으로
▁줄 아
▁뿐 이지
▁“ 아
▁빨 리가
▁흐 를
▁보내 서
▁범 행
▁루 시
▁날아 와
▁차례 의
▁굽 이
시켰 던
▁허벅 지를
▁구석구 석
g e
삼 을
속 한
요 의
통 과
▁그 니는
▁바 칠
▁해 석을
▁좋 으니
▁군 산
▁형 광
▁검 거
▁이번 이
▁준비 하는
▁젖 꼭
▁보이 지는
▁접근 을
▁접근 하는
▁오피스 텔
( R
왔 고,
▁아 냐
▁모 가
▁여 주
▁미 의
▁공 사를
▁속 아
▁따 지
▁백 일
▁밝 히지
▁가능 하게
▁보이 자
▁불안 과
▁덮 었다.
▁18 4
▁낯 이
▁닫 힌
▁그려 .
▁맞추 는
▁식당 에
▁기지 개를
▁들어섰 을
▁보따 리를
m ent
대 원
랄 한
▁" 본
▁주 려
▁불 공
▁장 관이
▁노 벨
▁재 벌
▁언 성을
▁사실 이라면
▁사랑 도
▁초 보
▁떨어 지면
▁달려 가고
▁끊 어진
▁부분 의
▁못했 고,
▁부딪 쳤다.
▁! ”
▁유전 자
▁뒷모 습
▁감돌 았다.
서 나
주 던
출 은
▁그 물
▁" 젠
▁나 직한
▁않 음을
▁여 고
▁신 전
▁미 끼
▁반 대의
▁단 풍
▁애 버
▁사이 클로
▁깨 워
▁흘 리면서
▁벗 기고
▁6 시
▁"저 런
▁표현 은
▁쾌 활
▁불행 하게도
▁되겠 지.
▁스스 럼
가 라
겨 워
돼 요.
▁" 입
▁마 족
▁여 객
▁주 었을
▁비 판을
▁못 하기
▁돌 보
▁문 무
▁건 드려
▁스 펜
▁새 어
▁명 단을
▁과 수
▁어떤 가?
▁본 인이
▁종 로
▁총 무
▁로 이
▁폭 이
▁머리 맡
▁겨울 의
▁잠자 리
▁따뜻 하고
▁효과 적으로
다 리가
소 이다."
화 기를
▁하 우
▁가 정에
▁대 폭
▁모 짜
▁마 스터
▁들 썩
▁비 용을
▁처 방
▁이렇게 까지
▁굳 어져
이야 기를
▁홀 가
▁몰려 들었다.
▁허락 하지
기 면
배 로
보 내
하 로
했 나
▁있 나요?"
▁" 라
▁않 습니까.
▁모 이는
▁' s
▁영 토를
▁버 스에
▁형 무
▁김 포
▁말이 야!
▁카 바
▁이야기 한
▁여성 들의
▁거짓 말이
▁맨 날
▁뇌 리를
▁미안 해
▁솜 씨를
ac t
▁살아남 은
▁ 렷
구 하는
봐 요,
우 면서도
종 에
▁그 보다도
▁" 청
▁것 들에
▁사 만
▁시 장에서
▁기 르
▁정 승
▁바 위가
▁부 둥
▁고 안
▁상 하게
▁중 이다.
▁저 만큼
▁요 ?"
▁현 주
▁내려 야
▁같이 ,
▁터 이니
▁관계 에서
▁못한 다
▁7 5
▁돌아가 면
▁격 렬
▁"좋 아요.
▁솜 씨가
▁장례 식
▁원자 력
송 은
얼 을
오 스
윤 이
하 .
▁다 분히
▁지 우
▁지 적인
▁원 한다면
▁교 훈을
▁추 워
▁소리 .
▁환 기
▁사용 해
▁끊 이지
▁돌아가 게
▁조용 해졌다.
▁헛 기침을
▁안내 해
▁두려움 과
▁앞세 우고
마 리의
수 들이
실 ,
줘 서
▁아 데스
▁다 마
▁시 바
▁물 으니
▁물 방울
▁구 렁
▁개 와
▁단 계를
▁예 수의
▁몰 골
▁식 사는
▁옷 가지
▁슬 금
▁칼 날
▁우선 은
▁다음에 야
▁케이 블
▁서슴 지
> 하고
객 들이
왔 고
▁아 녀
▁보 겠
▁정 규
▁두 드리
▁불 경
▁경 주는
▁연 거푸
▁실 체
▁피 리
▁일이 고
▁통 일을
▁외 할머니
▁사랑 이란
▁질 병
▁갈 피를
▁각 오를
▁처리 하는
▁말하 곤
▁거칠 고
▁다투 어
▁바이러 스
▁닷 새
과 가
또 는
부 라
성 인
쌍 한
통 ,
▁그 립
▁" 1
▁지 킨
▁상 쾌
▁성 이
▁강 물이
() 이라는
▁모습 이다.
▁포 근
▁특 허
▁황 량한
▁복 도에서
▁승 인
▁판 을
▁어려 움
▁히 데
▁보이 고,
▁해결 하는
▁선택 하는
▁할아버 지와
▁오르 가
드리 겠습니다.
더 군요."
물 들을
▁" !
▁사 직
▁자 에
▁전 우
▁생각 들을
▁조 회
▁세 인트
▁유 방을
▁속 박
▁버 섯
▁김 유
▁최 명
▁음 성을
▁찾아 냈
▁돈 벌
▁금 발의
▁흘 끗
▁메 모를
잖아 !
▁옮 기고
▁학교 는
▁두려 웠다.
▁무시 하는
▁교회 에서
▁H e
▁시도 해
▁정성 껏
o f
렸 다가
만 원을
서 라도
제 국
줄 로
지 였다.
▁자 작
▁거 다
▁두 었다가
▁도 의
▁심 령
▁모르 나
▁포 개
▁초 반
▁질 끈
▁뭐 고
▁만들 었던
▁탄 력
▁러 브
▁기울 이지
▁받았 다는
▁엿 볼
▁흘러내 리고
▁느긋 하게
▁가파 른
! )
밖 을
았 다가
장 애
▁아 해
▁같 을
▁신 학
▁성 교
▁스 디오
▁통 계
▁자기 보다
▁허 연
▁않는 다면,
▁얼마 를
▁에 밀
▁올라 가고
▁베 푸는
▁꺼 려
▁꿈 쩍
▁나서 지
▁15 분
▁영국 은
▁부처 님의
ol d
▁결론 은
▁"허 허
▁짖 어
▁아일 랜드
사 항
▁전 력
▁바 쳤다.
▁아니 어서
▁저 으며
▁함 정에
▁치 안
▁모르 고,
▁최 화
▁뜻 도
▁기분 좋게
▁이야기 다.
▁갔 었
▁정치 의
▁표현 한
▁경제 적으로
▁대통령 을
▁공부 하고
▁솟 은
▁넌 지시
▁버리고 ,
▁목소리 도
▁깃 들어
▁말하면 ,
▁핑 계로
▁아스 팔
룡 의
말 라
보 세요.
연 과
▁이 라고
▁이 녀석
▁사 가
▁수 이
▁어 버
▁시 름
▁마 놀리오
▁때 리고
▁거 사
▁거 죠
▁안 다
▁안 쪽에
▁성 모
▁앞 선
▁예 로부터
▁떠 들고
▁허 덕
▁잔 치를
▁됐 을
▁칭 송
▁가시 지
▁동의 했다.
▁김호 장은
밑 으로
백 은
상 하고
여 사
훼 릭
▁그 애의
▁" 커
▁자 정
▁대 담한
▁내 려고
▁전 하게
▁공 자의
▁하나 님을
▁앉 게
▁양 쪽에
▁필요 하지
▁혼 을
▁칠 흑
▁15 일
▁구경 하고
▁반문 했다.
▁임진 왜
▁ ou
붙 이
업 자
▁" 먼저
▁말 하여
▁보 복
▁바 치고
▁동 훈은
▁발 코
▁노 아리
▁당신 들의
▁파 스
▁잡 는다.
▁참 혹한
▁곳 마다
▁김 동
▁산 의
▁이름 난
▁흘 리
▁높 이는
▁발견 하고는
▁벽 에는
▁약속 했다.
▁캐 더
▁일어서 는
▁h at
댁 을
우 ."
▁사 고는
▁주 십시
▁알 려고
▁안 락
▁안 부를
▁뒤 도
▁책 으로
▁알아 보고
▁오늘 에
▁검 문
었다 ,
▁유리 창을
▁역할 이
선생 님
▁끓 어
께 로
다 닥
이 오.
타 로
하 루
▁해 수
▁안 부
▁당 당히
▁경 사
▁노 비
▁강 물을
▁갈 릴
▁백 성의
▁왕 자가
▁왕 비는
▁독 이
▁8 일
▁짜 고
▁만족 스러운
▁판단 할
▁어디서 나
▁"거 기
▁부친 의
▁가다듬 고
▁나지막 한
( 5
- .
드 리는
▁수 령
▁한 걸음
▁안 시
▁못 들은
▁공 부가
▁장 석
▁선 글라
▁피 라미
▁싶 지만
▁최 소
▁충 동이
▁뜻 의
▁가슴 의
▁< 그
▁항 복을
▁밖 에도
▁일어나 면
▁"왜 ,
▁몽 둥
▁쇠 사슬
▁납 득이
▁사태 는
▁짐승 처럼
▁부러 진
▁신속 하게
댔 다
파 운
하 오
화 되고
▁아 킬
▁전 연
▁안 치
▁연 수는
▁노 랑
▁열 정을
▁배 에서
▁시간 만
▁말이 지?
▁문제 이다.
▁앞에 선
아버 지의
▁못했 었다.
▁않겠 다.
▁연락 해
▁미사 일이
▁밭 을
▁소스라 치게
러 한
렸 는데
▁그 자는
▁다 져
▁일 세."
▁기 진
▁만 의
▁중 성
▁후 궁
▁잡 혔
▁태 연한
▁남자 들을
▁소리 야?
▁담 그
▁운 운
▁기다 리게
▁헤 드라
▁결혼 하는
▁얘기 한
▁혜 택을
▁"그렇 습니다."
▁지혜 의
▁부하 들을
▁지은 이
▁주민 들은
니 ."
제 ."
▁가 물
▁지 랄
▁고 른
▁물 기가
▁미 로
▁당 했
▁데 니
▁무엇 인가.
▁이곳 까지
▁싶어 요."
▁한쪽 이
▁거느 린
▁공항 에
▁알리 바
▁부둥 켜
리 노
▁이 부
▁사 라는
▁가 렸다.
▁전 세계
▁해 설
▁눈 에도
▁입 시
▁발 전에
▁여자 라고
▁용 케
▁높 다.
▁헤 비
▁라 마
▁뚫 어져
▁닫 아
▁전투 에
▁기쁨 으로
▁가르쳐 준
▁고맙 습니다.
▁드래 곤
갔 다고
거 린
센 터
수 하고
▁그 자가
▁했 어도
▁작 전이
▁싶 다면
▁본 디
▁모습 에서
▁초 롱
▁갑 시다.
▁그때 도
▁헤 어나
▁윤 희는
▁가능 하면
▁부모 님은
▁들었 어요.
▁당황 하는
▁유지 하기
▁죽어 가고
▁놀란 다.
▁머릿 속에서
▁휘파 람
건 에
겠 습니까.
웠 기
▁이 만큼
▁나 날을
▁주 혜
▁세 일
▁손 의
▁집 까지
▁작 전에
▁몰 라."
▁일본 군의
▁야 채
▁나서 며
▁궁 지에
▁싫 다는
▁들었 기
▁못했 어요.
▁나아 갈
▁달빛 을
▁삼촌 이
는 지.
석 ,
▁나 영
▁보 기만
▁무 장한
▁못 내
▁못 하면서
▁당 돌
▁손 경
▁잠 입
▁타 르
▁힘 찬
▁포 드
▁옆 집
인데 ...
▁조선 인
▁그동안 에
▁압 축
▁덩 치
▁뉴욕 의
▁무표 정한
가 인
군 "
떼 를
질 ,
차 도
화 할
▁소 피
▁또 래
▁누 더
▁건 국
▁피 울
▁명 ,
▁허 준
▁온 종일
▁김 진
▁소리 의
▁백 여
▁터 트
▁6 ,
▁숙 명
▁돼 지를
▁익 힌
▁바다 와
▁구석 으로
▁닦 는
▁열어 젖
▁이래 로
▁같애 .
▁"설 마
▁불필 요한
▁ 리에
계 획
려 는데
례 의
정 에게
하 !
▁나 일
▁다 지
▁같 군.
▁물 음
▁동 양의
▁못 되
▁뒤 쪽에서
▁절 름
▁뭐 지?
▁복 장을
▁있겠 어요?
▁마련 이었다.
▁방안 이
▁얻어 맞
▁예상 대로
사람 들은
i p
독 은
하 세요."
▁있 느냐?
▁아 셨
▁가 본
▁유 적
▁있었 음을
▁교 활한
▁줄 기가
이었 는지
▁왕 비가
▁팔 과
▁코 웃음을
▁뛰어 내려
."그 의
▁그와 의
그래 .
▁나갔 던
▁시각 을
▁심리 적인
▁셔츠 를
▁눈치채 지
▁눈깜짝 할
경 제
우 ?
청 에서
형 사를
▁남 과
▁비 열한
▁성 관계를
▁실 질
▁요 염
▁인간 들의
▁친구 로
▁흘러 갔다.
▁가르 친
▁부르 게
▁지역 으로
▁조직 에
▁한쪽 은
▁집중 적으로
▁파고 들었다.
▁젊은이 들은
▁핑 크
▁초록 색
▁어마어 마한
박 은
▁" 젊은
▁지 문
▁시 아
▁고 물
▁생각 하고,
▁물 든
▁유 비가
▁계 십니다.
▁개 들이
▁너 나
▁용 어
▁퍼 졌다.
▁현실 은
▁청년 들이
▁역사 적인
▁붙잡 혀
▁지식 과
▁잉 태
▁6. 25
▁위엄 을
) 이다.
o v
광 은
원 이나
협 회
홍 은
▁이 성의
▁사 법
▁하 급
▁내 재
▁동 학
▁일이 지.
▁드 레스를
▁변 덕
▁악 착
▁기억 하지
▁느낌 에
▁확인 하기
▁꺼내 지
▁지금까지 도
▁바뀌 고
▁값 비싼
▁눈동 자는
▁벗겨 진
▁알몸 으로
▁여지 껏
구먼 .
▁집집 마다
간 ,
네 !
려 ,
▁오 므
▁오 연
▁세 부
▁신 진
▁싶 어도
▁원 했다.
▁허 니
▁편 성
▁독 살
▁되었 어요.
▁결혼 에
▁결혼 이
▁북 돋
다니 ...
▁"여 기는
▁마련 한
▁30 여
▁의심 하는
▁기쁨 의
▁목소리 에는
▁한명 도
과 장은
매 고
▁때 리
▁얘 기에
▁임 대
▁육 십
▁아침 마다
▁위에 다
▁걸어 오는
▁첫 사랑
▁한마디 에
▁기술 은
▁전해 주
▁정부 와
o y
규 를
났 다고
드 러
러 시아
▁것 만을
▁없 겠지만
▁않 나?
▁속 일
▁배 후
▁허 준이
▁형 벌
▁사랑 이라는
▁빠져 들
▁떼 어내
▁지역 은
▁괜찮 아.
▁뭘 하고
▁쩔 쩔
라 인
으 셨다.
절 하게
진 도
처 로
해 로
▁나 직이
▁우 왕
▁고 유
▁생각 나지
▁요 !
▁군 부
▁허 드
▁태 산
▁민 영
▁"이 것은
▁짓 게
▁즐 겼다.
▁들려 온다.
▁학생 의
▁엉 망이
▁도착 해
▁휴 전
▁멈추 게
▁쓰러 지는
▁빠져나 갈
선생 이
▁곤두 세
w h
국 민
나 이다.
▁있 구나.
▁한 순간
▁사람 일
▁전 만
▁소 시
▁저 쪽으로
▁' 카
▁끝 낼
▁변 태
▁4 9
▁없어 요
▁송 양
▁가져 왔다.
▁디 지
▁보이 지만
▁들었 는데
▁염 소
▁택 한
▁해당 되는
▁핑 계를
▁비추 고
▁ 롯
체 ,
▁사 신을
▁나 다.
▁가 할
▁가 련한
▁보 금
▁여 왕은
▁거 이
▁저 축
▁발 신
▁결 성
기를 ,
▁많 아.
▁건 가요?"
▁날 리는
▁종 범
▁정도 였
▁왜 ?"
▁어디 다
▁환 경이
▁“ 어
▁권 의
▁묻 었다.
▁레 자로
▁낙 관
▁기록 에
▁닦 으며
▁쇠 퇴
▁수행 하는
▁기어 코
▁주민 등록
▁취급 을
▁공허 한
▁도깨 비
렸 는지
▁아 차
▁나 약
▁모 아서
▁들 며
▁해 두
▁유 방은
▁자신 감이
▁피 부에
▁번 들
▁그래 요
▁검 고
▁옷 과
▁풍 기고
▁레 져
▁논 리를
▁좋을 지
▁소용 돌
▁띠 며
▁수백 만
▁고양 이를
▁축축 한
▁텔레마 케
f or
극 이
동 네
질 한
하 리라는
▁이 창
▁이 라는
▁이 어지
▁" 봉
▁" 암
▁" .....
▁나 치
▁가 급
▁대 소
▁내 각
▁전 성
▁의 무가
까지 ,
▁방 대한
▁장 학
▁선 도
▁피 트
▁길 다란
▁형 이상
▁테 오는
▁볼 에
▁궁 중
▁효 과는
▁경험 에
."그 때
▁번째 는
▁살펴 본
해지 고,
▁테이블 을
▁"얼 마
▁호주머니 에
▁ 씀
기 적인
끼 고
자 란
▁가 설
▁시 조
▁무 상
▁우 라
▁고 루
▁남 보다
▁동 기가
▁당 대의
▁얼 음이
▁돌 린다.
▁있었 습니다."
▁감 나무
▁실 수로
▁인간 들은
▁준 다면
▁그리 도
시키 면서
▁만큼 은
▁찌 르고
▁의식 에
▁못해 .
▁화려 하게
▁TV 를
▁마이크 를
▁말하기를 ,
방 법
슬 금
아 내
▁내 장
▁기 이
▁물 거
▁신 봉
▁속 이고
▁차 들이
▁그것 보다
▁파 시
▁학 문의
▁뿐 입니다."
▁창 이
▁확 률이
▁속에서 ,
▁여성 에게
▁상대 에게
▁냉 큼
▁몽 골
▁어머 님
▁"서 울
▁겨누 고
공 학
불 의
▁" 믿
▁" 편
▁" 행
▁수 작을
▁말 안
▁지 영
▁시 속
▁들 기도
▁세 살
▁"그 동안
▁배 추
▁머 금은
▁순 응
▁은 폐
▁네 명의
▁알아 요?
▁“ 저
▁이야기 이다.
▁히 는
▁응 원
▁꺼내 서
▁않겠 습니까?
▁잠깐 만
(1 5
▁좋겠 어요.
▁아닌가 요?
구만 ."
▁돌이 킬
▁털어 놓고
▁떨쳐 버릴
▁까다 로운
네 와
보 와
시 던
▁보 라는
▁대 상은
▁마 조
▁기 겁을
▁주 위가
▁입 고,
처럼 .
▁교 정
▁필요 성을
▁다가 오
▁세계 대전
▁없어 지는
▁젊은 이의
▁휘 황
▁탈 취
▁튀어나 와
▁레코 드
너 ,
다 거나
렸 어요.
버 가
재 ,
▁일 간
▁지 식은
▁시 방
▁기 미가
▁주 간
▁주 파
▁되 지만
▁물 들어
▁미 도
▁돌 리지
▁선 물이
▁피 와
▁파 워
▁형 사의
▁편 입
▁빠 르고
▁내려 앉았다.
▁< 이
▁육 중한
잖아 요
▁능 력과
▁그날 부터
▁좌 익
▁동물 은
▁우주 에
▁값 진
▁시켜 서
▁주인공 은
▁외로 움을
▁수업 이
아저 씨가
▁허공 으로
▁감미 로운
갈 이
소 년
언 의
▁이 놈의
▁가 리는
▁소 립
▁우 정은
▁서 사
-- "
▁관 을
▁분 출
▁양 도
▁찾아 오는
▁왕 자의
▁체 면
▁하여 ,
▁잊 었
하겠 지만
▁가게 에서
▁몰랐 다
▁사로잡 힌
▁제2 차
▁확신 하고
▁보인 다는
▁배낭 을
다녔 다.
▁게을 리
모 퉁
박 사
시 며
▁이 모의
▁기 약
▁정 해져
▁무 식한
▁미 동도
▁유 괴
▁' 예
▁연 관이
▁건 전한
▁후 유
▁아이 러
▁최 기
▁준 영이
▁숨 소리가
▁북 방
▁범 인의
▁탄 성을
▁담배 연
▁노력 하고
선생 의
▁돌아다녔 다.
" 이라는
( F
급 이
▁주 십시오
▁무 턱
▁제 약
▁중 령
▁아니 냐?
▁당 장은
▁노 스
▁스 를
▁몸 무게
▁요 원
▁심 오
▁박 태
▁직 장에서
▁왕 에게
▁왔 는지
▁들어가 자
▁아름다 움이
▁"" 이
▁밀어 넣었다.
▁주시 면
▁있었을 까?
▁훔 친
▁시민 들은
▁그늘 이
▁귀여 워
▁콘크리 트
i an
” 나는
더 가
범 한
요 시
인 이라는
▁아 란
▁거 머
▁해 부
▁해 놓고
▁원 재는
▁다음 부터는
▁여기 로
▁움직 이며
▁멀 거니
▁논 문을
▁그림 자는
▁밥 도
▁기대 하는
▁들어서 면서
▁곡 식
▁생각하 다가
▁대중 의
▁욕망 은
▁이루어진 다.
▁운영 하는
b er
h ing
접 을
즈 와
▁하 명
▁다 리로
▁기 척이
▁정 자
▁주 정
▁무 겁
▁불 었다.
▁얼 이
▁유 경은
▁개 똥
▁명 에
▁2 세
▁벌 일
▁이제 껏
▁창 설
▁5 5
이지 ?"
▁없어 ?
하겠 소.
▁쫓 기
▁협 상
▁못했 다고
▁당황 해서
▁철학 자
▁의심 하지
▁어지 러운
▁방향 이
▁끓 는
▁대원 들이
▁199 4년
▁충격 으로
▁대리 석
▁앞장 서
처 음
트 에게
▁" 특
▁사 연이
▁보 도를
▁한 산
▁여 신의
▁소 원이
▁' 거
▁집 게
▁연 탄
▁반 듯이
▁잠 자고
▁시작 되
▁길 도
▁허 다
▁따라 갔다.
▁남자 ,
▁국 어
▁준 다고
▁승 리의
▁남편 도
▁기억 의
▁뛰어 올라
▁[ 이
▁"그래 ."
▁가리 킨다.
▁건강 하게
▁쓰다듬 으며
▁예전 처럼
▁모순 을
▁손끝 이
▁자리잡 은
▁송두리 째
가 죽
나 가고
놈 들은
던 지
라 ...
묵 을
샤 가
▁" 석
▁" 호호
▁가 버렸다.
▁지 진
▁그녀 들의
▁경 범은
▁유 형의
▁관 리를
▁요 ?
▁매 매
▁매 서운
▁사람이 면
▁모르 니
▁김 중
▁싸 서
하였 지만
▁빼 고는
▁이어 지고
b y
노 릇
쳤 다고
▁말 리는
▁대 며
▁여 잔
▁경 작
▁과 일을
▁애 걸
▁어떻 습니까?
▁창 가에서
▁넘 고
▁로 맨
▁짓 지
▁히 죽
▁니 키
▁달라 져
▁나왔 습니다.
▁배우 지
▁폴 리
▁어떨 까
복 에
아 에게
움 ,
▁아 군
▁한 명은
▁대 마
▁내 적
▁마 틴은
▁안 하
▁서 리
▁돌 입
▁걸 레
▁태 우
▁드 백을
▁가장 자리에
▁취 하지
▁나라 와
▁사내 들은
▁맛 볼
▁지내 던
사람 이
▁바닷 가
▁뱃 속에
▁흘러내 리는
▁규칙 을
▁삼키 고
” 라고
산 업
악 이
우 도
인 이라고
족 과
▁있 거든.
▁이 ,
▁이 질
▁아 요.
▁말 게
▁자 청
▁없 잖아.
▁도 청
▁유 효
▁살 육
▁구 세
▁성 적으로
▁관 례
▁감 시를
▁놓 치고
▁김 씨는
▁애 비
▁말이 오."
▁3 9
▁정도 라면
▁임 사
▁낮 고
▁홀 짝
▁칠 십
▁들어서 고
▁같았 고,
▁17 9
▁밟 았다.
▁시골 에서
▁간호 사
▁끝났 을
▁틀림없 다.
도 대체
러 너스
신 다.
▁그 들에
▁수 필
▁자 들을
▁거 죠?"
▁오 정
▁부 의
▁손 전
▁구 식
▁따라 갈
▁점 에서는
▁없었 는데
▁테 세
▁쓸 만한
나무 의
▁쏟아 지고
▁습 관을
▁그대 들은
▁아빠 의
▁힘들 다.
-1 6
▁지옥 에
▁퉁 퉁
▁퍼부 어
▁하소 연
- 9
▁ re
▁ 랍니다.
되 이
르 ,
르 듯
쳤 지만
▁말 하던
▁일 .
▁시 문은
▁거 들었다.
▁생각 의
▁제 복을
▁영 남
▁계 층
▁순 신은
▁역 을
▁태 종
▁모르 니까
▁몰 입
▁병 으로
▁갑 판
▁4 백
▁4 0년
▁놈 들의
▁말씀 하시는
▁한국 으로
▁쳐다보 다가
▁브 랜
▁들어오 기
▁마리 안
▁펼 쳤다.
▁노예 가
▁애매 한
B I
▁ 씬
군 들은
냥 을
몰 래
새 의
테 가
▁이 래도
▁" 초
▁말 린
▁알 리지
▁제 후
▁살 로
▁방 식에
▁교 체
▁과 부
▁놀 리는
▁아직 까지도
▁법 의
▁직접 적으로
▁날카 로
▁"고 마워
▁망설 이는
▁모으 는
▁감촉 이
▁교향 곡
모 나
봐 라.
조 합
주 었던
홍 의
▁하 드
▁하 진
.. ?
▁지 점에서
▁거 요?"
▁소 금을
▁부 글
▁물 으면
▁의 원의
▁유 키
▁반 대를
▁번 뇌
▁통 째로
▁잡 초
() 라는
▁발견 되었다.
▁섬 기는
▁것만 으로
▁가까이 에서
▁관련 되어
▁대원 들은
▁다짐 했다.
▁재미있 다는
스테 파
▁저고 리
▁추경 감은
▁시치 미를
▁럭저 럭
가 야
료 는
▁세 력의
▁의 를
▁개 간
... ”“
▁잠 기
▁명 씩
▁빛 에
▁움직 인다.
▁연구 하고
▁트 로이
▁사내 와
▁휴 지
▁과학 적인
▁달아 나는
▁보호 하는
▁좁 아
▁외국 에
▁하셨 습니다.
▁영웅 은
▁트럭 이
▁드물 게
아 픈
▁일 원
▁기 관이
▁거 만
▁주 섬
▁우 승
▁상 품을
▁죽 는다.
▁매 사에
▁심 히
▁치 닫
▁드 위
▁절 박한
▁표정 의
▁숙 녀
▁냉 소
▁국민 이
▁맞아 .
사람 들이
▁"알았 어.
다 오.
록 의
바 구니
안 에는
차 에서
하 되
▁말 입니까?"
▁내 정
▁고 기가
▁제 쳐
▁장 애가
▁게 시
▁허 수
▁과 언이
▁변 모
▁모습 ,
▁동안 에는
▁용 병
▁각 자가
▁라 이나
▁맥 없이
▁돼 지고
▁녀석 들이
as s
▁소비 에
▁질러 댔다.
▁후려 쳤다.
▁명확 하게
랑 카
새 끼
용 하는
▁다 해서
▁내 친
▁마 악
▁진 리의
▁길 한
▁화 살이
▁외 사촌
▁호 송
스러 움을
▁북 을
▁뛰어 든
▁싫 어.
▁보았 다고
▁홀 린
▁책임 은
▁콜 린
▁옹 구
▁손수 건으로
: 00
i ��
교 와
무 엇
찬 은
▁있 잖아요.
▁" 혼자
▁지 니는
▁불 도
▁속 도는
▁선 의
▁언 어로
▁애 타게
▁3 층
▁초 나라
▁흔 적은
▁10 대
▁싫 다.
▁조선 은
▁띄 엄
▁K 의
▁혈 압
▁앙 상한
▁시달 리고
▁에스트라 공
경 에게
구 니가
내 에서
북 도
항 공
했 듯이
▁있 네."
▁주 실
▁주 세요
▁무 명이
▁조 나라
▁중 령은
▁의 례
▁1 인
▁발 은
▁선 명한
▁진 달
▁건 드리
▁여자 애
▁마음 놓고
▁게 이
▁통 을
▁역 사와
▁밤 에도
▁엄 한
▁갑 옷
▁항 구
▁법 한
리며 ,
▁움직 임은
▁멀 뚱
▁가르 칠
▁미소 는
▁붓 다의
▁죽여 야
▁말투 는
주머니 에
▁치밀 한
▁제3 의
▁오스트 리아
▁ 께
세 였다.
수 라는
일 에는
투 가
▁이 의를
▁정 원에
▁우 람
▁비 용이
▁미 하
▁돌 기
▁속 여
▁영 감을
▁노 무
▁병 욱은
▁누구 인가?
▁좌 석에
▁말했 어요.
▁뻗 어나
▁세월 의
> 과
리 트
부 딪
지 에게
코 와
▁있 죠?
▁이 반
▁" 범
▁다 부
▁모 이
▁시 설을
▁소 환
▁인 조
▁비 쳤다.
▁공 경
▁영 위
▁개 국
▁2 시
▁음 산한
▁막 히는
▁총 애를
▁희 한
▁키 는
나무 ,
▁불안 이
."그 들은
▁은근 한
▁알몸 을
▁공무 원
절 도
▁아 물
▁하 리
▁나 도록
▁수 표를
▁기 적을
▁소 란을
▁오 면서
▁중 생
▁문 으로
▁속 수
▁여자 들도
▁박 사와
▁증 세가
▁꽃 들이
▁휘 둘렀다.
▁보이 면서
▁교육 에
▁현실 과
▁찍 었다.
▁짧 고
▁공중 에서
▁나타났 다
▁잉 그
▁공통 된
▁지긋 지
규 칙
꾼 의
더 의
물 이다.
범 으로
벨 은
왔 는지
▁일 연은
▁시 킬
▁기 자의
▁당 직
▁차 도
▁계 열
▁단 서를
▁병 의
▁질 서가
▁처음 의
▁세계 적으로
▁대학 원
▁밥 은
▁나타나 게
▁여행 은
▁날아 오는
▁탁 자에
▁고맙 다고
▁지극 한
▁m an
▁떨구 었다.
▁거들 떠
▁바그 완
리 리
웅 이
입 에서
재 에
지 더니
▁그 럽
▁한 명의
▁일 자
▁해 요
▁상 무
▁따 질
▁뒤 부터
▁진 상을
▁건 이
▁잔 이
▁안돼 ."
생활 은
▁호랑 이가
데 스는
▁" 따
▁사 오
▁수 감
▁말 들은
▁기 피
▁기 세가
▁인 과
▁아니 었습니다.
▁연 달아
▁노 부
▁관 현
▁후 진
▁가지 에
▁평 민
▁테 고,
▁혜 진이
▁쓰러 지고
▁"좋 습니다.
▁제외 하고
▁인류 는
▁은밀 하게
▁우려 가
▁공화 국
▁ 으면서
닥 쳐
들 ...
▁" 작
▁내 팽
▁누 나를
▁반 지
요." 하고
▁매 개
▁행 세
이었 지요.
▁치 부
▁정도 다.
▁지나 도록
▁합 세
▁내게 서
▁부모 님의
▁굳 어진
▁품 위
▁탐 사
▁도망 칠
▁들여다보 는
▁에너 지는
▁섹 스에
▁생겨 났다.
▁비난 하는
▁거아 냐?
8 년에
나 니
부 장은
수 고
해 요?
▁이 석
▁시 위를
▁무 대에
▁고 성
▁인 식을
▁비 해서
▁동 작이
▁신 주
▁못 하던
▁돌 면서
▁받 침
▁표 지
▁외 마디
▁채 취
▁소리 치고
▁한국 은
▁꽃 과
▁노래 하는
▁디 ,
▁"그러 지
▁건너 편에
▁요구 할
▁자식 들을
▁맺 혀
▁신문 사
▁데려 온
▁봤 을
나마 나
▁여기저 기에
▁허락 해
▁부하 들이
▁"다 음
▁동원 하여
▁비극 적인
▁한반 도
▁유익 한
돼 ."
리 스가
장 만
▁나 게
▁마 법을
▁정 상에
▁되 려고
▁공 장에
▁계 몽
▁화 제가
▁난 다
▁금 성
▁한국 군
▁갔 다는
▁부분 에서
▁찍 고
▁아가 씨의
▁받았 습니다.
▁주시 하고
▁증거 는
▁# 4
▁페이 시아가
▁골드 문
기 (
데 ...
세 요"
자 동
지 었다.
컴 퓨터
트 워
화 시켜
▁" -
▁하 라."
▁대 명
▁정 경
▁무 기가
▁안 하는
▁의 사와
▁선 과
▁선 풍
▁진 공
▁앞 치
▁통 보
▁청 계
▁숨 가
▁별 거
▁붙 일
▁놀라 움을
▁송 곳
▁설명 은
▁흥분 해서
▁까마 귀
▁순조 롭게
a u
▁ 었
고 ?
려 하고
여 러
일 까지
짐 에
형 님
▁가 연
▁기 계가
▁안 되고
▁' 노
▁데 ...
▁피 해서
▁원 소
▁헤 어졌다.
▁견 고
▁듣고 만
▁섬 으로
라구 요?
▁흩 어졌다.
▁언덕 에
▁바보 가
▁엉덩 이가
▁"아직 도
▁대대 적인
▁떨구 고
가 방을
극 의
맹 이
버 렸다
스 름
지 사
▁마 마의
▁부 득이
▁도 입을
▁감 방
▁진 이
▁하고 자
▁처 신
▁끝 은
▁어떻 겠
▁최 중
▁합 시다."
▁보았 지만,
▁실제 적인
▁쌓 고
▁무시 한
▁붙잡 았다.
▁때문이 기도
▁사로잡 혔다.
▁작용 하는
▁액 체가
▁니콜 라
▁아나 운
별 한
보 고,
▁있 음에도
▁" 평
▁나 .
▁지 상에서
▁정 은
▁생각 되지
▁서 북
▁유 동
▁천 행
▁몇 해
▁팔 은
▁황 혼
▁“ 내가
▁복 을
▁있다고 는
되었 으며
▁끊 은
▁있으면 ,
▁낳 게
▁나아 가는
▁걷어 다.
] 의
▁ _
▁ 는데
주 리는
▁보 배
▁무 질
▁무 정은
▁부 대의
▁하나 와
▁일이 지
▁벌 렸다.
▁백 번
▁에 디
▁레 긴
▁한번 은
▁보내 며
▁자연 이
▁갖추 어
▁짐승 이
▁고마 움을
▁점차 로
▁어지간 히
▁스프 링
▁ 립
렀 다
크 에서
티 에
▁" 식
▁" 휴
▁사람 마다
▁안 계
▁남 해
▁동 아시아
▁서 경
▁경 의
▁방 공
▁누 리고
▁줄 거
▁천 문
▁말이 오?
▁계속 될
▁이름 만
▁복 제
▁밖 은
▁다니 지
▁보아 서는
▁가리 킨
▁할아버 지를
▁인사 도
▁이론 에
▁보였 습니다.
▁훼릭 스
▁헤매 는
▁핀 잔을
▁카르 마는
▁잡아당 겼다.
▁슬금 슬금
고 분
데 가
바 보
인 (
▁사 연
▁대 회
▁거 라면
▁고 상한
▁동 참
▁저 럭
▁많 고,
▁현 존
▁내려 오고
▁뿐 이라는
▁귀 기
▁창 으로
▁임 무는
▁않을 까.
▁짓 는다.
▁흐 린
▁하늘 에는
하였 기
▁"저 녁
▁사나 이를
▁컴퓨터 는
▁운전 사가
▁물리 적
▁본질 적으로
▁벅 찬
4 년에
내 었다.
쳤 고,
▁나 에겐
▁말 렸다.
▁자 아를
▁사람 으로서
▁생각 했지만
▁들어 요.
▁돌 변
▁유 라
▁노 옥
▁화 해
▁사람이 었
▁앉 고
▁양 산
▁회 담
▁네 놈이
▁합 리적
▁잔 치
▁4 7
▁뭐 야?"
▁총 구를
▁법 에
▁접 속
▁경찰 관이
▁면 치
▁말해 도
▁과학 이
▁이내 에
▁증명 할
un d
▁명백 히
▁위스키 를
▁소름 끼
▁ 럼
구 조
차 와
▁이 쯤
▁일 였다.
▁대 적
▁시 련을
▁생 계를
▁부 랑
▁경 전
▁유 람
▁입 국
▁선 임
▁돌아 오고
▁싶 지가
▁게 요.
▁명 사
▁3 )
▁직 장에
▁황 당한
▁얘기 였다.
▁끊 을
▁준비 되어
▁꼬 집
▁고통 스러워
▁사내 였다.
▁부탁 해
▁여겨 진다.
▁무의 미한
▁붕 대를
▁출신 으로
▁이탈리아 의
▁부릅 뜨고
▁비아 냥
k now
▁ 000
골 에
달 라
드 립니다.
레 스의
바 리
블 로
요 일이
입 이
했 지
▁나 직하게
▁어 제는
▁지 장
▁전 당
▁무 술
▁알 베르
▁비 오는
▁상 에
▁피 운
▁말이 에
▁침 울한
▁권 태
▁움직 임에
▁뿌 린
▁옳 았다.
▁"한 번
▁방문 한
▁예술 의
▁모자 라는
▁우두 머리
▁급속 히
▁ 졌
▁일 구
▁내 자
▁시 정
▁여 옥
▁정 권의
▁전 차를
▁오 려
▁공 정
▁연 민
▁번 ,
이라 니?
▁삼 은
▁혼 수
▁느낌 으로
▁오른 다.
▁찌 그러
▁현재 는
▁지하 에
▁수행 할
▁회의 에
▁킬 킬
상 으로는
줄 기
▁" 머
▁한 줌
▁주 제를
▁부 속
▁조 이
▁살 벌
▁건 전
▁단 정한
▁간 행
▁역 으로
▁태 세를
▁김 장
▁애 초부터
▁점 수를
▁갈 겼다.
▁일어 설
▁그날 이
▁조선 시대
▁쥐 가
▁비행 기는
▁공부 도
하신 다면
▁여인 에게
▁한숨 이
▁꾸짖 었다.
▁정일휘 는
▁"죄송 합니다.
섞 인
아 빠
우 로
음 도
틈 이
하 마
▁그 머니
▁사 그라
▁보 드
▁마 늘
▁소 독
▁부 귀
▁경 비를
▁받 던
▁누 님
▁스 핑크
▁길 이다.
▁과 장은
▁웃 기만
▁추 위에
▁독 수리
▁바깥 에서
▁액 체
▁시키 고
▁"오빠 ,
▁궁극 적인
▁ 랄
작 의
포 와
▁어 선
▁일 에서
▁모 락
▁조 립
▁인 도에
▁중 ,
▁영 희
▁뒤 바
▁식 량을
▁꺼 낼
▁골 라서
▁놀라 울
▁견 디어
▁거야 !"
▁12 시
▁18 3
▁인물 이다.
▁I t
▁대원 군의
▁것인 지는
▁이기 적인
▁싶었 으나
▁"바 보
▁상냥 한
▁바실 리
▁차갑 고
) '
됐 다는
래 �
설 의
실 장
정 )
줘 요."
▁수 련을
▁시 계는
▁소 제목:
▁선 선
▁피 한
▁예 는
▁그렇 지?
▁"아 이고,
▁출 입을
▁나타 낸다.
▁프 크
▁놈 아,
▁세계 대
▁머리 에는
▁이후 로는
▁불안 에
▁징 조
▁폴 은
▁시대 에는
▁멸 종
▁색깔 의
▁비참 하게
▁헤르 메
먹 기
민 주
사 업
왔 기
자 국
쳤 고
▁지 바
▁것이 라도
▁전 라
▁되 겠다는
▁세 트
▁미 적
▁저 나
▁공 신
▁발 상
▁받 으러
... 이
▁보고 자
▁싸 워야
▁황 송
▁토 닥
▁흐 름이
▁견 제
▁끄덕 이
ou nd
▁작품 이다.
▁날아 온
▁반짝 이고
▁일그러 졌다.
▁비겁 한
% ,
금 에
성 이다.
엄 마가
지 을
철 에
▁나 어
▁가 혹
▁모 임에
▁도 구를
▁진 전
▁날 뛰
▁교 묘한
▁온 화한
▁편 은
▁풀 어놓
▁옷 으로
▁다가 와서
▁서울 대
▁떼 었다.
▁곤 경에
▁화장 품
▁시골 에
▁부친 이
▁공항 에서
▁며느 리가
▁바래 다
u ch
객 을
격 인
숙 이가
▁" 옥
▁인 구의
▁세 력은
▁선 반
▁박 또
▁표 면에
▁타 이트
되어 ,
▁"어 때
▁라 구.
▁곁 들여
▁올려 놓은
▁퇴 각
▁끓 어오르는
▁참석 한
▁추억 이
▁김대 평은
" 에서
으 시고
▁이 별을
▁부 럽
▁비 키
▁물 한
▁영 희의
▁반 장
▁단 연
▁원 장이
▁간 격을
▁최 진
▁산 더미
▁리 타는
▁끼 는
▁얘기 하지
▁칼 리
▁정치 ,
▁됐 어요.
▁주변 에는
▁"뭐 ?
▁족 히
감 에서
대 인
받 으며
스 나
으 이
▁다 운
▁시 중
▁기 양양
▁전 지
▁비 우
▁살 살
▁싶 습니다."
▁명 동
▁요 ,
▁매 여
▁형 제의
▁김 선
▁힘 겨운
▁밤 도
▁존재 였다.
▁답 했다.
at e
▁기록 한
▁강조 하고
▁완전 하게
▁흐름 에
▁어우 러져
▁공교롭게 도
▁있 구나
▁아 냐?
▁알 지만
▁물 기를
▁세 찬
▁못 하며
▁방 과
▁따 위로
▁많 았던
▁매 료
▁넘 지
▁엄 연히
▁각 국의
▁빨 고
▁증 상이
▁쓴 다는
▁생명 체
▁제시 한
▁방해 하는
▁공식 적으로
▁두루 마
▁뒤쫓 아
▁필연 적으로
▁여불 위는
▁전생 에
걸 음을
그 것은
동 물
떼 의
설 레
오 도
탁 이
▁있 답니다.
▁이 국
▁대 외
▁기 호
▁세 이
▁' 안
▁걸 으면서
▁발 끈
▁노 트를
▁열 거
▁외 롭게
▁김 경
▁최 한
▁병 사는
▁복 지
▁사용 되고
▁내리 게
▁만족 하지
▁C h
▁보호 하기
▁물고 기를
▁최근 에는
▁13 .
▁뉴욕 에
페르 타
▁에리카 는
가 ."
궁 에서
락 은
죽 지
증 ,
천 ,
파 게
해 요
화 될
▁수 영을
▁일 에도
▁일 년에
▁들어 설
▁1 개
▁속 옷을
▁개 운
▁놓 아야
▁온 건
▁타 기
▁볼 이
▁바라보 니
▁정말 이
▁않아 ,
▁한번 의
▁윤 선
▁느껴 져
▁새벽 부터
▁절대 적
▁뻗 고
▁겪 어야
▁몰려 와
▁하느 라
▁자료 가
▁특징 이
▁버릇 을
▁태도 였다.
▁"어머니 가
▁행렬 이
▁적절 히
. ]
A R
p er
가 만
내 려고
니 로
지 휘
집 ,
▁자 야
▁자 책
▁정 적이
▁전 할
▁미 나
▁장 사가
▁분 수
▁단 군
▁편 치
▁음 ,
▁독 을
▁않을 까요?
▁카 자
▁약속 은
▁칠 한
▁받았 다고
▁"한 국
▁말하자 면,
▁마루 로
▁ v
상 자
좌 에
철 과
▁사 생
▁보 세요."
▁대 주
▁마 차가
▁전 처럼
▁신 령
▁시작 해야
▁2 층으로
() 이라
▁왔 었
▁얼마 안
▁위해서 가
다니 ?
▁그림 에
▁민족 을
▁놓여 져
▁"어머니 는
실 록
입 니까
제 서야
학 자들은
▁무 우
▁무 리한
▁생각 하던
▁두 시
▁박 진
▁역 전
▁과 잉
▁앉 았다
▁친 일
▁않았 는지
가지 의
▁올라 간다.
▁욕 지
▁격 추
▁표현 하고
▁넓 혀
▁성격 에
▁소개 한
▁배우 게
▁아줌 마는
▁출근 을
▁나쁘 지
▁시나 리
봉 사
▁이 사는
▁사 주는
▁수 국
▁수 에
▁지 마
▁마 녀
▁비 바람
▁실 었다.
() 이라고
▁먼 길을
▁황 당
▁6 천
▁극 도의
▁뜨 지
▁못해 요.
!! !"
▁궁금 해서
▁겉 모
you r
▁불렀 다
▁밤낮 으로
y .
걸 .
곤 은
교 로
신 경
키 아
▁이 두
▁것 밖에
▁사 피
▁가 하는
▁없 구나.
▁않 으니까
▁시 다
▁비 늘
▁공 인
▁걸 으며
▁피 어나
▁잠 재의
▁4 3
▁터 지고
▁않아 야
▁싫 어요.
▁전쟁 으로
▁흘러 가
▁가족 들을
▁몹 쓸
구려 ."
▁띠 었다.
▁인식 하고
▁잎 을
▁류지 오의
▁그놈 을
▁강하 영의
▁팽팽 하게
갑 이
능 력을
도 서
씨 로
▁말 하니
▁한 심한
▁지 망
▁정 열을
▁두 고,
▁불 효
다고 .
▁연 이
▁숨 긴
▁뭐 ."
▁판 명
▁중요 하다고
▁전화 기
▁느껴 졌다
▁숲 은
▁다음날 ,
어졌 다
▁형성 된
▁집어넣 고
▁결론 에
▁공손 하게
▁종업 원
카 페
▁그 쪽을
▁그 말에
▁아 십니까?
▁하 였던
▁말 좀
▁말 하고,
▁어 여
▁자 치
▁제 나라
▁신 문이
▁재 를
▁모르 겠어
▁애 꾸
▁필 경
▁남자 로
▁백 악
▁둘 로
▁환 생
▁헤 어지는
▁베 스트
▁라 다
▁키 우고
▁속삭 이는
▁아시 다시피
▁채워 져
▁덩어 리를
( 대
7 년에
▁ 리를
강 과
소 이
현 화는
▁" 운
▁기 사의
▁인 정한
▁유 린
▁유 방이
▁선 박
▁마음 가
▁2 주
▁행 사를
▁최 상
▁준 호는
주의 ,
▁선생 과
▁말씀 입니다.
▁모양 이었다
▁꺼 야.
▁아내 도
▁섬 유
▁뚜 벅
▁물질 적인
▁처리 해
▁단단 하게
▁햇빛 에
▁"일 단
▁이승 만
▁건드 리지
▁"흥 ,
( 아
겨 우
깨 나
롭 다는
심 ,
애 하는
하 길
▁이 쪽에서
▁사 코
▁수 진이
▁다 독
▁여 인과
▁주 한
▁생각 입니다.
▁비 하여
▁불 길을
▁세 어
▁의 원을
▁데 이트를
▁여자 처럼
▁강 둑
▁열 네
▁잡 으면
▁온 도
▁병 원의
▁테 스는
▁환 자들이
▁오늘 밤
▁순간 적인
▁A ��
▁눈물 은
▁내려가 면
▁것들이 다.
▁영향 이
▁빙글 빙
기 록
랑 에
르 바
병 들을
하 우
행 하는
▁자 장
▁시 련
▁생 명은
▁전 기를
▁소 위는
▁불 거
▁상 경
▁신 들이
▁더 블
▁방 관
▁앞 장을
▁게 르
▁찾 으려
▁2 개
▁민 태
▁철 썩
▁에 세이
▁코 카
다니 던
▁같아 서는
▁띄 워
▁왼 손으로
▁살해 된
▁다스 릴
레 스가
말 입니다.
영 이는
점 도
주 :
하 우스
▁하 므로
▁일 당
▁들 인
▁부 과
요. ”“
▁해 댔다.
▁중 상
▁아니 냐.
▁못 되었다.
▁문 안
▁장 님
▁차 안에서
▁연 주가
▁실 을
▁군 사는
▁학 문이
▁바라 보다
▁지나 갔
▁필요 합니다.
▁터 이다.
▁없을 까?
▁꾸 는
▁부모 님을
▁쫓 는
▁해주 시
▁햇 에
▁있다가 ,
▁겪 었던
▁우주 선
▁개미 의
▁불가능 했다.
▁식당 을
▁대대 장은
▁포르 노
▁고등 학생
▁ 랬
▁것 뿐이었다.
▁사 자를
▁보 겠다는
▁거 요
▁고 유한
▁동 여
▁아니 시
▁당 기는
▁경 의를
하지 마.
▁진 현
▁파 편
▁벌 어져
▁사랑 스러운
▁남자 에
▁� a
▁기록 하고
▁거기에 다
▁하였 지만
▁묶 고
▁곱 슬
▁망설 이고
▁서늘 한
▁시베 리아
니 !
되 며,
장 할
틀 에
▁이 아
▁아 연
▁사 상에
▁기 댔다.
▁정 관
▁정 글
▁전 제로
▁오 행
▁만 리
▁만 물의
▁세 대의
▁받 들고
▁열 살
▁배 열
▁처 벌을
▁현 무는
▁매 섭
▁가까 웠다.
▁골 동
▁걱정 말
▁냉 동
▁형태 는
▁"세 상에
▁어때 요?
▁기준 을
▁삼키 며
▁자진 해서
- 0
군 요!
기 .
대 장이
동 이가
락 에서
몽 의
십 니까
예 요"
▁마 피아
▁고 유의
▁우리 네
▁열 망
▁피 비린
▁명 성
▁간 수
이었 소.
▁애 버리는
▁그렇 지만,
▁왜 ,
▁향 수를
▁용 기와
▁누구 야?
▁업 적을
▁맺 어
▁속삭 인다.
보 호
자 국이
▁보 석을
▁지 훈이
▁주 목을
▁피 스
▁사이 에도
▁창 시
▁창 조의
▁체 결
▁활 기를
▁답 장을
▁부탁 한
▁중얼 거리고
▁뚫 려
▁혹시 라도
▁반대 편
▁감추 었다.
▁언니 를
▁신체 적
▁수입 이
▁"아이 구,
▁끈질 긴
▁초인 종을
공 장
삼 의
자 들에
철 에게
▁" 할아버
▁자 석
▁주 리를
▁조 오
▁남 원
▁도 록
▁구 절을
▁집 이었다.
▁"그 거야
▁선 회
▁따 끔
▁허 준은
에서는 ,
▁직 한
▁금 시
▁듣 는다.
▁코 미
▁접 대
▁행동 할
더라도 ,
▁이후 에도
▁덩 치가
▁교회 를
었는데 도
▁감정 과
▁삐 죽
▁민주 당
▁확신 할
▁웃어 댔다.
▁섰 던
▁헤엄 쳐
▁바빠 서
▁클레오 파트
구 리
드 득
들 린
디 에
렀 던
왔 다는
처 의
청 으로
▁가 도록
▁수 잇
▁대 화의
▁정 월
▁주 식을
▁오 월
▁해 독
▁조 국의
▁상 소
▁경 과
▁성 적이
▁처 량
() 한
▁합 동
▁토 리아
▁야 단을
▁키 득
▁여행 이
▁뇌 의
▁영웅 의
▁괴롭 히
▁바탕 을
▁지나가 던
▁갑작 스레
▁무지 개
▁ y
▁ 렸다.
거 지를
구 ?"
기 인
박 사가
울 었다.
천 에서
훈 과
▁" I
▁아 .
▁하 옵
▁내 성
▁주 위로
▁물 씬
▁동 동
▁구 호
▁연 재
▁하나 님은
▁재 혼
▁놓 친
▁앉 혔다.
▁채 소
▁사이 렌
▁검 붉은
▁관계 된
▁루 스
▁섬 광
▁염 색
▁맹 세를
▁괜찮 아요.
▁걸려 서
▁철학 은
▁뭉 치를
▁본능 적인
▁람세 스가
▁플라 톤
5 년에
덩 어리
데 로
정 치
조 사
키 로
▁이 겼
▁이 문
▁사 마의
▁수 하
▁생각 엔
▁해 !
▁신 작
▁유 산을
▁장 가를
▁입 게
▁반 으로
▁건 다
▁후 후
▁명 색이
▁심 의
▁박 성
▁놓 았다
▁않았 소.
▁크 를
▁땅 콩
▁영화 에서
▁빗 은
▁종교 는
▁"응 ?
▁케이 시는
▁장악 하고
▁충실 히
▁백수웅 은
▁그나 저
( 영
남 에
들 아,
량 에
받 았
혀 를
▁것 까지는
▁아 시는
▁하 든지
▁다 네.
▁기 형
▁무 던
▁무 기로
▁제 품을
▁눈 망
▁돌 보는
▁문 수
▁구 현
▁좋 으면
▁일이 야?
▁3 시
▁국 가는
▁나타 내지
▁헤 로
▁이야기 들을
▁전화 한
▁꼬 리가
▁"그러 고
▁"사 실은
▁새벽 의
(1 6
▁밀려 오는
▁육체 에
▁여겨 지는
▁보냈 던
▁싸우 지
▁경쟁 을
▁갑작 스러운
▁씨앗 을
▁"이번 에는
▁버지 니아
경 감은
끝 으로
방 한
쩌 렁
해 ?"
▁정 밀
▁무 심한
▁되 셨
▁불 명
▁공 장의
▁유 력한
▁진 왕
▁김 은
▁다음 부터
▁볼 펜
▁탄 광
▁붉 혔다.
라구 ?
▁달아 올랐다.
▁시민 들이
▁희망 은
▁의지 하고
▁장미 꽃
▁동성 애
i re
괘 가
률 을
르 트의
워 지고
칼 로
튼 의
하 께서
▁" 옳
▁마 르고
▁거 니까
▁부 장은
▁동 림은
▁서 현은
▁도 에
▁있었 는지도
▁연 한
▁노 인에게
▁허 위
▁음 모가
▁막 연히
▁담 요를
▁토 로
▁늘 고
▁흐 른다.
▁끼 쳐
▁S he
▁너희 들의
▁입술 로
▁벨 로
▁일어났 을
▁내던 져
▁무르 익
6 년에
공 업
초 ,
타 르
▁있 거든요.
▁하 란
▁어 휘
▁한 지
▁전 경
▁주 니
▁고 달
▁두 만
▁서 투
▁의 기
▁개 처럼
▁여자 .
▁현 화는
▁화 요일
▁천 을
▁놀 다가
▁담 장
▁권 한을
▁젖 히고
▁마련 된
▁풀어 주
▁아우 성
▁욕망 에
▁피우 며
▁강인 한
괘 의
내 서
전 투
했 어."
▁없 으니까.
▁지 레
▁지 점을
▁거 둘
▁오 사
▁신 임을
▁유 러너스
▁' 왜
▁연 령
▁했 죠.
▁몸 매를
▁후 로는
▁적 중
▁심 리를
▁외 침이
▁경우 와
▁농 경
▁6 일
▁실제 의
▁현실 에서
▁옳 고
▁침묵 의
▁매달 아
▁의사 에게
▁"전 화
▁슈 리
▁16 0
▁f rom
▁크리스 마
▁절망 의
▁출신 인
대학 에
▁안녕 하
▁사귀 는
▁치솟 아
▁올려다보 며
▁필라 델
2 년에
과 장이
방 ,
브 로
언 정
용 서
장 !
종 ,
했 어
회 와
▁사 부
▁가 신
▁한 판
▁정 문을
▁거 냐?"
▁부 위를
▁물 색
▁올 케
▁명 주
▁일이 니
▁화 면이
▁참 는
▁넘 나
▁얘 기로
▁5 시
▁대답 했습니다.
▁폭 행
▁해야 지.
▁자연 은
▁가운데 로
어지 고,
▁마시 기
▁십 자
▁맹 렬히
▁받는 다는
▁턱 에
▁따름 이다.
) 이라고
▁ 르르
동 이를
백 산
복 과
사 고
세 도
▁그 ,
▁지 켰
▁마 니
▁정 미
▁오 웬
▁같 군요."
▁인 사가
▁아니 게
▁서 슬
▁저 게
▁장 래에
▁매 는
▁파 리를
▁별 명이
▁황 태
▁오늘 부터
▁이루 며
▁떠나 가
▁나오 는데
▁숙 소로
▁사람들 한테
▁섬 이
▁하기 에는
▁빗 방울
▁객관 적인
▁배고 픔
▁행방 불
공 화
그 건
로 선
박 사는
스 스
▁말 합니다.
▁않 습니다
▁주 상
▁구 명
▁걸 까
▁걸 다
▁발 목
▁계 란
▁개 체
▁반 장이
▁열 일곱
▁파 리로
▁회 사로
▁왕 래
▁5 만
▁복 이
▁아래 층으로
▁틀 렸
▁하루 라도
▁뭔 데
▁돌려 서
▁탁 자를
▁같았 어요.
▁발표 했다.
▁변호 사는
▁반복 해서
▁단계 에서
▁쫓겨 나
▁피워 물었다.
▁ 름한
건 만,
겠 군."
딘 은
항 에
▁시 들
▁기 름이
▁되 겠다고
▁알 맞게
▁제 라
▁장 승
▁하나 님께
▁단 서가
▁원 장의
▁심 은
▁치 자
▁자네 와
▁부모 에게
▁조직 은
▁중얼 거리는
▁웃음 으로
▁문학 적
▁신앙 을
난 이
세 라
술 과
택 의
▁자 녀를
▁한 쌍
▁대 제
▁모 질
▁기 석은
▁정 남
▁주 제로
▁비 껴
▁불 신
▁건 지도
▁실 체를
▁따라 와
▁와 중에
▁만들 려고
▁만들 었다
▁망 치
▁그에게 로
▁낮 잠을
▁색 을
▁다이 얼을
▁만남 이
▁"얘 ,
▁천주 교
십 니까.
족 들이
핏 하면
하 셔야
▁하 베
▁보 상을
▁지 어진
▁알 지?
▁물 었을
▁중 추
▁공 자는
▁' 서
▁뒤 돌아
▁진 영은
▁여자 들과
▁적 당
▁예 리
▁허 가를
▁잡 게
▁드 시
▁맞 닥
▁초 를
▁팔 십
▁잔 씩
▁복 도에
▁봉 기
▁근처 를
시켰 다
▁ 든지
구 경
적 과
▁지 뢰
▁부 대에
▁고 종은
▁신 부를
▁미 장
▁유 흥
▁노 를
▁관 자
▁건 ,
▁작 전은
▁명 이나
▁교 제
▁간 밤에
▁먹 던
▁참 새
▁귀 담
▁환 희
▁증 발
▁보내 게
▁발견 하는
▁전쟁 과
▁그랬 다
▁국민 들의
▁역할 은
▁손님 들은
▁좁 고
▁씻 겨
▁훼 손
▁엎드 렸다.
머 리의
살 인
설 과
원 이었다.
임 에는
장 )
카 와
파 ,
▁여 가
▁여 념이
▁정 원의
▁주 형
▁무 장을
▁남 성과
▁불 기
▁유 리가
▁관 리가
▁참 다
▁아이 처럼
▁힘 들고
▁특 권
▁울 창한
▁처음 이
▁체 하고
▁늘 상
▁범 위
▁나오 며
▁굴 려
▁물건 들이
▁달리 ,
▁할머니 와
어가 면서
▁미소 로
▁많아 요.
▁물리 치고
▁스며 들어
▁"결 혼
▁드러누 워
추경 감이
( 7
- 8
일 이었다.
▁" 희
▁지 위에
▁생 물의
▁걸 음이
▁선 입
▁노 론
▁당신 에
▁종 묘
▁놀 이터
▁편 리한
▁민 소
▁철 민이
한테 로
▁쳐 들었다.
▁판 결을
▁딸 려
아버 린
▁아니었 고,
▁건물 로
▁신문 에서
▁포기 하는
거니 와,
▁검토 해
▁팽팽 한
9 년에
라 하고
봤 자
어 머
▁사 메
▁수 지
▁한 손
▁기 의
▁정 립
▁우 의
▁안 달
다고 ?
▁못 생긴
▁' 상
▁감 정으로
▁스 의
▁실 수가
▁파 울
▁박 이
▁난 감한
▁않았 으므로
▁추 었다.
▁다음 에도
▁아버 님이
▁무엇 입니까?
▁숨 소리
▁사라 진다.
▁오래 간
▁찬 사를
▁여러분 들은
▁어른 들의
▁오후 의
▁되겠 다.
▁육체 와
▁쳐다 본다.
▁드러내 며
▁근육 을
▁걸어나 갔다.
▁예쁘 고
▁부수 고
▁비타 민
n t
리 곤
매 에
탑 을
▁내 이
▁마 무
▁알 바
다고 ,
▁저 ,
▁처 마
▁행 한
▁교 포
▁청 암
▁되었 으며
▁권 력이
▁선생 ,
▁메 디
▁삶 에서
▁끊 어져
▁못했 고
▁말이다. "
▁당황 하여
▁운전 사는
▁바깥 에
▁199 3년
▁관심 도
다" 는
▁단계 로
▁전하 께
~~ ~~
> 와
몽 이
액 은
운 동을
필 의
▁그 럭
▁" 실은
▁사 후
▁불 합
▁경 기를
▁장 황
▁누 렇게
▁하나 다.
▁번 식
▁작 별을
▁게 다
▁매 수
▁참 나무
▁경우 엔
▁윤 이
되었 으나
▁던 지며
▁퍼 뜨
▁디 오니
▁부르 주
▁품 을
▁닿 은
▁주저 하지
▁맘 이
▁대화 에
▁알렉산 드
▁흐뭇 한
계 속
말 고도
무 라는
스 투
해 갔다.
▁수 풀
▁말 똥
▁말 릴
▁말 하려
▁기 준이
▁기 차는
▁우 호
▁인 적
▁인 도를
▁눈 가에
▁못 하다는
▁도 발
▁공 연을
▁걸 지
▁따 분
▁따 른다.
▁여자 들에게
▁길 어
▁태 조는
▁치 르는
▁양 손으로
▁추 켜
▁필요 를
▁용 인
▁들어가 면서
▁자연 적인
▁빌 린
▁것과 ,
▁부인 ,
▁동네 에
▁부끄러 움을
▁평화 롭게
데 르
들 려
디 와
자 로서의
▁것 임에
▁일 변
▁조 상의
▁두 목
▁중 립
▁노 상
▁요 양
▁통 용
▁천 장에
▁김 윤
▁뿐 이에요.
▁담 담한
▁엄 연한
▁달려 오고
▁떠나 면
▁보여 서
▁가져 오는
▁가족 들의
▁부분 으로
▁문화 와
▁깨닫 는
으시 오.
마침 내
▁에워싸 고
i es
굴 에
엄 하게
자 였던
참 모
태 평
▁수 갑을
▁일 상의
▁주 었다는
▁부 당
▁남 는다.
▁속 한다.
▁그것 만
▁연 루
▁데 스
▁하나 님께서
▁처 가
▁간 직한
▁말이 라고
▁이상 이나
▁병 사를
▁식 별
▁회 수
▁별 도
▁이야기 ,
▁죄 는
▁자리 에는
▁"그렇 다
▁창조 적인
▁"허 허,
▁창고 에
▁서슴 없이
( 서
▁ 론
겠 군요."
공 주는
관 들의
아 나
주 었다
질 도
▁사 자가
▁가 랑
▁말 가리
▁도 읍
▁도 화
▁유 모
▁몸 속으로
▁너 희는
▁화 상
이었 으나,
▁쓰 려고
▁초 저녁
▁크 림은
▁대답 한
▁좋아 한다는
▁아침 에는
▁칠 성
▁혁 신
▁까닭 이다.
▁여인 숙
▁갖다 댔다.
▁제거 하는
▁명확 한
▁월급 을
T he
간 과
노 인
범 벅이
부 장의
어 찌
지 요,
쾌 히
▁하 오
▁자 루를
▁부 름을
▁고 르는
지만 .
▁비 장한
▁장 영
▁사이 에서는
▁백 지
▁울 며
▁승 리로
▁나무 랄
▁흔들 리지
▁여러분 을
▁않겠 어요.
▁무렵 의
▁청년 들은
▁탓 이었다.
▁둥 둥
▁끓 고
▁예전 에는
갈 기
공 과
로 스는
암 을
임 으로
쟁 을
험 이
▁것 에도
▁자 자
▁우 정이
▁제 7
▁유 용한
▁배 어나
▁파 도를
▁군 요
▁난 리가
▁외 양
▁변 하여
▁밀 리
▁바람 처럼
▁풍 속
▁걸어 야
▁끼 친
▁능 동
▁도착 해서
▁부르 면
▁"여 긴
▁물러 설
▁인물 의
▁전문 적인
▁골목 에
▁쫓겨 난
▁주목 할
▁감돌 고
b le
겠 노라고
기 엔
년 도
이 죠.
트 인
한 지
▁이 치에
▁아 른
▁가 든
▁시 체의
▁마 산
▁주 르르
▁바 구니
▁우 측
▁연 발
▁후 인
▁화 이트
▁태 연히
▁친 하게
() 인
▁종 말
▁병 마
▁책 과
▁책 망
▁무엇 이라고
▁어머니 에
▁체 계를
▁이해 하게
▁일어나 게
▁6 00
▁때는 ,
하겠 지.
▁디 자
▁사진 과
▁"당 신을
▁한마디 씩
텐데 ."
▁뇌 리에
▁찰 싹
▁비틀 어
▁싶었 지만,
▁부근 의
▁호소 하는
▁담담 하게
▁스코 틀랜드
갔 다가
무 장
심 하고
했 단
▁아 낌
▁수 박
▁주 겠다고
▁무 겁고
▁생각 한다
▁위 임
▁조 달
▁살 랑
▁구 타
▁입 사
▁목 요일
▁힘 써
▁사이 ,
▁밤 중
▁엄 두
▁술 집에
▁바람 도
▁쉬 게
▁찬 송
▁내게 도
(1 )
▁죽는 다는
▁중간 에서
▁콩 나
================ ================
.C .
각 은
명 히
밑 에
아 냐.
작 으로
해 하지
▁내 일이
▁전 신이
▁부 류
▁상 쾌한
▁서 명을
▁공 의
▁구 애
▁반 색을
▁열 아
▁배 가고
▁교 활
▁박 질
▁박 철
▁채 였다.
▁천 거
▁맞 다.
▁포 세이
▁질 리는
▁토 르의
▁토 리아는
▁서울 시
거리 더니
▁연구 소
▁거야 "
▁맛 보
▁과거 와
▁살펴 보니
▁건물 에
▁신비 로운
▁프로그램 이
▁여학생 이
▁아득 히
▁어림 도
▁파출 소
▁웨이터 가
m er
r a
고 만
덩 이에
오 라는
와 야
용 과
차 지
프 에게
▁" 밤
▁마 쓰
▁주 사를
▁부 가
▁중 학생
▁집 단이
▁차 곡
▁돌아 누
▁올 가
▁먹 다
▁따라 야
▁직 관
▁테 크
▁독 촉
▁겨 루
▁엄마 도
▁"저 희
▁마시 게
▁지켜 보며
ic al
▁형편 없는
▁평소 에는
▁울부짖 는
▁울타 리를
▁스커 트
▁명랑 한
▁못살 게
2 9
네 들은
득 히
아 들은
우 니
촌 의
▁이 세
▁나 마
▁수 진
▁오 도록
▁오 시는
▁고 는
▁해 탈
▁물 체를
▁장 문
▁장 안
▁선 장
▁반 반
▁파 르르
▁줄 에
▁외 과
▁외 모
▁정도 였다
▁필요 하다면
▁언제 든
▁결혼 해서
▁있겠 지요.
▁석 가
▁알았 지?
▁인사 했다.
▁자랑 을
▁아빠 를
▁파고 들
▁현관 문을
▁주민 들이
▁알아차 리고
▁둘러싸 여
▁절반 은
▁흐트 러진
▁상세 하게
" 은
생 들은
아 내는
화 탄
▁" 집에
▁가 부장
▁여 관에
▁기 세를
▁부 재
▁고 가
▁연 일
▁감 탄을
▁앞 쪽
▁끝 에는
▁놓 으며
▁양 말을
▁드 레스
▁소리 질렀다.
▁백 종
▁직 선
▁별 개의
▁싫 으면
▁송 인
▁보이 지도
▁부르 면서
▁인물 들이
▁굽 히고
▁교수 와
▁연주 하는
▁붓 다
▁부풀 어오
▁"어머니 ,
부 대의
용 히
워 지는
주 겠다고
털 을
합 니까?"
▁것이 니까
▁시 점
▁전 두
▁주 십
▁해 운
▁상 책
▁미 치고
▁후 기
▁일이 오.
▁매 기는
▁곳 에서도
▁천 부
▁따라 ,
▁추 수
▁출 국
이지 요?
▁총 리
▁꼭 지를
▁있겠 어?
▁저녁 은
▁냉 담
▁찍 는
▁"왜 요?"
하셨 습니다.
▁"응 ?"
▁색깔 을
▁스위 스
▁움켜쥐 었다.
▁일방 적인
▁속속 들이
▁얼떨 떨
기 들은
매 ,
부 족
▁" 페
▁수 그러
▁없 나?
▁없 겠지.
▁여 왕이
▁기 러
▁기 미를
▁정 민
▁주 지는
▁소 송
▁해 진
▁비 치고
▁요 인이
▁함 성을
▁형 님은
▁드 려야
▁숨 결이
▁꺼 림
▁이야기 였다.
▁맡 겼다.
▁쉬 어
만큼 도
▁봄 의
▁공부 할
▁발생 할
▁그대 들의
미터 쯤
▁한가 한
▁형사 들이
▁유치 원
▁부끄 럽게
▁부르짖 었다.
▁와이 셔츠
▁허둥지 둥
래 ,
문 도
밖 엔
요 즘
카 에
▁가 세
▁가 겠다고
▁일 대를
▁지 위가
▁전 국의
▁조 광
▁세 례를
▁신 석
▁진 우가
▁단 기
▁화 성
이었 다,
▁특 공
▁없었 으며,
▁야 자
▁폭 풍이
▁극 적인
▁페 트로
▁면 허
▁경제 의
▁틈 만
▁좋을 까
▁선생님 께서
▁같았 지만
▁떨어뜨 리고
▁무기 력
▁하더 군.
▁"방 금
세 )
▁사 장을
▁한 라
▁시 건
▁정 중히
▁소 가
▁인 식이
▁공 연한
▁있었 단
▁걸 핏하면
▁차 한
▁열 릴
▁몸 가
▁교 외
▁먹 이고
▁편 으로
▁초 콜
▁환 상적인
▁밀 가루
▁농 장을
▁코 앞에
▁라 인
▁깨달 았
▁선생님 .
▁개미 들의
▁징 역
▁삐 삐
▁198 0년
겠다 며
▁명확 히
▁설레 설레
▁치러 야
▁"근 데
( 한
간 호
대 답
란 도
미 디어
숙 에게
▁수 경이
▁일 휘
▁모 집
▁여 신은
▁기 대가
▁전 태
▁같 았던
▁남 쪽에
▁비 웠다.
▁상 담을
▁저 멀리
▁유 토
▁구 차
▁결 부
▁관 상
▁양 선
▁김 한
▁담 요
▁숨 도
다보 면
▁빨 �
▁광 장을
▁있지 ?"
▁혜 련은
▁상대 방은
▁의식 과
▁흉 한
해주 지
▁> >
▁나뭇 가지를
▁"글쎄 요,
▁입구 로
▁예외 는
▁종업 원이
▁글씨 로
▁레져 스
( 사
s on
▁ in
기 들을
돈 은
타 인
품 들을
▁사 온
▁자 다가
▁일 직
▁시 이
▁마 쳤다.
▁비 례
▁서 브
▁저 만
▁경 범의
▁입 장은
▁선 구
▁성 주
▁강 원
▁등 한
▁2 시간
▁잡 혔다.
▁절 단
▁네 지다
▁필요 에
▁계속 된
▁별 도로
▁복 음
▁베 레
▁아래 층
▁논 리적
▁싫 증이
▁면 회를
▁내용 과
▁무렵 에는
▁마찬가지로 ,
▁예상 치
▁무리 들이
▁틀어 박혀
▁계급 의
▁나중 엔
▁그림자 처럼
▁어긋 나는
▁그까 짓
▁헤비 타
M .
났 습니다.
노 스
동 무
▁아 편
▁하 인이
▁지 쳐서
▁내 질렀다.
▁정 체가
▁소 인
▁되 려
▁고 자
▁생각 대로
▁구 덩이
▁피 하지
▁채 울
▁드 려
▁드 렸다.
▁본 인의
() 라고
한다. "
▁청 량
▁왔 으나
▁미국 에서는
▁이르 지
▁척 추
▁건강 하고
어요 ...
▁지붕 이
▁신뢰 를
▁고양 이가
▁있자 니
대 학의
아 리가
▁그 분이
▁시 장의
▁여 이
▁주 님의
▁소 의
▁상 옥
▁못 하지만
▁장 신
▁원 초
▁파 일을
▁본 인
▁회 계
느냐 ."
잖아 요?"
▁측 면을
▁책임 질
▁뇌 까
▁"아니 야,
▁14 .
ot her
▁둥글 게
" 가
담 배를
러 지는
보 낼
식 이는
악 은
준 다면
▁그 였다.
▁하 영은
▁나 약한
▁자 격을
▁모 는
▁정 인이
▁고 개가
▁세 번
▁미 제
▁1 :
▁유 목
▁등 이다.
▁예 요
▁심 술
▁잡 으러
▁말이 죠.
▁백 사
▁침 침한
▁민 씨
▁테 이트
▁싸 웠다.
▁살아 난
▁헤 이
아가 씨가
▁담배 한
▁혜 진은
▁늙 고
▁어울 리
▁동료 들은
▁달러 의
오늘 은
▁스커 트를
▁수경 이는
3 년에
▁ 에는
균 을
언 스
자 리로
제 한
채 에
터 와
▁보 구
▁여 론
▁전 동
▁소 규
▁아니 야?
까지 를
▁장 롱
▁구 매
▁달 도
▁진 성
는데 ..."
▁같은 ,
▁단 정하게
▁버 둥
▁함 이
▁역 적
▁없이 도
() 이다.
▁않았 는데,
▁식 물의
▁갈 비
▁목소 리와
▁바람 으로
이란 ,
▁흐 르면서
▁범 벅이
▁홍 보
▁내용 으로
▁협 박을
▁바꾸 지
▁the r
▁떠오 르고
▁앙 드레
▁대비 해서
▁페르 미나
▁말씀드 렸
▁라디오 를
ul t
▁아니나 다를
. B
곡 에
님 들이
대 어
바 에
시 으로써
▁거 라구
▁오 버
▁고 리를
▁해 ?
▁위 치는
▁공 상
▁유 리를
▁성 장한
▁누 설
▁분 들은
▁피 로가
▁재 성이
▁줄 만
▁간 격으로
▁심 정은
▁외 우
▁김 남
▁찾아 내지
▁민 무
▁갑 옷을
▁황 망
▁만나 자고
인데 다
▁얻 었
▁밝 았다.
▁봉 지를
▁듯이 ,
▁낳 았
▁둔 갑
▁습 득
▁인도 에서
▁웅 변
▁안되 면
▁긴장 감이
▁그에 겐
▁그러고 도
▁좌우 간
▁허리 춤
▁말인가 요?
하라 !"
▁미워 하는
▁본질 적인
▁알몸 이
▁불타 고
36 83
% 를
그 로
기 라는
어 스
억 이
첩 이
하 께
하 리라고
항 의
해 온
▁있 든
▁" 틀림
▁사 관
▁어 든
▁시 장이
▁마 귀
▁기 대는
▁오 천
▁위 안이
▁그녀 와의
▁제 왕
▁의 로
▁공 사가
▁계 집이
▁개 성을
▁일이 야
▁청 주
▁볼 품
▁다가 올
▁발견 해
▁대신 ,
▁만큼 ,
▁아니면 ,
▁도망 치는
▁쇠 고
▁마르 트
-1 7
▁무관 한
▁윤곽 이
▁다이아몬 드
▁에스트라공 :
] ,
사 관
욕 의
▁" 친
▁무 릇
▁부 작
들이 지
▁불 교를
▁상 왕
▁아니 잖
▁들어 맞
▁구 절이
▁차 디
▁결 사
▁성 명
하지 가
▁건 립
▁피 터는
▁피 어오르는
▁새 롭고
▁배 이
▁형 상이
▁소리 치는
▁울 렁
▁하지 ."
▁봐 서는
하였 으니
▁불러 야
▁알았 다는
▁들었 고,
▁아까 의
▁흑 백
▁아닌가 ?"
▁예상 하고
▁인류 를
▁도달 한
▁물려 받은
▁심부 름을
금 과
린 과
물 질
봤 지만
시 나
아 메리카
지 에는
커 스
하 림은
▁이 에게
▁이 기고
▁" 3
▁것 두
▁수 위
▁해 인
▁남 매
▁장 대
▁속 이는
▁창 문에
▁5 2
▁올려 놓았다.
▁쏟아 부
▁상상 력을
▁고향 인
▁"아니 .
▁쓰라 린
▁옷깃 을
고 자
럼 을
현 과
▁이 수
▁사 또
▁어 게
▁한 스는
▁않 겠어요?
▁전 철
▁중 신
▁저 쪽에
▁돌 보지
▁계 셨다.
▁감 싼
▁너 ,
▁그렇게 만
▁잡 아가
▁맞 으면
▁귀 에는
▁얼마 만큼
▁검 사가
▁움직 이게
▁고통 스런
▁행복 할
었을 까?
▁지키 며
▁그늘 을
▁시야 에서
▁머리카락 은
▁"잠깐 만
▁성행 위를
▁어금 니를
! ?
y ,
그 녀의
당 ,
상 인
수 나
히 면
▁" 울
▁지 수의
▁대 웅
▁전 엔
▁주 어도
▁부 합
▁안 네
▁비 합
▁선 량
▁누 르는
▁실 망을
▁찾 는다.
▁행 위로
▁호 호호
▁산 뜻
▁혼 인을
▁모양 인데,
▁생활 과
▁생활 하는
▁빈 둥
▁돌아가 기
▁마련 되어
▁만족 하고
▁최고 급
▁당황 하고
▁마디 가
▁도덕 적인
▁뿐이 야."
▁주문 했다.
▁제아 무리
g o
권 총
민 들이
주 기를
회 로
▁" 베
▁없 습니까?
▁대 면서
▁있는 다.
▁우 글
▁해 줘야
▁미 신
▁장 례를
▁속 에도
▁계 산이
▁명 명
▁순 교
▁김 기
▁몰 살
▁왕 으로
▁임 의
▁코 끼리
▁악 마가
▁협 상을
▁그동안 의
▁구석 진
▁발생 했다.
▁났 던
▁자동차 는
▁말씀드 린
▁각별 히
▁월간지 :
▁ ~
관 념
권 ,
동 지
령 으로
마 마의
시 라고
입 어
크 레
해 줄
▁이 즈
▁사 육
▁것이 든
▁여 인들이
▁거 다."
▁주 에
▁주 도록
▁살 릴
▁장 치가
▁연 이어
▁따 고
▁개 에
▁스 미스
▁분 도
하기 란
▁통 곡을
▁네 페르타
▁정신 에
▁마치 자
▁메 뚜
하겠 어요.
▁쉽 고
했을 까?
▁흘러 가고
▁찌 를
▁틈 틈이
▁들어서 자마자
▁버렸 고,
▁뻗 었다.
▁여름 방
▁당황 해
▁말했다 "
하다가 는
▁구성 하는
▁솟아 오르는
▁보인 다
▁구부 리고
▁전략 을
▁시스 을
▁시나 리오
▁동그 란
▁별안 간
먼 은
충 을
화 나
▁있 음.
▁아 키
▁자 들의
▁한 방에
▁고 동
▁있었 죠.
▁"그 들이
▁번 가
▁통 통
▁질 책
▁넘 치고
▁알아 보는
▁읽 으면서
▁사라 지자
▁브 라이
▁이후 에는
▁경험 으로
▁화장 실에서
▁같았 어.
▁흙 탕
▁기뻐 서
▁"기 다
▁앞세 워
▁구석구 석을
▁수잔 은
▁뒷걸음 질
▁무턱 대고
머 가
석 이가
수 ?
연 맹
오 라
용 ,
▁가 했다.
▁일 인가?
▁지 른
▁지 음
▁여 주인
▁생 물이
▁바 가지
▁해 골
▁제 우스
▁돌 궐
▁' 난
▁' 모
▁있었 어요."
▁적 잖
▁원 동
▁재 건
▁함 박
▁교 수를
▁잡 으려
▁표 명
▁먹 혀
▁지나 간다.
▁< 제
▁농 담이
▁틀 고
▁7 ,
▁오래 지
▁대신 하여
▁협 의
▁녹 여
▁신문 은
▁f f
-1 5
▁고백 을
▁휘두 르는
▁사막 의
▁마누 라가
▁낮추 어
금 도
덕 으로
두 ,
떼 가
소 !"
장 치를
짐 승
▁있 더군요.
▁" 항
▁아 리아
▁사 격을
▁가 라고
▁보 전
▁일 하던
▁지 었다
▁무 책임
▁오 년
▁미 세
▁있었 습니다
▁실 크
▁싶 기도
▁요 인
▁치 사
▁3 번
▁내려 올
▁커 플
▁검 증
이에 요?
▁윤 회
▁윤 희
▁묘 사한
▁어두 웠다.
해지 며
해가 며
▁짐승 을
▁있으 라고
▁뱉 어
▁람세 스의
▁브래 지어
▁광범위 한
드 리지
르 타
성 (
원 .
일 리
졌 어요.
파 리
편 한
▁하 십시오."
▁자 아,
▁지 면
▁시 신
▁소 동이
▁되 려면
▁알 제
▁해 라."
▁구 하지
▁목 록
▁개 로
▁반 듯하게
▁2 분
▁천 안
▁추 악한
▁다음 이
▁문제 ,
▁문제 다.
▁백 미
▁풀 잎
▁나가 면서
▁헤 스터
▁겨 를
▁남편 에
▁일어 선
▁끊 는
▁드러 날
▁가르 며
▁않으면 ,
▁정보 에
▁돼 ."
▁의식 하고
▁해결 을
▁불행 이
그래 ?
▁담당 하는
▁첫째 로
▁황금 빛
베르 크
▁구별 할
▁"엄 마
▁투덜 거렸다.
▁대다 수의
▁엄습 해
▁새까 만
라 이나
려 할
생 에
술 로
시 도
▁그 고
▁그 쪽으로
▁이 경
▁이 봐,
▁아 련
▁지 이
▁주 이
▁고 교
▁해 보지
▁인 형을
▁세 렌
▁들어 본
대로 ,
▁모르 면서
▁김 씨가
▁최 영
▁백 정
▁증 언을
▁사회 와
▁판 자
▁면 제
▁꾸 었다.
도로 를
▁내리 자
▁오빠 와
▁자동 적으로
▁공포 로
▁탓 도
▁배우 기
▁의사 소
▁스승 을
▁요청 했다.
u al
구 역
라 곤
연 애
짖 는
청 은
카 드를
▁이 모가
▁하 사는
▁없 으시
▁않 으나
▁여 린
▁기 온이
▁동 기를
▁못 되는
▁우리 말
▁손 길
▁장 수는
▁걸 었
▁연 다.
▁달 릴
▁일이 에요.
▁넘 기는
▁나타 낼
▁곧 게
▁이름 에
▁판 이었다.
▁클 라이
▁걱정 스런
▁"나 가
▁물어 뜯
▁물어 왔다.
▁덮 은
▁마주 친
▁영국 에
▁"알 겠
▁세월 은
▁"아니 야.
▁됩 니까?
▁그대 들이
▁혼란 이
▁시각 이
▁'그 렇
▁겹 겹
▁어루만 지며
▁다투 는
▁미소지 으며
▁"빌 어먹을
( 4
겠 소?"
능 의
대 면서
람 이
막 으로
부 랴
염 을
적 이라
준 다
체 인
치 도록
▁소 상
▁경 쾌한
▁차 일
▁차 림을
▁결 정은
▁많 기
▁예 브
▁왕 조의
▁누구 는
▁꺼 내는
▁하루 종일
▁거예 요"
▁응 징
▁수밖에 .
▁판단 한
▁진행 되었다.
▁오늘날 까지
▁관리 하는
▁변호 사를
사람 은
▁실망 한
▁미치 광이
▁기둥 을
▁서비 스를
▁검정 색
. ,
보 게.
산 도
순 이가
아 네
▁그 자를
▁이 쁜
▁아 냐,
▁모 란
▁모 티
▁신 음이
▁경 호는
▁발 간
▁앞 질러
▁번 을
▁올 거
▁심 장의
▁허 황
▁표 기
▁본 인은
▁국 군
▁금 은
▁광 복
▁전화 벨
▁경찰 과
▁고통 스럽게
▁지금까지 는
▁햇 이
▁마리 사가
▁험 악
▁끼여 들었다.
▁삼촌 은
▁오스트 레일
▁헤라 클레
” 이
비 록
학 적으로
▁그 집
▁있 군.
▁수 척
▁보 유
▁전 국에
▁무 소
▁바 스
▁되 지요.
▁물 린
▁문 희
▁발 소리가
▁스 파이
▁앞 날을
▁황 보
구나 ?
▁일어 섰
▁읽 었
▁북 으로
▁활 주로
▁걸어 오고
▁논 할
▁보았 는데
나무 와
▁연구 의
▁오른 쪽에
▁멋 을
▁달라 지는
▁말했 듯이
▁하시 면
it t
▁꼴 로
▁생명 보험
▁물결 을
▁고독 을
▁어루만 졌다.
▁몽롱 한
간 에는
느 니,
자 리의
▁말 입니다
▁없 으리라.
▁한 량
▁들 쳐
에게 만
▁부 도
▁부 정을
▁생각 되어
▁상 실한
▁물 처럼
▁얼 음을
▁발 전의
▁성 도
▁너 울
▁순 경이
▁앉 으면서
▁테 슈
▁황 제를
▁야 쿠
▁메 드
▁투 성이
▁없어 야
▁엉 엉
▁묵 살
▁한쪽 을
▁의심 하고
▁미래 가
▁자극 하는
▁낫 다고
▁개발 한
미터 의
▁붓 고
▁절망 에
▁강조 했다.
▁유명 하다.
▁아픔 이
▁골짜 기를
▁대담 하게
▁전갈 을
니 도
당 신의
소 년은
시 절
약 에
▁" 류지
▁사 례를
▁말 발
▁자 칭
▁해 군의
▁세 타
▁죽 도록
▁피 부는
▁김 명
▁백 제의
▁"이 렇게
▁놈 ,
▁아름다 움에
▁디 자이
적이 고,
▁보아 라.
▁나타나 자
▁사고 방
▁아니었 다면
▁아름답 다.
▁기업 이
▁받아들여 야
▁서두 르지
▁초월 한
( 기
1 년에
거 ,
겠 는가
공 에
상 가
성 이라는
였 으니
영 에
풀 에
▁가 봐.
▁지 른다.
▁않 으리라는
▁내 면에
▁부 름
▁그러 했다.
▁남 루
▁불 퉁
▁성 급하게
▁배 을
▁떠 돌이
▁그렇 지는
▁술 만
▁헤 치며
▁나와 는
▁답 변을
▁생겨 나는
▁곰 이
▁13 일
▁가라앉 았다.
▁바닷 가에
▁저희 들이
▁방울 이
▁머뭇 거렸다.
im e
▁"괜찮 아
▁마르크 스
( 전
g r
관 계에
드 라는
보 ,
자 주
잡 았다.
쿠 스
풀 이를
▁하 옵니다.
▁수 강
▁말 꼬리를
▁생 기를
▁전 산
▁전 승
▁주 미
▁오 스
▁우 크라
▁조 가
▁비 다.
▁세 는
▁세 원은
▁했 단
▁올 린다.
▁재 위
▁필 름을
▁병 력은
▁추 한
▁체 온
▁땅 과
▁페 트리
▁드러 나지
적이 어서
▁도착 하여
▁규 모
▁혀 로
▁왼 쪽에
▁선생님 과
▁웃음 은
▁"제 기랄
▁거부 할
▁* **
▁웨 스트
▁만남 은
▁살아가 야
▁차분 히
▁몰아쉬 며
▁매혹 적인
셨 다
신 인
유 ."
▁이 사가
▁자 포
▁모 터
▁문 간은
▁그것 만이
▁박 테
▁필 자가
▁종 속
▁학 술
▁판 결
▁북 쪽에
▁틀 었다.
▁극 소
▁암 만
▁경찰 들이
▁굴 렀다.
▁"나 ,
▁버렸 다는
▁웅 장한
▁독립 된
▁F BI
▁기뻐 하는
▁아니겠 는가.
▁훼릭 스를
▁식구 들은
▁조정 에서
▁연합 군
▁올바 르게
▁그지 없는
께 는
벌 떡
였 소.
요 ....
은 은
▁" 웃
▁" 프
▁보 입니다.
▁보 물을
▁오 르게
▁돌아 간다.
▁심 문을
▁추 위
▁음 력
이라고 ?
▁평 화가
▁6 5
▁급 진
▁불러 도
▁꼬 옥
▁색 이
▁넓 적
▁해주 면
▁」 박
▁장난 이
▁시내 의
▁분석 해
▁아쉬 워
▁히틀 러의
' '
맥 주
사 내가
세 자
짜 는
▁말 인데
▁자 서
▁지 장이
▁지 퍼를
▁대 추
▁때 론
▁남 몰래
▁제 퍼
▁우리 나라는
▁따 르게
▁좋 았던
는데 ?
▁앞 쪽으로
▁싶 었는데
▁재 고
▁치 지
▁본 적
▁병 사의
▁설 교를
▁왔 으면
▁금 년
▁환 자에게
▁레 인
▁삶 아
▁상황 에서는
▁마찬가지 야.
하시 오."
▁아파 트의
▁화장 실을
생활 이
▁사태 의
▁페이 지를
▁유혹 에
▁장사 꾼
▁자부 심을
▁정기 적으로
▁시카 고
▁복숭 아
( W
교 ,
련 만
류 와
심 에서
인 치
천 지
히 고,
▁말 자.
." 김
▁정 선
▁전 래
▁바 울
▁위 인이
▁제 도의
▁의 자가
▁방 바닥
▁달 라.
▁원 하
▁군 에
▁지나 서야
니다 "
▁별 명을
▁4 시
되었 는지
▁극 진
▁찬 물을
▁있고 .
▁돌아가 자
▁푸 짐
▁두려 워서
▁냄새 와
▁전해 졌다.
▁치료 하는
▁목적 에
▁관찰 하고
▁그릇 에
▁지식 인
▁멍청 히
▁일으킨 다.
떼 처럼
리 거나
모 스
물 이나
박 지
세 게
이 니,
준 다는
▁그 놈이
▁아 는지
▁나 더니
▁말 예요."
▁바 랴
▁소 음이
▁오 입
▁비 율
▁문 서를
▁구 원의
▁게 릴라
▁파 르
▁될 까요?
▁깨 나
▁에 피
▁총 체
▁증 인
▁이루 게
▁쳐다보 지도
▁빌 고
▁격 암은
▁나누 며
▁"여 기가
▁어른 의
▁손님 들을
▁일으키 게
▁끌려 가는
▁사령 부
▁b ut
▁저희 들은
▁"거 짓말
▁신세 대
▁불러일으 켰다.
▁늘어나 고
▁무례 한
이번 에는
공 ,
붙 이고
싸 움
언 니가
토 에
▁사 표를
▁위 하는
▁조 장
▁비 장
▁제 수
▁저 편
▁구 하러
▁걸 치지
▁때문 이지요.
▁잠 간
▁외 의
▁추 석
▁넘 기지
▁꺼 냈
▁결혼 하지
▁보내 기
▁대신 해서
▁벽 은
▁비슷 하다.
▁부딪 혀
▁보였 지만
▁용서 하지
▁지혜 로운
▁소파 에서
▁트럭 을
▁멍청 하게
▁"아버 지
▁정일휘 의
▁상냥 하게
▁직감 적으로
b r
▁ is
류 ,
바 지를
제 인
참 을
▁이 쪽으로
▁자 하면
▁보 유하고
▁모 을
▁시 도를
▁전 담
▁고 삐를
▁만 기다려
▁생각 합니다."
▁위 와
▁안 주를
▁비 중을
▁더 군.
▁문 장이
▁발 언을
▁화 랑
▁온 거
▁망 할
▁봐 요
▁맡 기는
▁면 할
▁기울 이는
▁"자 아,
▁않겠 습니다.
▁"아니 에요.
▁양반 의
어머니 의
▁부산 으로
▁뛰어나 갔다.
▁�a� a�
▁트레이 시는
권 으로
루 이
시 원
▁그 년
▁이 쪽은
▁" 점
▁가 요
▁가 정은
▁가 방에
▁수 사에
▁정 하는
▁소 도
▁소 변을
▁그러 하
▁불 어나
▁서 는
▁1 년에
▁' 경
▁반 동
▁소리 다.
▁잔 소리
▁증 대
▁생활 로
▁레 오나
▁말아 요."
▁받았 고,
▁생각했 어요.
▁험 악한
▁극복 할
▁향기 로운
▁관현 악
( K
만 과
영 ,
치 료
▁것 들도
▁가 면을
▁보 초
▁다 리의
▁한 미
▁일 처럼
▁내 방으로
▁마 나
▁인 격을
▁눈 길은
▁세 기
▁따 지는
▁몸 에는
▁적 셔
▁아이 였다.
▁인간 적
▁철 제
▁6 4
▁보내 온
▁준비 는
▁어쩌 나
▁9 일
▁이후 부터
▁플 루
▁도시 락을
▁부인 할
▁맺 는
▁까닭 으로
▁빼앗 기고
▁것이라 곤
▁뛰어넘 어
▁실마 리를
관 이나
리 다가
비 슷
아 치
앙 의
졌 어.
차 ,
철 한
▁하 세요."
▁나 팔
▁수 증
▁한 대를
▁대 장의
▁들 춰
▁소 총
▁조 조를
▁인 터를
▁중 원
▁도 자기
▁공 명의
▁문 예
▁여자 란
▁열 차가
▁시작 을
▁통 솔
▁가지 ,
▁함 을
▁언 어가
▁호 프
▁않았 습니까?
▁귀 의
▁테 라
▁커 지고
▁헤 집고
▁풍 성한
▁레 드
▁레 슬
▁죄 없는
▁저녁 으로
▁가운데 에서
▁젖 혔다.
▁계획 대로
▁여러분 들이
▁그와 는
▁커피 가
▁자동 으로
▁영국 에서
▁형편 이었다.
▁지속 적인
▁지껄 이는
▁파티 에
▁평상 시
▁여편 네
김 에
다 '고
반 에서
병 원에
순 이는
아 래
▁가 실
▁전 기가
▁오 마
▁되 거나
▁인 상은
▁인 철은
▁돌 화
▁손 안에
▁선 수를
▁열 리지
▁싶 으
▁처 단
▁온 전
▁어떤 지
▁근 접
▁악 당
▁전화 도
▁뜨 겁고
▁능 숙하게
▁탄 로
▁정보 의
▁물러 날
선생 님이
▁이웃 에
▁사상 적
▁환경 에서
▁이르러 서는
▁대륙 을
▁경영 하는
▁연상 케
▁"실 례
o h
▁ not
거 라
생 산
집 도
▁사 병
▁하 오."
▁없 다,
▁생 동
▁고 단
▁고 비
▁신 원
▁우리 에겐
▁장 착
▁장 미를
▁잘 린
▁단 결
▁번 이라도
▁가지 러
▁허 튼
▁김 광
▁어디 든
▁막 이
▁왕 족
▁완 수
▁아침 은
▁있겠 는가
an s
▁뿌 게
▁도망 친
▁노동 의
▁저지 르는
▁선배 가
▁고등학교 를
▁무한 히
▁밝아 졌다.
▁인기 척이
▁열중 하고
▁각오 하고
▁에어 컨
▁ ..."
나 갈
눈 이
봉 에
색 이었다.
셨 을
어 둑
자 만
잡 는
충 은
크 크
태 에
▁사 샤는
▁수 락
▁말 하려고
▁없 사
▁보 거나
▁부 대로
▁생각 들이
▁해 의
▁유 연
▁구 만.
▁자신 보다
▁얼굴 엔
▁채 우는
▁천 상
▁본 성을
▁그렇 습니다."
이라 구
▁은 정이
▁막 다른
▁환 각
▁법 ,
▁봉 급
▁사용 했다.
▁송 아
▁낮 의
▁엉 켜
▁씨 년
▁달아 난
▁몰라 요."
▁판단 하는
▁"하 나
▁아닌가 !
▁부정 하는
▁터뜨 리고
▁평화 와
▁일어났 다
▁치밀 었다.
▁저고 리를
................ ................
▁시퍼 런
▁ 져야
내 일
일 까,
▁그 치는
▁사 형을
▁하 십니까?
▁수 요
▁기 재
▁사람 하고
▁부 양
▁생각 난다.
▁남 방
▁제 목이
▁미 카
▁당 분
▁구 분이
▁또 다른
▁결 투
▁노 범
▁함 은
▁심 해
▁양 해를
▁종 말을
▁귀 로
▁백 설
▁어머니 .
▁돈 이나
▁체 면을
▁빨 치
▁풀 썩
▁10 3683
▁칼 과
▁가득 찬
▁과학 자들이
▁오후 ,
▁하시 오."
▁불행 히도
▁실패 하고
▁같았 기
▁승용 차가
▁한복 판에
▁도사 리고
갈 을
겠 지?"
결 국
는 가,
웨 이터
임 과
하 라."
▁수 어
▁거 긴
▁오 장
▁오 세요."
▁알 은
▁인 색
▁남 반
▁못 하니
▁공 모
▁입 힌
▁다시 피
▁분 할
▁번 성
▁난 을
▁채 가
▁살아 계
▁살아 날
▁글 쓰
▁석 이
."그 리고
▁낙 타
▁결정 에
▁몽 둥이를
▁비롯 해서
▁너희 들을
▁벗어나 기
▁같았 고
▁포함 하여
▁위치 에서
▁훈련 이
▁때문이 지.
▁199 2년
▁노려 보
▁뭉 개
▁머릿 속을
▁뉴욕 에서
▁삼십 분
▁아끼 고
▁잃어버 리고
▁접어 들었다.
▁더럽 혀
▁르네 상
겨 서
국 장
세 음
하 란
▁시 하는
▁소 스
▁남 조선
▁제 도는
▁중 사가
▁동 구
▁못 박
▁당 기
▁문 학을
▁구 실
▁요 원들이
▁교 묘
▁박 았다.
▁크 의
▁막 사
▁창 은
...... ?"
▁빨 랐다.
스러 웠던
▁늘 어졌다.
▁뜨 끔
▁홍 대
▁섬 에서
▁"여 자가
▁해결 하기
▁역사 에서
▁구멍 에
▁걸쳐 서
▁"아버 지가
▁술집 에서
▁아이디어 를
d o
귀 에서
극 장
둘 은
르 도
막 의
선 도
어 리는
희 롱
▁" 데이
▁지 새
▁때 다.
▁고 비를
▁상 세한
▁신 하가
▁영 안
▁연 수
▁드 렸
▁사랑 했다.
▁종 결
▁추 대
▁4 장
▁투 출
▁그럴 듯하게
▁경찰 서에
▁느꼈 을
▁포함 해서
▁내놓 을
▁떨어뜨 린
▁잔인 하게
▁주차 장에
▁담겨 져
▁듭 니다.
교 에서
데 스의
들 입니다.
먹 이
보 냈다.
윤 희는
청 년
키 와
필 로
했 네.
환 경
▁가 를
▁보 자마자
▁모 독
▁정 직하게
▁전 복
▁조 세
▁비 약
▁공 기의
▁' 조
▁연 간
▁통 틀
▁과 정의
▁타 인
▁다음 해
▁청 나라
▁팔 아서
▁대답 이었다.
▁빠져 들고
▁끼 칠
▁괴 물이
▁쉬 워
▁있겠 지?
▁면 에서는
er t
학교 에서
▁홀 연히
▁종교 에
자와 의
▁오르 자
▁자랑 스러운
▁엘리 트
▁유럽 에서
▁했을 까?
▁쏘아 붙였다.
▁지속 적으로
▁울부짖 었다.
▁곰곰 히
▁수소 문
▁고분 고분
6 0
달 한
민 이는
앙 은
있 을
학 원
▁" 독
▁" 충
▁수 모를
▁전 자기
▁오 디오
▁만 물을
▁물 가
▁세 시간
▁발 설
▁돌아 서는
▁끝 장이
▁모르 겠어요."
▁산 다고
▁막 아야
▁나가 려고
▁풍 성
▁맡 는
▁사용 한다.
▁숙 이며
이야 "
▁아닐 세.
▁들었 다고
▁17 8
▁일으키 지
▁드리 워져
▁안타 게
▁"아버 지는
▁제안 했다.
감 독
용 에
원 들과
자 에게는
쩍 게
테 니까
환 으로
▁모 였다.
▁고 치는
▁신 중한
▁문 신
▁간 판이
▁김 만
▁애 석
▁종 우는
▁내려 놓은
▁찾아 갔
▁네 개의
▁리 프
시키 는데
▁욕 조
▁밑 바닥에
▁아마 이
▁홍 인
▁끄덕 인다.
▁넘어 선
▁내리 면
▁기록 된
▁제일 의
▁걸려 온
▁혈 안이
▁차지 할
▁어딘 가에서
▁알겠 습니다."
▁"당신 도
▁피우 지
▁슨 이
▁죄책 감을
동 원
례 로
밤 을
여 야
▁" 직
▁사 지를
▁수 다를
▁다 혜
▁거 들어
▁위 로는
▁중 령이
▁신 사가
▁경 련
▁구 비
하지 ."
▁스 텐
▁등 불을
▁잠 은
▁난 무
▁사랑 하기
▁맞 부딪
▁바로 는
▁직 원은
▁청 하는
▁“ 나는
▁순간 에도
스러 워서
▁7 0년대
▁그럴 싸
▁졸 음이
▁불안 감을
▁답 시고
▁쓰러 뜨
▁쓰러 지
▁튀 었다.
▁이론 적
▁아저 씨의
▁긴장 하고
▁헬 렌
▁다름 없이
▁챙 기
▁직업 에
▁보냈 다
▁열쇠 가
▁구먼 .
▁뒤엉 켜
( 제
i �a�
부 대가
양 에서
으 으
체 에서
하 구나.
▁" 윈
▁지 수
▁모 성
▁시 경
▁우리 에
▁우리 보다
▁발 발
▁받 기도
▁반 년
▁후 천
▁피 로를
▁재 치
▁행 차
▁순 결한
▁3 분
▁맞 출
▁왕 조
▁믿 습니다.
▁붙 었다.
▁뭐 든
▁터 에
▁땅 거
▁윤 보
▁갔 는지
▁페 인트
▁어깨 와
▁클 어진
▁조선 이
▁걷 는다.
▁음악 과
▁넘어 갔다.
▁컴퓨터 로
▁호기 심에
▁탁자 위에
▁조조 에게
▁교과 서
k g
불 로
였 지요.
잡 은
화 시키는
▁이 하의
▁이 층으로
▁" ...."
▁" 닥터
▁지 었
▁마 도
▁때 까지만
▁정 장
▁도 래
▁선 장은
▁놓 았을
▁환 영을
▁갑 갑
▁농 부가
▁폭 탄이
▁걸어 온
어지 자
▁판단 에
▁25 0
▁콘 스탄
▁시야 를
▁알렉산 더
게 는
이 기는
일 까요?
▁그 쪽에서
▁수 라
▁수 입을
▁대 사가
▁것이 지,
▁마 법의
▁무 감각
▁고 종의
▁물 도
▁때문 인지도
▁개 정
▁명 분을
▁현 혹
▁현 상의
▁외 치
▁드 리지
▁알아 내는
인데 ."
▁밝 혔
▁넣 어서
▁뿌 연
▁군사 적
▁떠오 를
▁시내 에서
▁체포 되어
▁낭만 적인
▁꽃다 발을
c t
사 ()
시 크
자 본
잠 이
학 으로
▁" 변
▁수 조차
▁다 쳤
▁기 병
▁정 예
▁우 상
▁만 지고
▁인 재
▁인 적이
▁미 자는
▁저 작
▁공 범
▁' 구
▁"그 저
▁노 파의
▁성 대
▁열 에
▁처 리를
▁화 나게
▁태 종의
▁양 지
▁말이 에요."
▁따라 붙
▁합 당한
▁세상 과
▁토 마스
▁사용 해서
▁틈 새
▁가게 로
ar y
▁민족 은
▁판단 하고
▁기쁨 은
▁교수 님
▁자극 이
-1 8
▁지옥 으로
ol l
▁흡족 한
- >
네 ?"
론 ,
반 장의
어 제
움 직
윤 의
하 군
하 영은
▁이 완
▁어 명을
▁없 음
▁주 역
▁소 망을
▁조 마조
▁비 견
▁눈 처럼
▁더 한
▁당 시는
▁저 물어
▁성 안으로
▁하는 ,
▁날 리고
▁간 판을
▁필 로
▁이렇게 도
▁환 상에
▁총 각이
▁광 대한
▁옷 의
▁규 명
▁못했 어.
▁압 구정
▁아까 그
▁지휘 하는
▁깨어나 지
▁잎사 귀
▁그윽 한
▁ 떤
꼬 를
머 리카
받 아야
보 라
셨 어요?
아 ...
왕 후
축 하
▁" 갑
▁것 부터
▁사 야
▁한 사
▁대 포
▁내 막을
▁무 대로
▁소 재로
▁오 드리
▁속 인
▁누 굽
▁실 증
▁있어 요,
▁원 산
▁그래 요."
▁현 미
▁행 운이
▁박 기
▁갈 림
▁왕 복
▁청 해
▁4 1
▁와 닿는
▁괴 한
▁규 제
▁흉 노
▁눈치 다.
▁덩 굴
▁사업 은
▁음식 과
▁들어갔 다가
▁복잡 하고
▁생기 기
▁생물 학적
▁비극 을
▁기타 를
▁억제 할
▁신경질 적인
c l
나 면
남 자는
더 러운
매 나
법 도
자 지
키 에
▁" 잔
▁사 색
▁사 적인
▁자 아의
▁다 치
▁시 라
▁중 부
▁유 달리
▁선 고를
▁따 귀를
▁허 기
▁천 장
▁친 위
▁질 은
▁찾아 오
▁떨어 지게
▁복 수의
▁야 심
▁투 자를
▁해서 라도
▁불러 들였다.
▁그날 ,
▁거야 ...
▁도망 갈
▁노력 해
▁이리 와
▁훈 훈
▁봄 날
▁하자 면
▁엉덩 이에
▁한가 닥
▁젊은이 들의
▁떡 갈
▁내뱉 는
▁발걸 음이
▁마음속 에서
▁토해 냈다.
▁처박 혀
▁한순 간에
개 와
맨 이
생 들의
시 고,
▁자 명
▁다 이어
▁지 푸
▁것이 었지만
▁마 차에
▁전 신에
▁무 를
▁오 용
▁우 연의
▁미 란은
▁서 둘렀다.
▁저 들이
▁계 단에
▁감 도는
▁강 가에
▁파 랑
▁벌 판
▁따라 온
▁책 도
▁충 식
▁필요 하
▁알아 본
▁환 상이
▁리 치
▁접 시에
▁히 히
▁빌 리는
거리 게
▁그랬 듯이
▁공격 은
▁뿌 렸다.
▁이용 하고
▁뽑 았다.
▁퇴 직
▁오르 지
▁반짝 였다.
▁바퀴 를
th is
▁법칙 이
▁층 계를
▁고양 이는
▁실내 를
▁뒤섞 인
▁환호 성을
' 그
통 에서
▁없 죠.
▁다 윈
▁시 끌
▁조 르
▁성 폭
▁여자 한테
▁느 리게
▁번 창
▁명 절
▁함 성이
▁호 적
▁호 호
▁드 린
▁막 연
▁민 비의
▁출 격
▁금 할
해야 지.
▁뭐 야.
▁남편 인
▁나무 ,
▁암 시를
▁휘 발
리스 틴
으로서 도
▁찌 른
▁인정 해
▁의심 의
▁헛 되이
▁예술 적
▁발달 한
▁공간 에서
▁말일 세."
▁행렬 을
페이 시아
▁크리슈 나무
니 아의
진 짜
태 종은
▁이 분
▁" 말을
▁대 지를
▁내 딸
▁마 사는
▁전 방
▁남 도
▁불 란
▁상 옥의
▁미 움을
▁도 도
▁방 해를
▁구 미
▁번 인가
▁치 루
▁천 도
▁시간 으로
▁왕 위
▁머리 채를
▁부모 님께
▁밥 상
▁신경 쓸
▁미안 해요.
▁자랑 하고
▁칭 호를
▁관심 과
▁투쟁 의
▁날아가 고
ab out
▁라이터 를
겁 결에
노 .
떨 어져
베 드
셨 습니까?
터 ,
▁이 마의
▁하 에
▁말 하지만
▁어 는
▁어 데
▁지 르면서
▁모 름
▁주 셨다.
▁주 었다고
▁생각 될
▁알 자
▁상 응
▁아니 라도
▁더 위
▁돌 렸다
▁유 죄
▁방 청
▁결 심이
▁스 즈
▁강 렬하게
▁단 도
▁예 문
▁게 야.
▁현 인
▁현 저
▁과 목
▁"아 주머니
▁네 트워
▁권 하고
▁의미 있는
▁하여 야
▁부분 적으로
▁훌 훌
▁거리 에는
▁도와 주고
▁책임 지고
▁외국 에서
▁곰 보
▁골목 에서
▁근무 하고
▁장교 는
▁떡 을
id e
▁들여다 볼
▁몸뚱 이
▁아틀란 티스
▁ 뀌
▁ 름
들 까지도
민 에게
세 계를
여 의
운 에
웃 음
재 판
질 하고
질 수록
했 어야
▁사 죄
▁가 사를
▁어 요.
▁한 문
▁대 하고
▁여 옥의
▁거 물
▁우 연이
▁동 백
▁미 아
▁장 수를
▁입 주
▁연 주는
▁누 른
▁강 압
▁양 식이
▁병 자
▁산 부인과
▁회 고
▁왕 자를
▁숨 겼다.
▁좋아 하게
▁밖 에서는
▁아버지 께
▁떠나 온
▁송 은
▁보이 려고
▁"나 중에
▁됐 다는
▁전투 는
▁다행 이었다.
▁이론 의
▁데이 몬은
▁감정 적인
▁관찰 할
▁희망 의
▁균 형이
▁성냥 을
▁벽난 로
▁귀기 울
느 의
댁 에서
하 영이
▁가 요?
▁자 립
▁대 상에
▁소 재를
▁얼 싸
▁장 점을
▁속 담
▁심 장은
▁잡 담을
▁깨 지
▁5 4
▁뭐 예요?
▁광 장에
▁농 부는
▁잠시 도
▁늦 었다.
▁품 게
▁품 에서
▁익 살
▁지하 실에
▁뇌 물을
▁몰려 들어
▁위치 하고
▁춘 방
▁해당 한다.
▁시달 리는
▁닭 을
▁이별 의
▁대낮 에
▁우석 :
값 은
개 나
저 와
제 나
지 점
퍼 드
해 버린
▁" 악
▁말 하기도
▁기 관의
▁정 연
▁무 찌
▁부 류의
▁알 만
▁제 마
▁아니 오."
▁서 안
▁저 명한
▁문 밖으로
▁성 질의
▁관 동
▁아무 데도
▁과 자를
▁양 탄
▁참 혹
▁"아 이,
▁놀 래
▁없었 으며
▁갑 니다.
▁이것 들은
▁농 부의
▁코 와
▁키 보
▁쉬 면서
▁아름다 움은
▁마시 고,
▁도착 하는
▁옥 년은
at h
▁선택 이
▁새끼 ,
▁흥분 된
▁치료 가
▁형사 들은
▁나한테 는
▁높아 졌다.
▁런던 의
▁지껄 여
▁페이시아 는
▁내다보 며
경찰 서
▁바에 야
li ke
▁공짜 로
가 요.
거 래
동 이는
버 리지
사 만
소 도
씨 ?
철 도
▁이 양
▁이 성에
▁" 하여
▁아 담한
▁하 느냐
▁오 다가
▁고 이
▁도 적
▁살 리
▁입 맛
▁영 정이
▁차 게
▁반 공
▁적 부터
▁명 훈을
▁호 락
▁호 숫
▁그렇 다면,
▁아이 ,
▁않았 으니
▁존 엄
▁카 를
▁법 정에서
▁말씀 도
▁어린 아이의
▁끼 쳤다.
▁상황 으로
▁있겠 습니까.
▁대신 해
이야 기
▁들었 어.
▁싶어 한다.
▁시절 에는
▁과거 가
▁판단 했다.
▁내려가 기
▁이래 서
▁강력 히
el f
▁수준 으로
▁전달 하는
▁집어넣 어
▁팔꿈 치를
▁카지 노
기 라고
던 가?
라 니?
별 의
조 한
토 비노
효 를
▁않 소."
▁모 종의
▁거 로
▁거 실의
▁신 탁
▁장 개
▁분 의
▁원 나라
▁배 부
▁된 다면,
▁잡 지에
▁말이 야?"
▁넘 실
▁여기 에서는
▁계속 하여
▁아버지 인
▁중요 시
▁즐 겁고
▁범 을
▁있지 요?
▁극 락
▁그곳 에서는
▁면 역
▁던 질
▁노래 한
▁20 만
▁택 시는
▁뽑 는
리기 라도
▁고향 에서
선생 님은
▁테이블 로
▁무덤 이
▁감독 이
▁머뭇 거리다가
▁가로막 는
▁줄기 차게
▁객관 적으로
▁쇼팽 은
▁버드 나무
뜨 는
매 한
옥 에
쟁 의
테 를
▁아 수라
▁가 부
▁가 량의
▁수 완
▁정 숙
▁부 랴
▁조 부
▁동 상
▁공 장이
▁연 약
▁연 을
▁피 카
▁참 으며
▁애 도
▁최 우
▁회 오리
▁귀 는
▁존 속
▁일본 군이
▁라 구
▁나무 라
▁그날 로
▁"네 에
▁냄새 는
▁말아 .
▁전해 지고
▁비교 가
주시 오."
▁잊어버 리
▁슨 의
▁실행 에
났 고
조 각이
지 "
측 에
패 는
▁않 더
▁시 시한
▁기 둥이
▁정 력
▁정 원으로
▁비 방
▁미 인이
▁1 장
▁경 건
▁' 스
▁집 현
▁달 게
▁분 석을
▁싶 고
▁끝 부분
▁왜 요?
▁초 기에는
▁인간 이란
▁어머니 께
▁테 니,
▁되었 으나
▁잔 의
▁증 세를
▁가르 쳤다.
▁내용 도
▁"여 자
▁빗 발
▁중심 에
▁활동 은
▁골목 길을
▁담당 하고
▁불리 우는
▁멈춰 서
아저 씨는
▁모니 터를
▁클라 스라
▁호화 로운
▁디지 털
> 로
뜩 이나
바 위
술 ,
악 산
울 고
저 에게
튼 이
▁기 지를
▁전 역에
▁주 방으로
▁오 전에
▁조 영
▁제 도가
▁아니 지요.
▁도 장을
▁유 서
▁장 거리
▁집 에도
▁연 화
▁하나 요?
▁줄 게
▁태 도와
▁과 감하게
▁초 반의
▁그래서 인지
▁그리 움
▁4 대
▁일본 군은
▁카 나
▁대해 ,
▁육 감
▁극 비
▁좌 의
하시 지
▁"그럼 요.
▁탐 탁
▁틈 타
▁쾌 락의
▁의견 은
▁소유 자
▁17 세기
▁발표 된
▁남겨 두
▁위협 하는
▁제자 리로
▁노란 색
▁모델 이
▁선글라 스를
( 가
감 이나
휴 ,
▁" 쓸
▁" 월
▁하 림의
▁대 왕의
▁기 특
▁들 르
▁주 던
▁오 야
▁미 네
▁경 위
▁선 율
▁누 리는
▁지금 과
▁양 귀
▁국 회의
▁확 연히
▁총 살
인데 요.
▁나무 에서
잖아 ,
▁서울 서
▁옮 아
▁너희 가
▁춘 향
▁떠난 다.
▁돋 우
▁선배 는
▁불길 에
▁사흘 째
▁주차 장
▁단조 로운
로 마
서 방은
었 네.
인 들도
입 일시
▁그 른
▁그 간의
▁이 요
▁말 거나
▁자 에게
▁없 지."
▁다 을
▁마 이어
▁전 직
▁안 티
▁중 동
▁아니 야!
▁신 형
▁경 위를
▁경 건한
▁발 소리를
▁영 감의
▁영 역에
▁누 르며
▁개 량
▁김 덕
▁사랑 스런
▁국 왕의
▁환 경의
▁< 고
▁임 시로
▁법 정에
▁와 도
▁기분 도
▁보았 고,
▁연구 해
▁부모 들은
▁말고 도
."그 렇게
▁냉 혹
▁주인 인
▁오빠 ,
▁부정 할
▁테니 스
▁흘러나 온
▁쳐다 볼
▁바늘 을
▁분간 할
▁ 으로써
국 장이
기 에게
분 .
사 장은
업 으로
▁아 군의
▁나 카
▁가 픈
▁말 하게
▁않 네.
▁기 보다는
▁전 보를
▁소 동을
▁부 리나
▁해 온
▁해 봐.
▁인 지도
▁비 현실
▁중 이던
▁저 희가
▁"그 날
▁노 게
▁달 았다.
▁싶 었을
▁올 리지
▁통 할
▁매 끄러운
▁간 을
▁맞 닿
▁식 료
▁초 대를
▁이미 지가
▁준 이
▁깊 이를
▁권 력에
▁투 기
▁결혼 의
▁슬 로
▁행동 과
▁숙 제를
▁담배 가
▁돼 지가
▁소설 에
▁기울 이
▁국민 을
▁어른 들
▁버렸 어.
▁세워 야
장님 !
▁주시 오.
▁다양 하게
▁건네 준
▁남겨 둔
▁부처 의
▁없애 고
▁스쳐 가는
▁승용 차를
▁"천 만에
▁의혹 을
▁산산 조각
▁사사 로운
0 .
노 프
님 !"
떨 며
이 처럼
책 의
키 스
학 년이
▁이 규
▁" 북
▁아 동
▁어 야
▁다 했다.
▁내 기를
▁거 지가
▁오 라는
▁상 의를
▁신 청을
▁공 간의
▁유 랑
▁연 애를
▁새 해
▁양 쪽에서
▁학 년
▁회 장을
▁왔 어요."
▁싸 였다.
▁흘 리지
▁광 화
▁꽃 피
▁알았 으면
▁여기서 도
▁지역 이
▁반대 되는
▁튀 는
▁관련 하여
▁백성 들에게
▁버리 자
▁여유 도
▁수사 본
▁199 5년
▁이성 계는
해졌 고
▁대비 해
▁저곳 을
▁아카 시아
▁모릅 니다."
> 이라고
마 !"
뭐 라고
번 ,
웠 어요.
초 )
혈 압
▁모 사
▁여 사의
▁들 른
▁부 린
▁부 실
▁남 들
▁세 가
▁세 명
▁의 상
▁돌 보아
▁살 인이
▁' 원
▁장 관은
▁구 조는
▁계 기
▁건 데,
▁여자 인
▁실 리
▁현 관을
▁양 친
▁김 원
▁그렇 군요.
▁몇 주
▁초 점이
▁절 호의
▁침 통한
▁삼 림
▁토 니
▁살아 도
▁카 사
▁취 해야
▁말씀 입니까?
▁있지 요."
▁쓸 어내
▁꾸 역
▁덮 쳤다.
▁지구 에서
▁운동 장
▁무릎 이
▁맞아 요.
▁때에 야
▁잠이 든
▁헬 레
▁알겠 지만
▁찌푸 리고
킬로 그램
ag e
) 에게
- !
▁ 렉
내 면서
뉴 욕
루 미
름 다운
복 도
부 에서는
어 이
즈 ,
헌 이
▁" 앉
▁가 래
▁자 랄
▁없 네
▁대 머리
▁모 임을
▁마 일
▁남 동생
▁신 한
▁경 기가
▁차 리지
▁노 련한
▁돌아 다보
▁날 씬한
▁현 주가
▁외 숙
▁참 아야
▁산 봉
▁환 상의
▁수도 ,
▁일본 에서는
▁좋아 했던
▁벗 을
▁틀 려
▁나오 고,
▁디 스코
▁하느 라고
▁마루 타
▁되찾 은
▁노골 적인
▁어린아이 처럼
▁터펜 스는
d e
거 림이
겠 죠
끼 리는
라 요.
옆 에서
저 ,
칼 은
코 ,
필 드
헌 은
▁가 니
▁없 네."
▁일 기를
▁여 종
▁기 질을
▁인 구는
▁1 년이
▁발 바닥
▁성 품이
▁개 씩
▁예 산
이었 으니
▁본 보
▁질 렸다.
이라고 .
▁네 이
▁책 들이
▁5 3
▁준 석이
▁리 버
스럽 기
▁선생 에게
▁이번 의
▁범 행을
▁쉬 울
an ce
▁색 시
▁보통 이
▁솟아 올랐다.
▁런던 에서
▁계단 으로
▁d o
▁베이 징
▁주체 할
▁하하하 ."
관 들을
놈 들
높 은
람 의
메 르
바 꿈
사 원
솜 씨가
외 선
젠 가
▁하 셔야
▁가 려면
▁지 서
▁내 부를
▁것이 야
▁시 누
▁시 여,
▁기 척
▁사람 에게서
▁정 상이
▁주 어지는
▁생각 됩니다.
▁해 제
▁비 공
▁' 다
▁"그 대는
▁박 애
▁변 두
▁막 은
▁총 사령
▁사회 ,
▁묻 자,
▁없어 지
▁관계 되는
▁알려 주었다.
▁불안 했다.
▁해결 해야
▁부인 도
▁15 .
▁아니었 고
▁물고 기가
▁16 .
▁모래 를
▁"말 해
▁활발 하게
▁휘말 려
거 이
겠 죠."
되 는데,
바 른
반 장
빵 을
정 하고
즈 니스
▁사 범
▁지 아
▁시 립
▁들 렸다
▁소 탕
▁인 부
▁남 들은
▁할 거야.
▁진 수
▁진 숙은
▁매 끄
▁학 문에
▁체 를
▁4 4
▁슬 기
▁즐 겼
▁패 배를
▁대학 은
거리 다
▁경험 해
▁나에게 도
▁아니었 어.
▁푸른 색
▁펴 서
▁씻 은
▁흙 먼
▁값 싼
▁벨 을
▁직업 은
▁흘러나 오고
▁돌고 래
▁공허 는
▁율리 우스는
▁잠그 고
▁무뚝뚝 하게
A D
강 ,
기 획
마 로
유 도
코 드
▁" 야!
▁사 공
▁사 주에
▁대 위를
▁것이 네.
▁만 물이
▁못 되어
▁' 알
▁장 애를
▁노 린
▁달 음
▁성 서
▁예 금
▁2 일
▁김 부
▁본 체
▁타 락한
이라 니,
▁네 온
▁둘 도
▁옆 자리에
▁코 는
▁그만 이
▁궁 중에
▁잘못 은
▁어찌 되었
▁부르 던
▁달라 지
▁가까이 서
▁뽑 은
▁여름 에는
▁굽 히지
▁웅 얼
▁�� a�
▁머물 렀다.
▁마땅 치
▁"아무 튼
▁발자 국을
▁강요 하는
▁보살 피
▁프란 체
▁적절 하게
▁퍼붓 는
▁정교 한
▁가두 어
추 장
필 은
▁전 임
▁고 집이
▁알 만한
▁상 상의
▁아니 냐고
▁의 거
▁도 려
▁박 창
▁호 남
▁호 수가
▁설 혹
▁직 전의
▁항 아리
▁권 세를
▁판 사가
▁나와 야
되었 음을
▁표정 도
▁사용 된
▁젖 무덤
▁트 럼
▁모르겠 군요.
마는 ,
▁상상 조차
자마 자,
▁무시 해
▁동네 에서
▁쌀 한
▁부정 적
▁낫 다.
▁전통 적
▁공동 으로
▁시체 로
▁규칙 적으로
▁어떨 까요?
▁궁극 적으로
▁세라 마
a us
더 라."
때 로
표 로
▁" 많이
▁나 부
▁말 어.
▁한 나라
▁때 이다.
▁오 그라
▁되 나
▁되 시
▁되 리라.
지만 은
▁1 주
▁' 백
▁장 에
▁성 형
▁함 대
▁태 후
▁변 한다.
▁소리 지
▁리 얼
구나 !"
▁말씀 대로
▁응 ,
▁옥 타
▁부드 럽
▁영혼 과
▁살펴 볼
ed .
▁훔 치
▁같은데 .
▁"진 짜
▁구별 이
▁"아직 은
▁이만 저
▁평온 한
▁필라델 피아
2 8
노 인이
령 ,
베 를
에 이
예 ."
조 나
지 까지
▁이 동을
▁사 가지고
▁말 살
▁보 시는
▁조 명이
▁중 계
▁동 문
▁관 직
▁진 화의
▁죽 어버
▁돌아 보는
▁간 에,
▁모르 죠.
▁애 쓴
▁국 장은
▁음 주
▁철 수가
▁항 시
▁취 기가
▁겨 워
▁움직 이면서
▁있다 니
▁능 숙한
▁그림 의
▁노래 와
▁그럼 이
▁주장 할
▁연락 할
▁하느 님은
▁박사 에게
▁망설 임
▁터뜨 리며
▁현관 에서
.” 하고
더라면 ,
▁"아무 도
▁걷어 차
▁기자 회
▁형식 적인
부르 크
▁어투 로
불 한
였 었다.
옵 소서.
즘 의
포 장
학 도
호 실
▁이 신
▁이 들도
▁사 다리를
▁시 외
▁기 간에
▁못 하였
▁도 맡
▁데 만
▁번 거렸다.
▁통 상
▁현 서
▁파 우
▁박 용
▁끝 맺
▁아이 린
▁갈 겨
▁합 의를
▁프 는
▁황 해도
▁복 구
▁( 3)
▁꾸 물
▁정치 적으로
▁엉 겨
▁쥐 는
▁마련 이
▁달아 날
▁반대 하고
▁돌아오 게
▁증거 로
▁17 7
▁테니까 요."
▁벗겨 져
▁킬 츠는
▁되살아 났다.
▁엄격 하게
▁건조 한
노 래
데 를
랄 드
채 ,
코 프
팔 은
▁하 영
▁가 계
▁가 방에서
▁전 한다.
▁비 인간
▁불 룩
▁눈 먼
▁의 외의
▁' 장
▁구 조의
▁개 설
▁반 을
▁예 수가
▁박 스
▁잡 았다
▁친 지
▁정도 전은
▁"아 아!
▁초 계
▁직 원들은
▁말씀 에
▁없어 질
▁들었 다는
▁국민 들은
▁동물 들이
▁실험 에
▁찢 어져
▁즐거 움이
▁언니 와
▁지혜 와
▁서두 르는
▁내던 지고
▁포르 투
▁지폐 를
( 오
개 에
나 리
노 라는
둥 이가
리 나는
질 이나
했 어요
▁이 식
▁대 거
▁때 면,
▁거 고,
▁무 슬
▁오 도
▁안 들
▁비 서가
▁제 단
▁있었 지
▁구 형
▁새 파게
▁적 나라
▁치 게
▁말이 야!"
▁점 ,
▁종 사하는
▁3 의
▁추 사는
▁음 산
▁리 비
▁없어 요?
▁흐 렸다.
▁흐 릿한
▁듣고 도
▁디 밀
▁졸 지에
▁부탁 할
▁무렵 이
▁영국 과
▁사라져 버린
▁대원 군이
▁제1 차
▁다물 어
▁장수 들이
▁런던 에
▁취급 하는
▁지껄 였다.
▁부근 에서
▁부축 을
▁일시 적으로
▁"아저 씨,
▁시시 각
▁갈래 로
9 9
겠 나.
버 스를
엔 은
으 시는
쳐 야
팔 의
화 하여
▁가 려는
▁수 렁
▁없 다면,
▁때 껏
▁전 차가
▁바 자로
▁인 은
▁남 포
▁불 그
▁아니 에요."
▁미 군이
▁원 했던
▁통 일이
▁내려 섰다.
▁갈 증을
▁야 곱
▁흔 쾌히
▁증 조
▁옷 자락을
▁없을 까
▁갔 었다.
▁맡 겼
▁암 이
▁결정 적으로
▁기대 했던
▁낳 지
▁보호 하고
▁지휘 를
▁나갔 을
▁마신 다.
▁엘리자베 스
▁은은 한
▁진저 리를
과 장
구 치
봤 다
분 과
천 천히
효 는
▁그 말을
▁자 락을
▁지 방으로
▁고 깃
▁그러 자,
▁불 충
▁동 일은
▁의 지에
▁1 등
▁장 독
▁있었 네.
▁후 예
▁단 계는
▁현 관에
▁매 몰
▁행 적을
▁참 이
▁호 수의
▁믿 어주
▁이것 에
▁카 아버
▁벗 는
십시 요.
▁들려 준
▁사람들 보다
▁여행 하는
▁가로 되
▁기술 에
▁성격 과
▁바깥 의
▁말하 자,
▁발표 를
▁찔 린
합니다 만
▁그늘 에서
▁있습니다 만
▁소식 도
▁전하 께서
▁가다듬 었다.
▁간지 럽
▁거역 할
▁노여 움을
’ 을
개 ,
곳 은
교 수
맞 추
매 일
품 ,
▁" 워
▁아 다
▁사 발
▁기 부
▁무 니를
▁고 장이
▁위 주로
▁불 지
▁미 미
▁저 녀석
▁경 제가
▁' 현
▁구 운
▁입 었
해서 도
▁계 십니까?
▁죽 임을
▁잘 게
▁명 상에
▁길 가
▁형 수
▁난 리를
▁외 상
▁크 기는
▁곧 은
▁프 런
▁코 로
▁것으로 는
리아 에
▁짜 릿
▁피해 자
▁예상 하지
▁무덤 에
이었을 까?
▁트럭 에
▁내세 우는
▁아시아 의
▁호주머니 에서
거 리의
느 가
싸 움을
태 로
▁" 앗
▁아 브라
▁나 보고
▁보 지는
▁한 치의
▁것이 죠.
하는 가
▁남 극
▁남 동
▁' 파
▁손 녀
▁문 틈으로
▁달 랬다.
▁성 기가
▁열 성
▁새 워
▁시작 이
▁배 정
▁당신 ,
▁표 시가
▁외 래
▁남자 들과
▁내려 진
▁절 친한
▁인간 도
▁지나 온
▁팔 자가
▁기다 린다.
▁체 격
▁친구 들도
▁밀 집
▁전화 해
▁저녁 에는
▁위로 를
▁냉 혹한
▁않겠 는가.
▁낯 을
▁조사 하고
▁차지 한
ic e
▁등장 한다.
▁되찾 을
▁단말 이야.
▁"아버 지,
▁"얼 마나
▁블라 우스
▁오락 가락
▁심오 한
' 이었다.
i al
개 혁
국 장은
김 을
되 는데
무 에
보 리
슬 로
턴 은
함 에서
▁가 망이
▁지 치고
▁전 생의
▁신 축
▁1 시
▁장 미는
▁영 숙
▁연 꽃
▁단 위로
▁예 나
▁시작 되어
▁순 서를
▁끝 냈
▁곳 .
▁절 실히
▁헤 어지고
▁승 주는
▁젊 어
▁악 어
▁휘 둘
▁패 인
▁홍 경
▁싶어 졌다.
▁폐 위
▁해결 책을
▁일에 만
▁짧 아
▁소유 한
드려 야
▁뼈 저
▁정부 에서
▁차림 이었다.
▁부처 가
▁물러서 지
▁"과 연
▁부랴 부랴
I C
▁ 쎄
구 석
석 에게
씨 한테
피 곤
회 의를
▁이 들과
▁사 기가
▁하 버드
▁대 열
▁거 죠."
▁오 기로
▁우 디
▁고 치고
▁' 선
▁문 밖에서
▁듯 하였다.
▁예 술을
▁명 당
▁매 도
▁행 사가
▁교 대
이었 음을
▁모르 시
▁< 아
▁각 성
▁로 디
▁극 에
▁보여 주지
적이 거나
▁떠올 리고
▁프로 트
▁성공 적인
▁썼 다
▁봄 을
▁미안 해.
▁"하 하,
▁때에 만
▁희망 과
▁도둑 이
보았 으나
▁어머 님이
▁늘어놓 는
▁귀찮 아
▁분위기 였다.
▁내려놓 으며
▁밤하늘 을
▁완강 하게
▁입맞춤 을
> (19
객 의
곁 에
대 장은
마 법
았 는데,
재 도
전 에는
훈 에게
▁나 더러
▁정 치는
▁무 단
▁되 리라고
▁고 심
▁저 널
▁경 시
▁좋 겠습니다.
▁하나 뿐인
▁배 도
▁군 량
▁환 자들은
▁환 자들을
▁황 진
▁일본 인들이
▁극 한
▁남아 프리카
▁만큼 이나
▁넘어 간
▁부탁 하는
▁들어서 며
▁아니었 기
▁고려 해
▁헛 소리
▁헬 기
▁뜯 고
▁빨간 색
▁지적 한
▁공개 적으로
할아버 지는
▁진작 에
▁물었 더니
▁리듬 을
겠 다면
르 트는
였 다가
▁" 역
▁사 물에
▁모 실
▁조 서를
▁제 9
▁경 련이
▁있었 나
▁차 리는
▁작 정을
▁통 증
▁태 국
▁타 오르고
▁의미 했다.
▁8 0년대
▁알려 야
▁다녀 야
바람 을
▁붙여 진
▁수천 년
▁쓸쓸 하게
▁신분 증을
▁페르 난
▁어린애 처럼
▁어르 신
교 사
대 나
뭐 ,
복 한
셔 요.
으 십시오.
정 신을
헌 의
▁하 위
.. ?"
▁자 국을
▁일 대에
▁여 관으로
▁사람 한
▁주 연
▁안 다면
▁두 대의
▁1 층
▁방 도가
▁장 모
▁때문 만은
▁누 리
▁여자 라면
▁놓 으면서
▁친 밀한
▁맞 아서
▁병 풍
▁산 타
▁편 지의
▁직 후에
▁5 7
▁황 천왕
▁토 미가
▁광 산
▁꺼 낸다.
▁메 가
▁레 몬
▁봉 주
▁봉 순이
▁자연 스런
리아 와
▁행복 해
an k
▁솔 로
▁압 력
es ,
▁주시 기
▁두려워 할
▁객 실
▁199 6년
▁뭉 게
▁남겨 진
▁덤 불
▁"수 고
▁"말 도
퍼센 트가
▁바싹 다가
▁지냈 던
▁대규 모의
▁버림 받은
% 의
▁ 니다
다 하고
라 노
미 술
짝 이
환 자는
▁사 들고
▁나 면,
▁가 희
▁마 셔야
▁여 류
▁오 일
▁되 든
▁알 릴
▁인 수가
▁상 서
▁세 요?
▁살 려고
▁살 짜리
▁성 미
▁뒤 지고
▁스 을
▁몸 담
▁먹 어서
▁아이 로
▁별 반
▁야 전
▁올라 갔
▁항 우는
▁탄 트라
▁때마다 ,
▁손가락 질
▁낭 떠
▁노력 으로
▁탁 탁
▁눈앞 을
▁까닭 이었다.
▁분노 는
▁연결 이
▁"제 이
▁싫어 했다.
▁생겨 나
▁생겼 을
▁것인가 에
▁반짝 이며
▁자라 서
▁흐느 적
▁댄 스
니스 커
▁겸손 한
기 운이
대 ."
라 로
붙 인
사 이에
▁나 열
▁가 격이
▁어 안이
▁한 손을
▁한 눈에
▁대 롱
▁시 와
▁정 성이
▁오 의
▁인 식의
▁중 매
▁중 에서는
▁' 위
▁영 민은
▁했 다가
▁건 만
▁길 거리에서
▁언 은
▁않았 어요."
▁추 모
▁초 연
▁테 지만
▁"이 ,
▁벗 지
▁취 조
▁메 우고
▁육 신을
▁만들 면
▁엉 겁결에
▁기록 해
▁국민 들이
▁단순 하게
▁최고 로
▁잠자 리에서
▁걷어 올
구만 요.
▁보여주 기
▁억울 하게
▁비디오 를
▁스테파 니는
▁멈춘 다.
조판 서
거 다.
막 은
배 ,
봉 으로
안 한
정 사
졌 는데
커 가
했 죠.
▁보 복을
▁다 르고
▁일 지
▁모 세
▁시 트를
▁기 미
▁주 홍
▁무 대를
▁바 텐
▁상 사가
▁신 화에
▁의 욕을
▁살 은
▁문 명은
▁연 회
▁선 채로
▁달 팽
▁관 절
▁했 어."
▁피 해야
▁길 밖에
▁회 심의
▁얼마 간의
▁환 멸
▁승 부를
▁중요 하다는
▁쳐다보 지
▁가져 오게
▁"저 ...
▁어찌 해야
그러 고
▁기대 하지
▁불과 하다는
▁P .
▁늘어 뜨린
▁수용 소
▁밭 에
▁크리 스트
▁부서 지는
▁신앙 의
▁열려 진
▁불러일으 키
▁이치 도는
▁키스 했다.
▁모퉁 이에
▁쿠데 타를
▁정신분 석
▁가급 적
▁ k
데 스가
들 (
머 는
불 구
수 만
었 지
▁" 할머니
▁하 릴
▁하 반
▁가 르는
▁말 든
▁어 ,
▁자 선
▁대 령이
▁내 력을
▁내 일을
▁소 문에
▁조 정은
▁중 순
▁살 포
▁장 비가
▁구 요
▁차 며
▁관 점
▁단 축
▁2 번
▁화 사한
▁산 꼭
▁포 졸
▁운 행
▁볼 까?
▁되었 으면
▁증 상을
▁옷 장
▁메 르
▁판 사는
▁코 에
▁슬 라
▁윤 기
▁자리 하고
▁섬 광이
▁가족 에게
하시 기
▁지켜 본
▁달라 서
▁척 척
▁퇴 폐
▁거부 했다.
▁확신 에
▁대비 하여
▁닭 이
▁무더 운
’ 라는
놓 는다.
슨 과
외 는
켰 다
함 )
▁그 친
▁하 퍼
▁가 즈에
▁말 쑥
▁자 나
▁자 로
▁보 게.
▁지 시가
▁기 간을
▁걸 었던
▁집 시
▁연 명
▁계 통의
▁행 세를
▁난 다는
▁천 황
▁리 드
▁복 원
▁즉 흥
▁끊 어졌다.
▁까 치
▁히 스테
▁자세 는
▁프로 이
▁펼 치고
▁사실이 지만
▁시민 의
▁후회 가
▁서글 픈
가 라고
기 란
대 에는
더 를
돈 의
록 은
보 인
상 자를
여 명이
▁나 두
▁자 리의
▁지 어서
▁시 설이
▁오 셔서
▁조 사에
▁유 신
▁걸 리면
▁성 교를
▁순 결을
▁외 롭고
▁국 화
▁술 상을
▁둘 씩
▁용 감하게
▁숨 죽
▁순간 은
▁순간 까지
▁와 닿
▁가서 ,
▁어찌 됐
▁보이 는데
▁알려 줄
▁정보 고속
▁만일 에
▁주장 하였다.
▁데려 와
▁국가 와
▁빼앗 은
▁불가능 하다는
▁돌아온 다.
▁파악 하는
▁L A
▁보따 리
▁빼어 난
▁뒷좌 석에
” "
▁ 끗
남 도
달 에
랄 까
상 에는
예 ?
정 신이
칼 이
탈 이
▁어 물
▁시 구
▁전 설이
▁무 기는
▁생각 까지
▁비 의
▁신 화를
▁미 군의
▁걸 러
▁날 까지
▁원 할
▁교 류
▁절 실한
요?" 하고
▁쉬 에
in t
▁격 이
▁그랬 어요.
▁싶어 하지
▁들어서 서
▁동생 에게
▁연락 도
▁정상 적으로
▁니콜 라이
▁휴대 용
▁현기 증이
---------------------------------------------------------------- ----
▁흐를 수록
▁매섭 게
▁ 씩씩
려 했다.
미 사
안 경을
자 이다.
쪽 에서는
찬 의
타 와
▁수 여
▁마 성
▁고 참
▁같 구나.
▁비 결
▁미 르
▁돌 발
▁죽 기를
▁했 다,
▁분 한
▁단 어는
▁등 .
▁듯 도
▁재 잘
▁몰 린
▁산 수
▁갈 까
▁인간 이라는
▁깨 물고
▁없었 지.
▁친구 였다.
▁뭐 냐
▁또한 ,
▁6 3
▁6 백
▁사건 이었다.
▁맡 아서
▁끊 긴
▁비슷 했다.
▁데려 오
▁감정 도
▁이틀 이
▁나아가 서
▁콘 서
▁엔 지니
▁비비 며
▁충혈 된
▁사타 구니
( 남
레 로
언 할
예 요!
왕 조
우 주
준 에게
코 에
▁" “
▁하 옵니다."
▁않 거나
▁마 드
▁전 하를
▁무 당이
▁안 쓰
▁인 원
▁미 개
▁저 거
▁유 희
▁받 치고
▁잠 옷을
▁적 개
▁예 수는
▁배 양
▁떠 내려
▁간 질
▁과 자
▁과 감히
▁치 맛
▁약 국
▁질 투를
▁바라 던
▁뛰 며
▁다가 온다.
▁있다 !
▁노래 로
▁"지 훈이
어놓 았다.
▁빗 방울이
▁겨울 에는
▁국가 에서
장님 께
▁"하 늘
▁교회 가
▁교회 는
▁의사 들은
▁동료 들을
▁대표 적
▁보였 을
▁고민 이
▁아니겠 습니까?
▁괴롭 히고
▁자살 한
▁칸 막이
하리 만큼
▁유감 스럽게도
▁엉망 으로
▁빨려 들어
▁초콜 릿
h ad
가 라는
동 한
란 드의
반 ,
보 기도
비 치는
찍 이
타 임
토 로
파 도
▁그 네의
▁" 출
▁" 캐
▁가 네
▁수 문
▁수 험
▁마 칠
▁기 력이
▁바 지에
▁앞 쪽에
▁교 감
▁호 국
▁학 부
▁식 이었다.
▁크 다는
▁절 이
▁특 무
▁근 심이
▁올라 타
▁폭 도
▁망 신
▁7 2
▁여성 과
▁클 라우
▁말고 ."
▁품 어
▁뉴 스가
▁쌓 는
▁한편 으론
▁몰라 했다.
▁오르 가슴
어졌 던
▁아주머니 의
▁공간 은
▁즈 음에
▁선언 했다.
▁헐떡 이며
▁진작 부터
▁유리창 에
▁가공 할
▁안성 맞춤
' 였다.
( 신
견 은
눈 으로
스 포
아 이가
입 술을
탕 이
▁부 집
▁세 심한
▁신 생
▁' 해
▁그리고 ...
▁열 렬히
▁단 위
▁원 리에
▁태 아의
▁난 ,
▁한국 과
▁나오 던
▁뜨 며
▁드러 나고
▁히 트
▁녀석 들은
▁틈 에서
▁반응 에
▁중앙 의
▁쿠 빌
▁갖추 지
▁두드 리고
▁노예 로
▁일러 주었다.
▁제이 미는
▁요란 스럽게
▁단정 히
▁꼼꼼 히
▁세속 적인
▁못지않 은
▁갈기 갈기
가 장
골 로
려 한
렸 는데,
샤 의
슈 .
우 린
장 관
▁이 윽
▁" 엘
▁가 릭
▁시 면
▁오 더니
▁우 둔
▁생각 ,
▁상 상이
▁반 나
▁적 과
▁현 란한
▁박 동
▁언 어는
▁김 씨의
▁않았 으나,
되어 갔다.
...... ”
▁민 심을
▁숨 결
▁터 지
▁범 람
▁암 호를
▁노래 에
▁견 해가
▁위로 의
▁약속 해
▁불안 감이
▁건너 갔다.
▁거리 였다.
▁들어서 면
▁얻어 지는
▁출발 하는
▁기다리 다
▁생겼 다는
▁먹어 치
▁올리 브
▁노출 된
▁다니엘 은
▁로스 앤
’ 는
까 짓
꼬 리
난 다는
디 언
마 라.
빛 에
왔 는데
우 우
자 꾸
잔 에
트 카
하 인
▁" 올
▁사 스
▁내 방
▁거 드
▁동 사
▁신 상에
▁우리 한테
▁도 약
▁유 비를
▁많 지만
▁열 면
▁싶 진
▁2 주일
▁친 숙
▁함께 ,
▁포 스트
▁사이 였다.
▁일본 인들은
▁희 극
▁이러 지
▁투 하
▁멀 티
▁끼 니
▁뛰어 들어
▁잘못 했
▁찬 바람이
▁꾸 미는
on d
▁"나 으리
▁알려 준
▁경험 하는
▁성공 의
▁업 신
▁어렵 다고
▁주시 했다.
▁무너 질
▁이웃 집
▁파괴 하는
▁관찰 해
▁이외 에도
▁통과 할
▁감동 적인
▁오라 버
▁브래 지
▁무거 웠다.
▁손등 으로
▁---------------- --------------
▁어설 픈
▁속수 무
( m
글 을
레 오
령 과
큼 한
화 되는
▁이 준
▁이 치가
▁말 듯
▁어 슴
▁자 와
▁없 군.
▁모 차
▁시 로
▁기 후
▁부 산을
▁부 채를
▁안 진
▁저 주를
▁공 작을
▁영 상을
▁영 희를
▁뒤 가
▁목 마
▁버 들
▁현 장으로
▁앉 으면
▁양 상을
▁산 소를
▁식 물이
이라 야
▁“ 왜
▁키 울
▁있겠 나?
▁바닥 에는
▁계획 하고
▁전해 들은
▁왼 손을
▁빙 둘러
▁아프 지
▁실험 실
▁발전 이
▁조건 은
▁생겼 다고
▁있으니까 ."
▁들어선 다.
▁배고 픈
▁깨우 쳐
▁급속 도로
▁리처 드
▁끈적 끈
괘 를
머 스
물 이었다.
시 계를
안 과
욕 에
주 기도
▁그 일
▁없 잖아요.
▁한 양으로
▁만 다
▁남 작
▁동 호
▁세 례
▁세 명이
▁신 명
▁건 배
▁강 도가
▁몸 놀
▁단 ,
▁병 아리
▁금 전
▁팔 레스
▁잔 혹한
▁광 활한
▁사회 로
▁모양 이라고
▁활 발한
▁딸 로
▁끊 겼다.
▁꽃 의
▁송 가
▁낮 이
▁퍼 진
▁밥 먹
▁마련 할
▁나왔 다는
텐데 ...
▁역사 적으로
▁아프 고
▁오늘날 에는
▁머물 게
▁처리 해야
▁시민 들의
▁본능 이
▁바탕 에
▁"으 음
▁능력 도
▁여보 ,
▁이스라엘 의
(T he
( 일
걸 로
누 나
줌 으로써
중 앙
토 와
편 하게
하 건
하 죠?
▁그 어
▁있 습니까.
▁이 쪽의
▁" 침
▁일 말의
▁지 프
▁지 함은
▁내 적인
▁들 판에
▁무 색
▁부 도덕
▁인 권
▁미 숙
▁서 재로
▁구 급
▁입 밖으로
▁따 위에
▁계 인은
▁반 격
▁했 습니다
▁마음 ,
▁교 란
▁본 시
▁애 무를
() 에게
▁변 소
▁절 차
▁깨 는
▁충 동에
▁팔 지
▁권 고
▁라 트
▁사라 지게
▁� 렀
▁설명 에
▁연구 한
하시 어
▁비행 기에
▁티 끌
▁출발 할
▁몰랐 습니다.
▁"우리 도
▁흙 으로
▁들어갔 던
▁창조 적
▁숭 고한
▁사망 한
▁유전 자를
▁고정 된
▁쥐어 뜯
▁들여다 본
▁빛깔 의
▁아리 랑
▁얼룩 진
계급 의
▁"아저 씨
▁나그 네
▁아슬아슬 하게
9 0
건 과
나 르
변 으로
오 고,
제 공
하 께서는
▁한 다,
▁때 서
▁정 황
▁못 된다.
▁저 려
▁돌 에
▁유 고
▁손 만
▁속 성을
▁목 걸
▁목 화
▁배 경을
▁찾 던
▁재 봉
▁간 통
▁허 물이
▁모르 지요.
▁따라 가는
▁정도 까지
이라 구.
...... ,
▁토 의
▁결혼 해
▁능 선
▁석 연
▁끌어 들여
▁익 스피
▁하였 고
▁가려 져
▁파이 프
▁아라 비아
▁정반 대
▁장담 할
▁크리슈나무 르티
( 미
E S
w ith
▁ 니까
리 스의
목 도
세 트
육 이
준 과
▁" 앞
▁" 증
▁" 통
▁말 기
▁정 화가
▁도 끼를
▁돌 이를
▁스 드
▁스 와
▁통 신을
▁힘 입어
▁회 화
▁깨 물며
▁"어 ?
▁풍 자
▁갔 고
▁표정 과
▁쳐다보 았다
▁들려 온
아버 릴
▁사내 들의
▁한마디 했다.
▁불과 할
▁의심 스러운
▁변화 하는
▁가난 하고
▁슬픔 의
▁더듬 거리며
▁노릇 이
▁인민 의
▁반복 되는
▁감시 하는
▁구조 에
▁뿐이 오.
▁카메 라가
▁걸어나 왔다.
▁그만두 었다.
▁하숙 집
▁하데 스는
▁갈매 기
▁우크라 이나
a ir
s )
’ 라고
말 도
뿌 리
하 십시오."
▁가 한
▁말 들
▁않 으므로
▁기 관을
▁주 었고
▁부 부를
▁경 청
▁집 애
▁발 사한
▁발 작을
▁성 욕을
▁감 명을
▁진 리가
▁피 하여
▁시작 하기
▁배 타
▁간 다면
이었 기에
▁밤 엔
▁절 망을
▁팔 구
▁붙 여서
▁4 분의
▁빨 이
▁취 직을
▁해서 든지
▁넣 으며
하시 던
▁싶어 ."
▁넘어 가고
▁거짓 이
▁세월 에
▁가을 의
▁이날 은
▁계산 해
▁감독 의
▁막혀 서
▁방사 능
기 간
년 이나
명 이었다.
몽 을
셋 이
차 곡
▁이 어진다.
▁거 였
▁거 창한
▁전 재
▁주 마
▁소 령의
▁불 우
▁더 럽고
▁1 호
▁경 제를
▁걸 린다.
▁영 상이
▁했 으므로
▁않는 지
▁참 전
▁김 혜
▁존 은
▁리 모
▁밀 린
▁로 빈
▁좋아 한
▁끌 끌
▁페 로몬
▁8 천
▁그랬 는지
▁가족 들과
▁충분 하다.
▁"왜 요?
▁동물 과
▁운전 기
▁기다리 다가
▁흡 사한
ic k
▁꼼짝 하지
▁핏 줄
▁솟구 치는
▁오너 라.
▁활활 타
” 그는
거 예요.
금 지
넣 은
대 회
래 야
루 루
저 기
쥐 었다.
지 부
체 제
탁 은
포 ,
▁그 말
▁" 쉬
▁가 뜩이나
▁것이 냐
▁정 환
▁정 적으로
▁무 명을
들이 ,
▁해 졌다.
▁비 통한
▁두 팔을
▁입 었던
▁계 세요.
▁진 군
▁누 추
▁목 례를
▁목 걸이를
▁반 환
▁피 임
▁파 서
▁과 외
▁학 자들은
▁놀 던
▁내려 간다.
▁무엇 일까.
▁울 적
▁혼 말처럼
▁뭐 냐?
▁취 하여
▁코 너
▁꼭 대기
▁망 연
되었 다가
▁넣 지
▁뜨 게
▁위험 은
▁결정 된
▁25 일
�a� a�
▁관념 이
▁못마땅 하게
▁배고 프
▁"계 속
▁엄격 히
▁박물 관
▁케네 디
▁엄두 도
> 이란
o ver
▁ 니까?"
갑 시다.
겠 지,
겠 구나.
곳 에
시 어
졌 는지
진 해
측 은
▁" 춘
▁수 진의
▁자 비를
▁알 맞
▁상 감의
▁세 로
▁서 산
▁유 제
▁입 구의
▁피 하려고
▁번 지
▁버 클
▁심 양
▁앉 히고
▁김 응
▁말이 지요.
▁3 개
▁포 섭
▁뿐 .
▁왕 비를
▁근 친
▁총 동원
▁광 선
▁디 스크
▁홍 수
▁설명 한다.
▁도착 하면
▁니 나는
▁옳 다.
▁맺 었다.
▁도와 줄
▁전문 가가
▁동료 가
▁생명 력을
▁남성 들은
▁다름 없는
▁국제 적인
▁우울 하게
▁황금 의
▁남녀 간의
▁충격 에
▁외면 하고
덕 에
번 호
셨 어요.
습 은
자 )
자 기가
지 종을
형 도
▁없 더
▁않 으리라.
▁내 두
▁사람 인지
▁소 동
▁부 득
▁부 턴
▁해 양
▁미 역
▁서 식
▁의 도는
▁선 행
▁진 미
▁반 신
▁앞 길을
▁열 번
▁너 털
▁적 에게
▁태 풍
▁과 소
▁애 완
▁혼 혈
인이 란
주의 로
▁풀 밭
▁높 이가
▁나서 고
▁아침 이면
▁나와 의
▁키 운
▁얘기 나
▁그림 으로
▁규 범
▁달라 진다.
▁압 둘
▁달아 나고
▁오후 가
▁흥분 으로
▁노동 자들이
▁철학 이
▁아니겠 지?
▁되어서 는
▁류지 오가
▁익숙 해
▁저택 을
▁호랑 이를
▁잔디 밭
▁흥건 히
▁"염 려
아 한
유 와
장 군의
칼 에
탄 과
▁이 끈
▁이 북
▁이 마가
▁없 애는
▁일 입니까?
▁지 질
▁때 .
▁기 자들은
▁정 했다.
▁정 상으로
▁거 실에서
▁부 러운
▁신 자
▁' 새
▁장 식이
▁노 조
▁개 미를
▁벌 기
▁김 용
▁타 면
▁웃 옷을
▁편 할
▁믿 어지
▁젊 어서
▁틀 을
▁젊은 이를
▁클 린
▁보이 질
▁넘어 가지
▁빗 물이
▁턱 으로
▁방향 에서
▁이웃 을
▁맞이 하는
보았 지만
▁고작 이었다.
▁내뿜 으며
▁"결 국
▁ 락
겠 군
글 "
꼴 을
샤 를
창 하게
▁없 소
▁때 린
▁조 사가
▁두 시간
▁제 자들이
▁미 약
▁영 사
▁그것 만으로도
▁개 비
▁등 불
▁느 려
▁일이 었지만
▁과 격
▁이상 과
▁음 향
이라 니.
▁바라보 기만
▁황 정
시키 게
▁"어 쩌면
▁풍 경은
▁즐 긴
▁범 위를
▁논 쟁이
▁가운데 에는
▁대신 들은
▁보여 야
▁드러 낼
▁착 용
▁지도 자가
▁영혼 에
▁미안 하다는
▁놓여 진
▁바깥 을
우스 에게
▁활동 의
▁모래 가
▁옹 기
▁괴롭 혔다.
주머니 에서
▁가려 진
▁실천 에
▁찾아내 어
▁1, 000
투성이 의
▁무자 비한
▁하나둘 씩
oug h
▁ 딘
가 나
곡 으로
다 르
병 도
종 도
주 고는
▁있 니?"
▁이 빗
▁이 룩한
▁하 산
▁자 애
▁다 치지
▁기 득
▁정 원이
▁우 세
▁남 기는
▁유 원
▁강 모는
▁재 판이
▁매 입
▁군 요.
▁박 호
▁형 벌을
▁김 태
▁절 감
▁인간 으로서
▁청 혼을
▁잔 소리를
▁야 영
▁육 상
▁봐 !
▁숙 부
▁잘못 되어
▁거예 요,
▁경제 학
▁데려 갈
▁조각 으로
▁깨닫 는다.
▁싸움 의
▁잊어버 릴
▁드물 다.
▁몸뚱 이를
▁떠돌 고
( 유
3 4
’ 를
되 지만
메 고
침 은
커 의
항 이
▁이 네
▁자 른
▁대 칭
▁마 케
▁기 묘
▁소 송을
▁오 는데
▁비 통
▁미 련을
▁얼 렁
▁' 태
▁집 단을
▁계 집을
▁앞 만
▁가지 도
▁표 본
▁시간 적
▁소리 치
▁소리 들이
▁끌 며
▁만들 게
▁상황 과
이다 !"
▁보이 도록
▁혜 진의
▁됐 다고
▁헛 간
▁감추 기
▁'그 런
▁공동 묘
▁허리 띠
▁있으리 라고는
▁내뱉 은
▁비극 의
▁보람 이
▁음료 수를
▁각별 한
됐 을
라 면서
발 과
실 장이
얼 마
정 이가
채 와
▁그 자의
▁있 느냐는
▁아 티
▁내 사
▁모 자가
▁사람 아,
▁생 글
▁무 죄
▁바 노
▁만 기
▁인 체
▁유 리는
▁자신 만의
▁영 장
▁차 문을
▁앞 당
▁명 목으로
▁길 가의
이었 습니다."
▁드 럼
▁변 질
▁여러 모로
▁체 제가
▁야 산
▁결혼 하여
▁이야기 하지
▁까 무
▁공격 했다.
▁쥐 죽은
▁몹시 도
▁차례 를
▁고향 은
▁입술 과
▁지휘 관
▁17 일
▁보면서 ,
▁때문이 죠.
▁사령 관이
▁희망 에
▁덤 덤
▁빵 과
▁꿀 벌
▁잠수 함이
▁당연 하다.
▁학문 적
▁유치 한
) "
▁ 였다.
깨 를
로 움을
성 이었다.
소 하고
웃 는
처 리
측 이
칸 의
▁있 듯이,
▁사 제가
▁자 르
▁여 관을
▁무 산
▁비 할
▁상 가
▁세 원의
▁장 관을
... !
▁명 수는
▁이상 하지
▁편 지로
▁황 공
▁속에서 의
▁의미 심
▁노래 하고
▁가족 들
▁걷 던
▁바닥 의
▁나누 지
▁"오 랜
▁할머니 에게
▁작품 으로
▁햇 을
▁않겠 어.
▁단순 하고
▁이에 요.
▁바라보고 만
▁"조 심
▁관찰 을
▁아우 구
▁허공 에서
▁마지 않
▁28 일
▁내뿜 는
▁손끝 으로
▁테르 세의
▁"하하하 ,
등 이
면 한
무 ,
박 에
▁" 니가
▁사 료
▁사 인을
▁사 막을
▁나 라고
에서 나
▁시 선에
▁거 지,
▁아니 다,
▁저 번에
▁속 상
▁입 과
▁영 신의
▁선 장이
▁성 향
▁성 급한
▁계 룡
▁했 네.
이었 죠.
▁모르 겠다고
▁그렇 다,
▁타 마
▁변 하게
▁크 림이
▁이것 이야말로
▁붙 는
▁받아 들고
▁올라 오고
▁급 급
▁찬 미
▁약속 이나
▁끄덕 였다
▁"그렇 소.
▁여행 의
▁날아 왔다.
▁군사 들의
▁운전 하는
▁둥 마는
▁연결 하는
생활 의
▁스승 은
▁공동 의
▁다스 려
▁살펴보 자.
▁뒷모 습이
▁테르 세는
마누 라
p t
고 함을
그 럴
땅 에
만 명의
묻 는
부 턴
사 자
여 사의
웃 어
지 난
홀 로
▁이 언
▁" 질
▁가 버렸
▁일 명
▁대 목이
▁소 니
▁소 총을
▁소 속의
▁해 장
▁두 런
▁못 봤
니까 !"
▁강 물은
▁통 의
▁교 리
적으로 ,
▁잡 히고
▁태 오는
▁깨 어진
▁담 벼
▁울 릴
▁울 퉁
▁계속 하는
▁않을 지도
▁흘 겼다.
▁총 으로
▁항 거
▁북 쪽의
▁논 리가
그러 니
▁착 잡한
▁끝나 자마자
▁주인 과
▁런 트
▁되풀이 해서
▁것이었 어요.
대학 에서
▁관념 을
▁내뿜 었다.
▁난폭 한
7 7
g et
께 선
모 토는
민 들은
아 냐?
요 원
▁" 친구
▁말 았을
▁들 추
▁세 미나
▁미 쳤다.
▁구 해야
▁누 를
▁실 상은
▁후 일
▁그래 !
▁된 장
▁현 상으로
▁병 들어
▁담 았다.
▁많은 데
▁전화 할
▁보내 왔다.
▁괴 이
▁휘 저
▁"저 를
▁남아 있지
▁마주 치는
라구 !
▁혁 명은
▁포함 하고
▁자동차 에
▁가치 도
▁두드 러진
▁국내 의
▁중단 하고
▁쓰레기 통에
▁퍼붓 고
▁구려 .
▁청와 대
p e
겠 다,
립 니다."
무 와
버 섯
여 는
했 는지도
현 에게
환 자
▁있 음은
▁" 존
에서 처럼
▁한 데,
▁마 드라
▁바 우
▁우 익
▁만 사가
▁동 족
▁신 랑이
▁저 혼자
▁노 루
▁죽 어버린
▁잘 됐
▁열 정이
▁명 함
▁현 석
▁파 기
▁치 어
▁산 호
▁추 상적인
▁되었 지만,
▁조금 의
▁리 즈
▁그리 움이
▁것으로 부터
▁갔 는데
▁대신 들이
▁그랬 어.
▁인정 했다.
▁당황 하지
▁장난 스럽게
▁숫 제
▁알겠 나?
▁개발 에
▁고정 되어
▁이빨 이
▁옷차 림
▁드라이 브
▁붙들 려
▁임진왜 란
▁당분 간은
] 에
들 면서
링 은
부 러
십 자
에 요,
영 감
자 네는
중 ,
퇴 근
합 은
▁보 실
▁보 겠다고
▁일 년이
▁여 권을
▁해 져
▁세 영은
▁저 렇
▁계 절이
▁찾 으면
▁재 발
▁파 벨
▁파 도에
▁허 약한
▁김 홍
() 이란
▁음 과
▁합 장을
▁이름 이다.
▁로 라
▁카 렌
▁검 사는
▁세계 에서는
▁투 르
▁"어 린
▁북 서
▁끼 었다.
▁가능 하다면
▁석 고
▁히 스
▁거예 요!
▁쫓 았다.
▁쏟 았다.
▁대통령 과
▁노동 자의
▁핵 심을
▁목적 지에
▁폭발 이
▁계시 지
▁제거 할
▁불렀 던
▁털어놓 을
▁"음 ...
▁필수 적인
나 처럼
린 ,
잡 지
포 스
▁이 쁘
▁" 막
▁" 같이
▁사 뿐
▁한 건
▁대 잠
▁거 니
▁전 광
▁두 레
▁신 신
▁미 가
▁의 지와
▁유 출
▁' 개
▁분 포
▁강 에
▁열 매가
▁과 부가
▁치 하
▁사실 인
▁본 의
▁특 성이
▁근 원을
▁증 오의
▁틀 리지
▁싫 지
십시 오!
▁나온 다는
▁들었 고
▁정보 화
▁프로 이트의
re at
▁측 량
▁동생 과
▁변화 와
▁구멍 으로
▁지니 게
▁옹 씨
▁안타까 워
▁어루만 져
▁예외 가
▁애원 하는
▁위태 롭게
▁루스 벨
단 다."
독 의
들 어서
마 냥
아 내가
어 라.
엘 의
엽 이
적 이었던
형 님이
� e
▁" 속
▁하 강
▁대 군
▁기 질
▁거 ,
▁만 성
▁조 정을
▁인 철이
▁물 에서
▁1 번
▁손 상을
▁방 이었다.
▁달 싹
▁뒤 인
▁후 세에
▁잠 겼
▁싶 고,
▁배 경이
▁순 회
▁사랑 한다.
▁설 이
▁놀 리
▁삼 별
▁용 신이
▁악 기
잖아 !"
▁윤 미
▁서울 은
▁사용 을
▁퍼 지고
▁낙 천
▁사고 와
▁못했 지만,
▁중얼 거린다.
▁지키 게
▁다행 한
▁생산 하는
▁가치 있는
▁고민 하고
▁일주 일이
▁도둑 질
▁달래 는
▁싹 싹
▁구해 준
▁걸어가 면서
▁서두 를
▁포로 로
▁불쾌 하게
▁옷차 림을
▁무자 비하게
▁충청 도
▁낌 새를
▁황망 히
( 경
e f
일 러
한 데
▁이 철
▁없 는데도
▁해 냈
▁해 석이
▁제 국을
▁유 경
▁할 지를
▁입 성
▁개 성이
▁앞 부분
▁강 행
▁있을 까요?"
▁행 랑
▁줄 게.
▁허 망한
▁역 대
▁쓰 디
▁크 다고
▁밤 .
▁울 린다.
▁묻 지도
▁폭 넓은
▁잃 었
▁빈 의
▁노래 도
▁자유 는
▁행복 과
▁호텔 이
▁위하여 ,
▁I '
▁포기 해
▁쾌 감
▁의사 들이
▁생각했 는데
▁# 5
▁양반 은
▁영향 은
▁내놓 는
주머니 를
▁"주 인
▁예정 이었다.
▁기둥 에
▁지워 지지
▁얼떨 결에
디 카
시 인
치 기를
표 에
▁아 로
▁하 기가
▁가 련
▁수 중
▁지 겹
▁모 멸
▁여 권
▁정 이는
▁되 더라도
▁인 질
▁남 서
▁비 옥
▁중 도
▁신 약
▁속 죄
▁걸 리고
▁반 격을
▁피 묻은
▁예 정이
▁일이 지요.
▁재 는
▁파 산
▁시간 이다.
▁애 기를
▁약 하게
▁소리 쳤
▁엄 숙하게
▁금 욕
▁합 니까?"
▁빨 랫
▁법 당
▁글 러
▁증 인이
▁"어 쩌
▁젊 음을
▁만들어 지는
▁늦 가을
▁경험 과
▁으 했다.
▁생각하 나?
▁관찰 하는
▁용납 할
▁납득 할
▁해수 욕
( 소
갔 지만
검 의
겠 는데,
과 연
덕 과
도 르
병 에게
일 :
초 와
팔 에
▁그 란
▁아 궁
▁수 고를
▁보 곤
▁다 죽
▁다 릅니다.
▁마 약을
▁정 원에서
▁거 라도
▁전 율을
▁위 쪽
▁동 대문
▁저 들의
▁경 사가
▁돌 리면서
▁문 안을
▁구 했다.
▁차 안에
▁작 정한
▁요 사
▁일이 고,
▁군 인들은
▁화 재
▁박 도
▁3 차
▁국 장
▁아버 지.
▁근 엄한
▁금 을
▁각 오가
▁가지고 도
▁10 00
▁움직 이면
▁키 큰
▁대로 ,
▁부르 기도
▁분위 기로
▁둔 탁한
▁뽑 혀
▁버렸 기
▁치료 해
▁유럽 에
▁자료 들을
▁말인가 !
▁내세 운
▁드러내 놓고
▁입원 해
▁나뭇가지 에
▁용납 하지
▁저녁식 사
▁멈추어 섰다.
p r
대 었다.
마 당으로
칠 한
▁있 더니
▁아 아아
▁말 대
▁대 지의
▁마 르는
▁거 냐
▁주 은
▁주 지.
▁무 럭
▁인 사로
▁동 산
▁눈 깔
▁구 요?
▁연 민의
▁선 채
▁하는 가.
▁시작 했다는
▁머 문
▁온 데
▁말이 라도
▁인간 들을
...... )
▁임 상
▁각 료
▁광 경은
▁윤 상
▁숙 소를
▁후에 ,
▁프로 이트
▁쏟 고
▁십 이
▁비밀 의
▁흥분 해
▁받았 고
▁맞아 야
▁목표 에
▁덤 비
▁이렇 다.
▁조정 에서는
▁움츠 러
▁돌진 해
▁불확 실
B M
괘 는
남 과
드 나
설 로
알 고
암 ,
였 기에
였 다,
읍 니까?
출 의
▁" 일이
▁사 림
▁사 색이
▁자 게
▁자 판
▁보 시고
▁일 면
▁여 생을
▁기 습을
▁들 이고
▁거 기는
▁고 귀
▁저 들은
▁살 리는
▁' 죽
▁' 그는
▁영 수
▁단 발
▁하고 도
▁요 가
▁양 심을
▁사실 들을
▁약 물
▁희 귀한
▁골 을
▁접 견
▁보내 면
▁보내 준
▁있다 )
▁모르겠 습니다."
▁숲 과
▁이끌 었다.
▁전해 지는
▁아니었 으나
▁반응 도
▁"미 스터
▁밝혀 져
▁주었 기
▁후회 하지
▁열쇠 는
▁피아 니
▁내던 졌다.
▁아프리카 의
▁파이 프를
▁가늘 고
▁스무 살
h im
강 으로
국 에서는
그 림
까 ."
꾼 을
나 오는
사 들을
야 로
어 ..
저 에
탑 이
힘 이
▁" 을
▁" ........
▁말 에도
▁보 나마나
▁일 하게
▁지 르지
▁대 루
▁시 상
▁전 원이
들이 며
▁그러 세요?
▁위 시
▁인 솔
▁비 상한
▁중 위의
▁돌 리기
▁문 장은
▁방 망이
▁장 점
▁영 정의
▁연 안
▁잘 생긴
▁스 로
▁재 산은
▁박 달
▁잡 다한
▁양 심이
▁외 워
▁약 은
▁3 시간
▁산 비
▁산 속으로
▁몇 이
▁빠 지면
이라 든지
▁귀 신을
▁왔 소.
▁출 전
▁일본 어
▁받아 든
▁증 폭
▁희 박
▁이유 만으로
▁떠나 자
▁중국 에서는
▁있겠 습니까?"
▁드러 나게
▁견 해는
▁털 을
▁"오 래
▁들어오 면서
▁매달 리는
▁말로 만
▁음식 점
▁바이 블
▁북한 이
▁구체 적
▁착각 이
▁똥 을
▁아낙 네
▁악몽 을
▁폐하 께서
▁차곡 차곡
가 들의
생 과
섰 던
아 ?
커 를
▁사 제는
▁나 루
▁일 했다.
▁내 리며
▁모 피
▁마 십시오."
▁우 중
▁고 해
▁해 왔다.
▁신 나는
▁하는 지를
▁파 격
▁화 제
▁온 이
▁벌 고
▁산 다
▁지나 쳤다.
▁울 리기
▁출 발을
▁갖 도록
▁알아 주는
▁믿 어야
▁농 락
▁꽃 으로
▁찬 란
겠어 요,
▁끝나 기
▁건너 는
소리 만
▁"그런 데,
is s
▁굽 혔다.
▁__ _
▁표시 로
▁있으 신
▁제목 으로
▁흐느 끼는
▁런던 으로
▁못하겠 다는
▁"사람 이
▁웅크 린
▁폐하 께서는
▁여의 치
▁손짓 으로
▁이시 이
▁불태 워
▁안기 부
▁내민 다.
▁엉뚱 하게
▁덕택 에
기 계
두 었던
받 쳐
형 에게
▁" 갈
▁자 들
▁내 저었다.
▁모 임이
▁시 그
▁거 추장
▁우 화
▁알 루미
▁해 요?
▁세 미
▁서 적을
▁경 범
▁손 님의
▁장 부
▁장 식을
▁차 원이
▁계 단이
▁잘 난
▁재 워
▁허 물을
▁천 으로
▁떨 게
▁산 중
▁평 화의
▁깨 져
▁리 도
▁뭐 요?
▁밀 폐
▁좋아 ."
▁아버지 께서
▁봉 학
▁보내 면서
▁중국 으로
되었 지만,
▁급 선
▁오래 전에
▁석 은
했을 지도
▁뭔 가?
▁불안 하고
en s
▁치료 할
▁실험 이
▁기다리 면서
▁생명 과
▁어딘 가로
▁염려 하지
▁제외 하면
▁보이고 는
▁방해 하지
▁가락 으로
▁겨드 랑
▁티베 트
) 나
> 으로
나 봐.
내 고,
돌 고
웠 다는
활 동을
▁이 와는
▁아 제
▁자 질을
▁보 라구.
▁여 수
하고 .
하는 ,
▁해 로운
▁조 원
▁할 까,
▁목 청
▁분 화
▁실 비아
▁몸 둘
▁몸 위에
▁곳 에도
▁모습 .
▁포 용
니다 만
▁듣 기만
는지 요?
▁겁 탈
▁메 스
▁아래 쪽
▁가능 하다고
▁준비 에
▁노래 의
▁사진 에
▁그저 께
▁캐 비
▁18 .
▁공부 한
▁조그 게
▁선생님 도
▁만났 다는
▁불가능 할
▁동료 들과
▁전통 이
▁그릇 이
▁솜 씨는
▁되돌아 갔다.
▁착각 에
▁국내 에
▁생존 을
▁예정 된
▁쟁 반을
▁파묻 고
▁제한 된
▁논리 적인
▁분홍 색
▁자물 쇠를
▁귀담 아
거 기
까 요.
노 을
말 이다.
커 는
▁" 채
▁지 훈을
▁시 들어
▁마 를
▁정 상을
▁주 제가
▁무 대에서
▁그녀 들이
▁아니 니까.
▁죽 이기
▁개 업
▁피 리를
▁적 시고
▁예 수를
▁먹 으라고
▁말이 지
▁앉아 ,
▁리 디
▁로 라의
▁카 이로
▁악 기를
▁거의 가
▁꼭 꼭
▁이루 기
▁9 3
▁섬 기
▁오른 손으로
▁과학 과
▁일반 적
▁돌아오 기를
▁동물 들은
장님 ."
▁육체 적으로
▁50 여
▁다스 리
▁거쳐 서
▁"당신 ,
▁표시 했다.
am e
▁찌푸 린
▁뒤덮 인
▁다닌 다는
님 ?
라 카
봉 투를
오 르기
티 아
▁" 맥
▁자 결
▁대 승
▁내 일이면
▁시 합을
▁때 야
▁기 구를
▁있는 가?"
▁전 대
▁그러 하다.
▁안 한
▁더 .
▁서 점
▁경 리
▁문 채
▁입 양
▁관 청
▁피 하며
▁지금 보다
▁떨 지
▁소리 친다.
▁소리 내어
▁평 의
▁직 입
...... '
▁테 두
▁별 난
▁싸 리
▁올라 섰다.
▁법 석을
▁삶 이란
▁마지막 까지
▁차례 에
▁말했 고,
▁버렸 고
▁침묵 으로
▁겸 허
▁17 .
▁수사 관
▁거절 을
▁현상 이다.
▁접어 든
▁믿음 직
▁이산 화탄
과 정
나 요
롱 한
병 이나
쇼 ."
트 레이
허 가
▁" 5
▁" 버
▁하 리라.
▁대 사의
▁대 대장
▁오 색
▁고 갈
▁해 줘
▁그녀 였다.
▁제 안에
▁중 입니다.
▁공 직
▁유 체
▁문 밖에
▁장 관의
▁장 엄한
▁했 었는데
▁통 조
▁화 담
▁태 우는
▁김 준
▁청 렴
▁술 로
▁독 서를
▁뭐 하러
▁검 이
▁얻 어서
▁와 인
▁일어 선다.
▁읽 으며
▁생활 도
▁6 0년대
▁이야기 나
▁마시 던
▁쫓 기고
▁곁 에는
▁"그러 니
▁지구 와
▁기술 과
▁치료 에
▁도와 준
▁"아니 오.
▁소개 하는
▁사람에게 도
▁연결 되는
▁전부 다
▁지내 게
▁프랑스 에서
▁지혜 는
▁솟아 오른
▁몰라도 ,
비로 소
▁히틀 러가
▁빛깔 이
▁민간 인
▁남짓 한
▁타일 렀다.
**** ****
M F
나 자
났 고,
여 를
오 로
와 ."
유 리
유 사
인 민
훌 륭
▁이 밖에도
▁가 브리
▁일 거야.
▁않 으리
▁주 게.
▁오 분
▁되 지만,
▁알 키
▁장 지
▁"그 리
▁누 드
▁개 골
▁열 게
▁화 투
▁호 수를
▁천 만에
▁친 절을
▁종 환
▁은 연
▁민 승
▁“ 내
▁로 키는
▁항 의를
▁궁 정
스트 에
▁표현 으로
▁도착 하기
▁됐 습니다.
▁솔 깃
▁영국 인
▁들어갔 습니다.
▁갖추 어져
▁제시 하는
▁피어 올랐다.
▁분주 하게
▁번개 처럼
N N
까 이
오 더니
인 물
일 휘
장 교
지 간
▁하 직
▁어 지는
▁자 랐다.
▁다 -
▁다 급히
▁한 떼의
▁일 입니다."
▁일 인가.
▁대 행
▁기 질이
▁정 주
▁부 호
▁같 으
▁안 쪽을
▁남 고
▁상 궁
▁신 들은
▁저 희는
▁유 학의
▁발 탁
▁진 단을
▁반 기를
▁후 련
▁예 절
▁배 불
▁군 자
▁호 가
▁점 으로
▁그래서 ,
▁터 덜
▁나무 들
▁대해서 만
▁걸어 갈
▁봐 요,
▁잊 게
▁표정 이다.
▁송 구
▁대신 할
▁불러 세웠다.
으로써 ,
▁든 다
▁낭 자
▁빗 장을
▁않겠 소?
▁비행 을
▁매일 같이
▁사령 관은
▁부러 져
▁후회 했다.
였을 까?
▁세우 지
▁없겠 지만,
▁두렵 지
▁총알 을
▁유쾌 하게
▁사대 부
▁데이비 드
▁장편 소설
▁하우 프
3 7
라 오
려 도
일 이나
촌 에
화 에게
▁수 학적
▁일 났
▁모 함
▁마 피
▁정 처
▁거 실을
▁전 선을
▁남 녀는
▁의 구
▁도 처에서
▁공 자가
▁' 두
▁' 지금
▁진 나라의
▁하나 하
▁등 불이
▁새 에
▁날 엔
▁게 ."
▁명 과
▁화 신
▁형 식의
▁호 되게
▁침 실에
▁토 했다.
▁로 스는
▁따라서 ,
▁만든 다는
▁확실 했다.
▁십 중
▁비밀 에
▁없다 !
▁오르 면
▁만난 다는
▁쾌 활한
▁어디서 부터
▁펴 라
▁물질 에
▁p r
▁경비 원이
▁부산 에서
▁임신 한
▁공주 와
▁치켜 들고
▁극복 하고
▁솟구 쳤다.
▁덤벼 들
oc k
▁구겨 진
▁완강 히
▁불멸 의
▁악착 같이
C A
겁 이
나 요.
대 왕의
데 다
들 레
심 찬
장 군은
춤 을
▁이 구
▁지 대한
▁기 업을
▁바 티
▁위 나라
하게 만
▁미 모
▁방 긋
▁구 가
▁감 자를
▁예 감을
▁교 섭
▁양 철
▁곳 이라
▁힘 으로는
▁창 고를
▁흔 든다.
▁풀 숲
스럽 기도
▁존재 라는
▁일어나 면서
▁육 박
▁접 할
▁그림 자도
▁느낌 도
▁끌어 다
▁프랑 스에
▁반대 했다.
▁돌아오 기
▁아니었 어요.
▁판단 은
▁으 름
▁구경 하는
▁사업 의
▁슬픔 은
▁"대 왕
▁없어서 는
▁"글 세,
▁제공 할
▁저항 할
▁불길 은
▁우물 물
▁드라 킬
▁"너희 들은
▁내려앉 는
▁부리나 케
( 현
? !"
▁ ......"
권 에서
마 시고
먹 지
실 장은
죠 !
철 기는
테 스
패 로
하 오."
환 하게
▁" 디
▁말 하겠
▁한 술
▁것이 로
▁안 긴
▁공 해
▁' 반
▁' 일본
▁방 앗
▁구 내
▁했 어
▁강 도를
▁잠 잘
▁배 합
하기 라도
▁현 악
▁파 렴
▁먹 으려고
▁천 사의
▁병 실을
▁네 ."
▁없었 는데,
▁삼 사
▁합 병
▁수도 를
▁4 학년
▁풀 리
▁좋아 질
▁취 재를
▁꿈 -
▁일어나 더니
▁사건 도
이에 요
다니 다가
▁빈 손으로
▁8 00
겠어 !
▁표현 해
▁약속 대로
▁휴 양
▁마련 인
▁내일 부터
▁봄 은
▁밝혀 지지
▁테니까 ,
▁"조 선
▁존경 하고
▁울음 소리가
▁식구 들
시대 에는
▁파견 된
▁메시 지가
▁아무렇 지
▁떠올랐 다
▁재빠 른
▁거미 줄
▁이라 크
▁내포 하고
▁아이러 니
▁소비에 트
" .
( 2)
h il
w e
달 려
리 비
배 와
벽 의
브 레이
살 로
▁" 복
▁수 사는
▁자 르고
▁자 아가
▁자 손이
▁생 소한
▁거 품이
▁주 억
▁소 박
▁우 희
▁비 고
▁중 장
▁' 황
▁여자 애는
▁원 자로
▁교 대로
▁순 신이
▁끝 의
▁참 담
▁천 하가
▁애 절한
▁종 래의
▁편 이나
▁알아 ?"
▁뭐 죠?
▁즉 석에서
▁방법 과
▁자네 한테
▁염 치
▁착 잡
▁선택 은
▁소년 에게
▁겨울 은
▁실험 은
▁섹 스는
▁199 7년
▁괴로 워하는
▁자체 도
▁프로그램 에
▁참고 로
▁이슬 이
호텔 로
▁스테파 니의
▁심장 마
▁떠들어 대는
▁카이 져
▁권총 이
▁원시 적인
▁기숙 사
▁크리슈나무르티 :
경 에서
나 로
래 서
버 의
엘 이
오 이
옥 이는
있 었다.
종 교
합 시다."
했 나?
▁있 기가
▁자 은
▁없 나요?
▁내 고,
▁내 동이
▁시 대로
▁마 더
▁생 포
▁만 원
▁안 면
▁안 방에
▁그녀 로서는
▁중 대장
▁신 사는
▁손 목에
▁걸 세
▁집 ,
▁반 전
▁재 구
▁끝 냈다.
▁호 주
▁타 자
▁정도 만
▁아버 님의
▁헤 드
▁10 여년
▁있다 면서
▁보았 기
▁돌아가 시
겠어 ,
▁학생 들과
▁떠올 릴
▁붉 어졌다.
▁"그러 게
▁십 니까?
▁노력 해야
▁척 하면서
▁책임 자
▁벗어 났다.
▁가볍 고
▁기뻐 할
▁은행 의
▁많아 졌다.
▁점심 식
▁확신 했다.
▁욕망 과
▁식탁 을
▁되찾 고
▁기독 교의
▁원칙 에
▁돌아다니 고
▁순수 하게
덩이 처럼
▁최대한 으로
▁귀엽 게
▁원피 스를
▁"솔 직히
' .
대 기를
도 둑
랴 ,
보 라는
봉 투
섬 을
셔 .
었 죠.
인 다
쯤 이면
쳐 져
타 ,
턱 이
플 라
▁" 길
▁" 첫
▁수 맥
▁자 녀가
▁보 람을
▁지 형
▁내 손으로
▁마 운
▁무 고한
▁소 식에
▁비 칠
▁눈 자
▁미 성
▁당 했다는
▁방 면
▁선 영
▁성 한
▁분 단
▁실 수는
▁통 제를
▁행 군
▁군 주의
▁잡 동사
▁종 범을
▁소리 하지
▁크 기로
▁크 림의
▁절 실
▁특 권을
▁귀 순
▁청 천
▁테 베
▁용 신으로
▁검 색
▁19 일
▁농 구
▁풍 족
▁망 연히
▁거야. '
▁굴 지
er ,
▁옳 게
▁맺 게
장님 께서
▁미래 는
▁동네 를
▁박사 학
▁다녔 던
이었을 까.
▁이전 부터
▁페르 세포
▁단호 히
▁정책 에
▁보수 적인
▁공공 연히
▁아르바 이트를
▁수평 선
▁기색 이었다.
▁사춘 기
( 지
▁ 님은
구 요?"
돈 으로
제 비
▁그 다
▁" 순간
▁수 사가
▁때 때로
▁정 서를
▁소 장의
▁소 대장
▁해 드리
▁안 테
▁더 우기
▁돌 출
▁발 해의
▁달 렸
▁누 명을
▁실 전
▁후 엔
▁일이 기도
▁일이 야."
▁천 사가
▁애 의
▁산 문
▁어디 에서도
▁5 8
▁권 력과
▁"어 이,
▁악 취
▁읽 게
▁일어나 자
▁있다 며
▁서울 이
▁끊 어질
▁불러 들이
▁자유 인은
▁알았 지만
▁굳 건
소리 .
▁요구 한
▁종교 와
▁하시 지
▁의심 했다.
▁운전 사
▁부족 해서
▁생각하 십니까?
▁전문 의
▁병사 들에게
이상 한
▁밟 으며
▁깃 든
▁하느 님께
▁떠난 다는
사람 의
▁거두 지
▁구름 처럼
▁뒤덮 여
▁강하 영이
▁속셈 을
▁숨쉬 는
▁자발 적으로
▁꿈쩍 도
▁우람 한
괜 히
밥 이
염 이
진 하고
쳐 도
치 려고
▁아 련한
▁사 물이
▁같 더
▁남 달리
▁비 꼬
▁그녀 석은
▁연 필을
▁느 긋한
하기 엔
▁행 선
▁줄 의
▁태 수,
▁천 지를
▁국 수
▁질 병을
▁절 실하게
▁깨 웠다.
..." 하고
▁와 야
▁미국 ,
▁범 한
▁윤 기가
▁윤 호는
▁자유 로워
▁훨 훨
▁옥 상
▁멈추 는
▁요구 한다.
▁해주 기
▁T h
▁소개 시켜
▁연결 시켜
▁빠져나 가고
▁방문 객
▁고민 에
▁부하 를
▁좌우 를
▁경계 하는
▁허리 띠를
▁무관 심한
▁지지 하는
▁바가 지를
▁쓸데 없이
▁부축 해
▁다닌 다.
▁메모 지를
▁몰아쉬 었다.
▁뛰어내 렸다.
▁현기 증을
▁간접 적으로
추경 감은
▁백두 산
땀 이
왕 으로
학 기
▁이 소
▁아 들도
▁가 버린
▁내 말에
▁남 용
▁두 말할
▁제 8
▁미 생
▁저 스틴은
▁유 현
▁' 아,
▁결 백
▁성 명을
▁관 음
▁잘 랐다.
▁했 으니까
▁강 진
▁강 으로
▁잠 꼬
▁일이 기
▁파 생
▁군 졸
▁않는 가
▁말이 냐?"
▁쓰 이고
▁식 물을
▁포 교
▁밤 과
▁밤 늦게
▁네 ?
▁삼 성
▁갖 바
▁필요 치
▁사람은 ,
▁숨 결을
▁로 저
▁딸 인
▁빼 면
십시 다.
▁아름다 움과
▁루 비는
▁도착 하자마자
▁쪽 에는
▁탈 을
▁과학 기술
▁군사 들에게
▁대통령 에게
입니다 만,
▁버렸 어요.
▁피해 는
(1 4
▁죽어 간
▁위치 해
▁밟 는
▁시대 적
▁태어나 고
▁p p.
▁반복 했다.
▁삭 제
▁결심 하고
▁있습니다 "
▁본질 에
▁있으므로 ,
▁음흉 한
▁ up
누 나가
따 나
뜨 게
본 은
손 님
어 째
여 가
원 군
졌 으며,
특 히
흥 을
▁사 게
▁시 신이
▁정 적을
▁정 화는
▁거 품
▁주 공
▁해 방을
▁남 쪽의
▁제 트
▁제 자를
▁동 래
▁미 니스커
▁유 지를
이나 고
▁여자 다.
▁피 어나는
▁교 사가
▁군 인은
▁때문에 .
▁외 동
▁아이 에
▁타 도
이라 면서
▁절 반을
▁특 급
▁술 집을
▁"이 제는
▁체 는
▁누구 요?
▁풀 어서
▁나서 자
▁있겠 지
▁있겠 니?
▁히 타
▁바닥 은
▁커피 는
▁데려 갔다.
▁그대 와
함으로써 ,
▁물리 칠
▁견디 다
▁불러일으 키는
▁쓰레기 통
▁뛰쳐 나가
▁부자 연
▁그리스도 교
▁감촉 을
▁급기야 는
▁머리맡 에
0 6
a il
겠 다!
데 미
들 에는
방 에는
세 서
왕 에
찌 는
칙 을
화 시킬
▁사 정에
▁말 단
▁않 으려면
▁여 옥이
▁기 반
▁생 사를
▁무 지막
▁부 리며
▁생각 하지는
▁안 에서도
▁조 의
▁인 질로
▁두 께
▁세 고
▁신 참
▁미 디어
▁' 화
▁그것 만은
▁잘 라서
▁피 렌
▁명 분이
▁화 엄
▁양 면
▁포 병
▁"이 상
▁독 차지
▁오늘 을
▁일본 인의
▁한국 인이
▁한국 인의
▁행동 도
▁발견 하였다.
▁갔 다고
▁그럴 지도
▁그럼 으로써
▁냉 각
▁사고 에
▁무서 웠다.
▁척 하며
▁비행 기로
이니 라.
▁성격 으로
▁손님 들
▁생명 에
▁대꾸 하지
▁엿 보고
▁있으 랴.
▁계곡 의
▁평가 하는
▁"언 니
▁아줌 마의
▁예전 과
▁점령 하고
▁주도 권을
▁새어나 오는
▁엇 다.
▁앗 아
, 000
값 으로
공 동
대 요."
세 기를
슴 도
어 두
영 도
초 도
▁이 성이
▁가 자는
▁대 개가
▁정 중한
▁거 라구.
▁전 리
▁바 ,
▁알 길이
▁남 김
▁불 운
▁동 향
▁의 장
▁유 비의
▁장 막
▁싶 게
▁심 연
▁문제 점을
▁갈 았다.
▁백 색
▁평 정을
▁깨 지는
▁임 종
▁별 은
▁얻 으려고
▁"어 차피
▁결혼 도
▁결혼 하기
▁있다 네.
▁걱정 도
▁부모 들이
▁사진 들을
▁여행 에
▁괜찮 다고
▁않겠 지만
▁덜 렁
▁다행 스럽게도
▁미사 일은
▁참을 성
▁말투 였다.
▁버스 에서
▁정책 은
▁보안 관
▁어두워 졌다.
▁것이라면 ,
▁우뚱 했다.
▁간곡 히
▁평평 한
▁모름 지기
▁ 쳤다
거 에
군 사령
나 한테
남 ,
대 비
러 온
바 지에
셔 널
여 져
제 ?
▁" 케
▁하 기를
▁다 리와
▁다 구.
▁한 림
▁기 적이
▁소 양
▁오 산
▁두 서
▁불 규칙
▁물 체의
▁세 화는
▁더 미를
▁장 작을
▁선 녀
▁결 박
▁성 균
▁성 인의
▁올 렸
▁재 수가
▁간 데
▁군 관
▁먹 이는
▁포 근한
▁바라 만
▁직 행
▁되었 어.
▁풀 어야
▁권 투
▁라 면
▁접 한
▁잊 어서는
▁뿌 듯
▁아파 트는
▁신경 증
▁습 격을
▁유지 해
▁C F
▁C BS
▁무언 의
▁싱 가
▁대원 군
▁기관 총
▁제목 은
▁동원 해서
▁가리키 면서
▁엘리베이터 가
▁감탄 했다.
▁인터 을
▁벅 차
▁존중 하는
▁정열 적인
▁망원 경을
▁오케 스트
▁불공 평
▁ 댁이
강 에서
공 원
베 리
부 인에게
수 다.
여 운
중 간
파 니
▁가 중
▁보 퉁
▁주 렁
▁바 랬
▁만 은
▁조 상이
▁물 방울이
▁당 대
▁도 처에
▁공 비
▁살 기로
▁집 대
▁분 과
▁가지 고,
▁화 상을
▁온 화
▁온 다면
▁온 전한
▁아버 님은
▁어디 론
▁왕 국
하다. "
▁틀 에
▁어린 이의
▁갔 고,
하였 으나,
▁가능 성에
▁숙 소
▁가운데 ,
▁상대 성
▁넘어 졌다.
▁대단 했다.
▁요구 가
▁솔 로몬
▁났 다는
▁"가 만
▁보시 면
▁비판 하는
▁부여 하는
▁처지 였다.
▁깔끔 한
고 맙
먼 이
사 라고
이 ."
콜 라
폴 리
핀 을
▁이 혜
▁일 사
▁때 엔
▁같 습니다
▁제 우스는
▁저 편에서
▁경 은
▁집 요한
▁연 인이
▁선 착
▁성 능
는데 ?"
▁배 기
▁재 학
▁매 월
▁함 축
▁줄 리어
▁군 인의
▁박 을
▁형 과
▁향 락
▁귀 중
▁청 석
▁필요 하면
▁알아 냈다.
▁야 속
▁10 0년
▁아래 에는
▁멀 찌
▁해야 지
▁9 5
▁섬 멸
▁옥 스
▁손가락 은
시간 의
▁척 하는
▁새끼 들이
▁솟 았다.
▁잇 달아
▁펼쳐 지는
▁테니 .
▁두드 러
▁대기 업
▁부하 들에게
▁"장 군
▁유혹 하는
▁평소 보다
▁통과 하는
▁두려움 은
▁목숨 은
▁획 기적인
▁내외 가
▁치솟 았다.
▁허탈 한
▁스탈 린
▁에피 소
” 그
▁ 림
▁ 니까.
남 으로
링 을
아 르
전 이었다.
졌 으나
청 한
플 레
하 니?
▁사 려고
▁사 자의
▁수 저를
▁자 격으로
▁지 수가
▁거 란다.
▁전 반에
▁주 거
▁조 사의
▁인 재를
▁상 소를
▁중 절
▁더 가
▁서 방을
▁살 라
▁문 중
▁입 만
▁차 트
▁선 비가
▁반 장은
▁현 주는
▁형 사를
▁필 자의
▁식 이
▁"이 것이
▁바라보 더니
▁듣 지도
▁복 무
▁일본 인이
▁좋아 한다고
▁좋은 데
▁승 부
▁떠나 면서
▁마찬 가
▁맛 살을
▁t hat
▁폐 를
▁마주 앉았다.
▁현실 적
▁며칠 째
▁있다가 는
▁봤 어.
▁출발 하여
▁낫 게
▁자라 난
▁자체 로
▁우리나라 에서
해졌 을
▁감독 은
▁196 0년
▁발걸 음
▁사항 이
▁신하 들이
▁바늘 이
▁성실 하게
▁김일 성
▁노트 북
▁따가 운
( =
a id
▁ i
내 렸다.
네 에
들 !
셨 으면
실 험
웅 의
턴 을
테 리
트 라는
파 티
퍼 의
화 되었다.
▁이 오
▁사 설
▁수 면을
▁한 병을
▁대 했다.
▁기 체
▁정 장을
▁오 델
▁부 은
▁해 안을
▁제 물로
▁중 을
▁손 으로는
▁손 대지
▁작 자가
▁게 재
▁2 대
▁줄 일
▁심 했다.
▁모르 면
▁김 해
▁김 현
▁회 초
▁청 혼
▁필요 했던
▁숨 소리를
▁일본 ,
▁야 유
▁좋아 요."
▁읽 으면
▁뒷 문을
▁졸 졸
▁"너 의
▁30 일
▁그러니까 ,
▁다르 다
▁되겠 습니까?
▁불빛 은
▁파괴 된
▁긴장 했다.
▁작용 하고
▁불쌍 히
▁아르 카
▁뿜 었다.
▁다물 지
▁개혁 의
▁달빛 에
▁순수 하고
▁그놈 은
▁간섭 을
▁헤엄 을
▁잊혀 지지
] 을
바 와
▁그 니의
▁있 냐?
▁가 르고
▁자 빠
▁한 계에
▁일 렬
▁대 책이
▁내 륙
▁거 있
▁위 가
▁상 위
▁1 /
▁유 정
▁유 해
▁살 필
▁그런 다고
▁문 자를
▁구 실로
▁때문 입니다."
▁선 원
▁분 자
▁시작 했어요.
▁명 리학
▁화 석
▁화 친
▁양 손에
▁난 도
▁천 자
▁종 잡을
▁크 는
▁어디 갔
▁창 출
▁철 의
스럽 다고
▁높 이고
▁망 치는
▁지구 상에
▁영국 을
▁짐작 했다.
▁태양 과
ing .
▁더듬 이를
▁류 타는
▁고민 하는
▁둘이 서
▁발달 된
▁나타났 던
▁방울 을
▁스물 다섯
▁200 0년
▁뒤덮 고
마음 대로
▁꼼꼼 하게
▁집어던 졌다.
▁소상 히
( 인
르 이
소 대
야 에서
었 습니다."
오 라기
이 거
정 적인
턴 의
하 니까.
▁아 전
▁하 십니다.
▁수 포로
▁말 마
▁말 투를
▁생 긋
▁전 자는
▁주 주
▁안 쪽에서
▁조 약을
▁개 비를
▁번 민
▁본 일이
▁편 에서
이라고 나
▁넘 어져
▁계속 되
▁4 )
▁기억 도
아가 씨는
▁그럴 까?
▁휘 적
▁시간이 면
▁여성 에
▁자식 에게
▁탓 이다.
▁맑 음.
▁보호 할
▁"전 혀
▁조건 에
▁음식 에
▁앞서 서
▁무지 한
▁일치 하는
▁거슬 리는
ab le
클레 시아
▁모친 은
▁---- -
▁통틀 어
] 를
▁ 00
고 ...
굴 의
기 억
랐 을
부 상
약 으로
에 로
으 란
졌 다가
조 각을
족 들은
▁말 이었다
▁일 전에
▁지 렁
▁시 기의
▁고 트
▁눈 발이
▁미 라
▁당 국의
▁경 관이
▁그런 가?
▁있었 나?
▁집 회
▁때문 입니다
▁받 으려고
▁처 자
▁재 무
▁과 격한
▁시간 씩
▁그렇 죠?
▁약 점
▁맞 물
▁추 위가
▁민 기자는
▁볼 라
▁용 어를
▁숨 기는
▁그때 를
▁법 과
▁망 령
▁봉 고
▁봉 우
▁즐 비하게
▁윤 리적
▁빼 놓고
▁퍼 지는
▁푸 념
▁다니 다가
▁니 !
▁부르 조
▁마주 하고
▁아들 ,
▁비밀 은
▁물질 은
▁구경 할
▁이동 하는
▁"마 침
▁띠 게
▁같은데 ."
▁귀족 의
▁당연 했다.
▁저택 의
▁동일 시
▁객관 적
▁추경 감이
▁호들 갑을
▁그나저 나
데 는
두 로
앉 으며
어 째서
즈 로
찌 를
함 이나
환 ,
▁이 었다
▁" 별로
▁자 락
▁자 금이
▁주 를
▁오 동
▁생각 합니다
▁방 자
▁누 웠
▁스 릴
▁단 장
▁잡 고,
▁양 국
▁채 근
▁천 자의
▁산 물
▁소리 쳤다
▁몇 달
▁특 파
▁없었 소.
▁아직 까지는
▁임 박
▁않아 요
▁뛰어 드는
▁상황 의
▁뜨 면
▁오른 손
▁과학 은
▁찌 든
▁서서 ,
▁하겠 어요.
▁요구 되는
▁씨 의
스터 가
▁닥 쳤다.
▁끈 이
▁눈물 에
▁미소 짓
▁셋 은
▁아가씨 들이
▁공간 으로
▁크리 스가
▁도서 관에
▁보관 하고
▁떠들어 댔다.
▁줄로 만
▁시끄 럽
▁적잖 이
( 수
O N
m an
w �
겨 져
똥 이
론 적인
말 ,
분 으로
자 :
잡 이로
축 이
측 에서
▁가 출
▁가 야만
▁정 갈
▁정 약
▁오 상
▁비 지
▁비 즈니스
▁서 게
▁당 초
▁손 발이
▁입 금
▁데 에도
▁새 처럼
▁게 이트
▁매 화
▁심 드
▁사람이 에요.
▁양 으로
▁천 박한
▁시간 에는
▁본 거
▁말이 요.
▁힘 없는
▁근 질
▁갑 해는
▁프 가
▁풀 렸다.
▁생각해 냈다.
on 't
▁졸 업을
▁착 하고
▁"여 자는
▁맛 은
▁됐 다
▁하겠 지.
▁엎 어져
▁끈 끈한
▁찰 나
▁겉 보
해주 기
▁텐데 ."
▁잎 새
▁물리 적인
▁주저앉 고
▁수술 이
▁나타났 을
▁동원 해
▁일러 주
▁비추 는
▁194 5년
▁스티 브
▁농사 꾼
▁습관 적으로
▁수첩 에
▁밤낮 을
▁왜곡 된
▁비오 듯
▁어둑 어둑
▁속삭이 듯
▁아스팔 트
( 동
u e
▁ 퓨
금 ,
내 면
낸 다는
네 ...
류 로
번 이나
스 텔
의 식
했 으니까
▁" 학생
▁일 까지
▁때 요?
▁기 도가
▁사람 으로부터
▁오 현
▁불 감
▁동 철이
▁세 자마
▁공 정한
▁' 강
▁방 심
▁장 비는
▁발 렌
▁관 철
▁감 식
▁많 았다
▁단 계가
▁등 승은
▁얼굴 들이
▁명 성이
▁먹 인
▁사랑 하던
▁친 숙한
▁이름 이었다.
▁체 력
▁그리 구
▁가까 와
▁멀 어지는
▁싫 다
하겠 다
▁패 가
▁놓고 도
녀석 을
▁어둠 과
▁녹 초가
▁멋 있게
▁한마디 가
es .
▁펼쳐 졌다.
▁강조 한
▁나아가 고
▁바닷 물이
▁선배 의
▁알아차 릴
▁참가 한
▁손잡 이
▁김영 삼
▁승낙 을
▁변함 없는
▁못지않 게
▁ 냐
간 히
꼬 리가
성 서
슨 에게
진 다고
했 기에
▁있 노라면
▁아 담이
▁지 녀
▁지 사
▁않 느냐고
▁내 맡
▁기 발한
▁조 물
▁남 길
▁아니 되
▁경 탄
▁공 군의
▁유 라의
▁구 르
▁연 계
▁진 하게
▁반 죽
▁박 제
▁온 도가
▁최 루
▁변 이
이라 ...
▁크 기를
▁어디 쯤
▁청 사
▁갑 시다."
▁아버지 한테
이에 요,
▁나오 니
▁맡 았던
▁꽃 향
▁8 백
▁응 수
▁가족 들에게
▁인생 이란
▁충분 하지
▁조심 해서
었을 까.
▁작품 에서
▁문화 재
▁오빠 에게
▁쏟아 질
▁노력 에
▁무렵 부터
▁"뭐 라고?
▁봤 어요.
▁I D
▁혈 육
▁개미 들을
▁헛 소리를
▁위치 로
▁족 속
▁때문이 오.
▁싱 크
▁무섭 고
▁뱃 속에서
▁가졌 다는
▁돌아다니 면서
▁보편 적
▁가자 ."
▁데미 안은
▁뉴에 이
4 ,
C IA
▁ 쁘
공 주의
담 ,
받 던
보 안
본 의
사 정
설 마
영 으로
오 래
인 이다.
체 계를
▁그 랜
▁것 입니까?"
▁가 하고
▁지 .
▁않 겠어?
▁여 인들은
▁기 집
▁주 동
▁해 달라는
▁불 투
▁못 하다
▁미 에
▁' 중
▁걸 었다
▁달 갑
▁데 ,
▁명 했다.
▁음 탕한
▁크 면
▁출 정
▁5 대
▁여기 며
▁가슴 에는
▁용 신
▁땅 도
▁투 사
▁나무 랐다.
▁상황 에서도
▁갔 어요.
▁뜨 겁
▁가능 하다는
▁괴 고
▁뒤에 ,
▁맛 도
▁해주 세요.
▁흥분 하고
▁아름답 다고
▁즐거 웠다.
▁앤 소
▁제목 의
▁착각 하고
▁그거 야
▁구부 려
▁한정 된
▁씨앗 이
구먼 ."
▁건방 진
길 도
까 는
너 지
됐 습니다.
알 은
탕 하게
▁사 위가
▁수 렴
▁수 족
▁한 걸
▁내 색을
▁시 리아
▁들 고는
▁무 쇠
▁만 연
▁남 로
▁두 둔
▁중 반의
▁동 감
▁동 자
▁서 문
▁도 장
▁유 진
▁장 악한
▁피 차
▁버 금
▁길 에는
▁심 취
▁치 장
▁천 성
▁타 게
▁포 유
▁어머니 인
▁5 1
▁환 원
▁체 류
▁순간 에는
▁베 드
▁떠나 기로
아가 며
▁가져 갈
▁낮 잠
▁대학 생이
▁클 립
▁탈 바꿈
▁물러 갔다.
▁기울 이며
한다 )
▁반대 쪽
으시 면
▁다녀 간
▁창조 한
▁199 0년
▁사령 관의
▁관심 의
▁평소 와
▁며느 리를
▁뱉 었다.
▁애원 했다.
▁거주 하는
▁103 호는
▁예루 살
b )
v �a.
기 법
끄 럽
누 스
방 어
보 시
슨 ,
시 설
암 으로
즘 에
탕 에
퇴 를
▁" 권
▁" 헌
▁나 비가
▁없 으니,
▁모 리가
▁시 ,
▁기 사로
▁전 과는
▁오 인
▁중 소
▁동 기는
▁살 족
▁' 리
▁노 기
▁받 들
▁진 실은
하여 서
대로 라면
▁작 지만
▁예 배를
▁역 동
▁치 운
▁떨 기
▁아이 구
▁않았 어도
▁갈 색의
▁인간 ,
▁침 침
가지 로
▁4 중
▁뛰 면서
▁항 변
▁밖 엔
▁6 6
▁행동 하고
▁급 격한
▁빼 는
▁느낌 이다.
▁엄마 한테
▁알았 기
▁느껴 야
▁지켜 주
▁냉 전
레이 션
▁차례 나
▁어렵 습니다.
▁다행 으로
▁아저 씨를
▁않았을 까
▁챙 기고
▁고구려 를
▁형성 되어
▁신하 들은
▁개월 이
▁할지라도 ,
▁동맹 을
그릇 을
▁대량 으로
i k
디 에게
만 명
벌 에
보 니,
브 르
술 도
왔 어요.
종 으로
▁" 투
▁" 돌아
▁가 격을
▁어 엿
▁없 으면서
▁보 며,
▁일 정을
▁때 인
▁여 옥을
▁생 일을
▁소 일
▁해 로
▁인 정이
▁두 다
▁세 존
▁도 회
▁도 구로
▁발 광
▁노 인과
▁관 직을
▁등 이었다.
▁새 긴
▁얼굴 빛이
▁번 더
▁역 에
▁리 토비노
▁복 도의
▁죄 인이
▁사용 하면
▁7 천
▁쳐다보 더니
▁오후 에는
▁I w
▁웬 만
▁빠져나 간
▁굽 는
▁블 록
▁여인 이었다.
▁헐 뜯
▁나아가 서는
▁출입 구
▁벼슬 이
ad e
▁세우 며
▁제3 장
▁농담 으로
▁구입 한
▁안락의 자에
( 부
공 주
니 더.
라 "
문 제
았 는지
트 도
▁자 면
▁여 배우
▁거 룩
▁전 설을
▁주 최
▁상 영
▁물 어서
▁당 했던
▁당 했을
▁도 전을
▁구 구
▁구 호를
▁노 신
▁성 향을
▁마음 에도
▁버 나
▁현 일은
▁파 열
▁먹 일
▁본 다면,
▁추 론
▁절 은
이라고 ,
▁준 수
▁터 인데
▁희 생이
▁의미 와
▁꾸 어
▁끌어 들
▁하게 .
▁계획 의
▁프로 이트는
▁든 가
▁모여 든
▁운전 석에
▁다르 다고
▁벗어나 게
▁궁금 증을
▁그대 들
▁밀려 드는
▁16 일
▁프로그램 의
▁맞이 할
▁농민 들은
▁보인 다고
▁황제 에게
▁얼어붙 어
▁정성 스럽게
▁자지 껄
▁그뿐 이
▁테러 리스트
▁베토벤 의
▁몸서 리를
▁3042 는
▁한사 코
( O
마 리가
메 는
무 로
백 과
상 하는
쉬 가
자 료를
잔 의
정 상
직 으로
체 도
치 아
해 준다.
▁그 랑
▁여 운
▁기 기
▁기 간은
▁주 모
▁주 제는
▁오 덕
▁해 대는
▁남 으로
▁상 사의
▁신 중히
▁저 여
▁경 북
▁유 물
▁장 려
▁실 체가
▁날 이다.
▁당신 께
▁심 사를
▁참 외
▁않았 습니다."
▁종 도
▁산 산이
▁추 앙
▁초 한
▁각 도에서
▁로 마에
▁된다. "
▁나무 들은
하겠 지만,
▁디 푸
▁혜 윤은
."그 런
▁조심 스러운
▁A BC
▁유리 하게
▁기술 적
▁되겠 지만
▁정리 한
▁13 5
▁회의 에서
▁깨어 날
▁장식 된
▁활용 할
▁분리 되어
▁침략 을
▁날씨 에
프랑 스
▁신엽 은
A .
▁ --------------------------------
루 에서
률 은
름 의
보 자는
뼈 를
제 발
코 스
호 르몬
확 인
훈 련을
▁있 자,
▁아 도
▁사 복
▁사 수
▁사 의
▁가 봐요.
▁한 민
▁시 공
▁마 차는
▁때 ?
▁무 능한
▁부 스러
▁고 려는
▁만 두
▁만 지는
▁알 기나
▁조 차
▁미 란의
▁단 층
▁새 들은
▁지금 으로서는
▁형 체를
▁드 넓은
▁떨 군
▁쓰 다
▁쓰 도록
▁소리 야?"
▁음 반
▁않고 서
▁막 연하게
▁창 호
▁복 덕
▁카 스피
▁들어가 려고
▁어린 이가
▁까 짓
▁능 숙
▁퍼 스
▁돼 야
▁홀 연
▁홀 을
▁쏘 고
▁비행 기의
▁지키 던
it e
▁역할 에
▁도로 의
▁찢 어질
▁아저 씨,
▁방송 이
▁남성 들이
▁위협 이
▁설치 한
▁흘러나 온다.
▁표시 하는
▁익숙 하지
▁임호 정이
주었 으면
▁불가피 한
▁지평 선
▁소름끼 치는
대 군을
먹 던
안 았다.
장 하게
전 에도
천 과
포 에서
하 거든
하 옵니다.
함 마
▁이 점을
▁" 듣
▁수 심
▁일 손을
▁여 관에서
▁기 생이
▁소 견
▁부 위
▁해 적
▁불 린
▁제 네
▁중 시하는
▁서 림
▁유 드리
▁문 질렀다.
▁발 하는
▁작 성한
!" 그
▁병 이나
▁보고 에
▁포 항
▁없었 어요."
▁근 원이
▁테 오
▁술 주
▁( 아
기로 서
▁들어가 니
▁머리 통을
▁아침 까지
▁발견 했을
▁얘기 만
▁빼 놓지
▁뒷 문으로
▁좌 왕
해진 다는
▁요구 는
▁씨 족
▁내일 의
▁춤 이
▁습 기가
▁웬 만큼
▁선생님 에게
▁손님 에게
▁수용 할
▁도둑 질을
▁엔 진을
▁라이 프
▁주차 장으로
▁모델 을
▁공통 점이
▁크로 브
▁째 ,
▁혜린 ,
▁지날 수록
▁헬리 터
’ 의
▁ a
갈 색
거 기서
게 임
꿈 을
분 석
장 사를
클 라
하 든지
▁이 성과
▁하 녀가
▁어 부
▁일 진
▁마 인
▁기 저
▁무 난
▁오 만한
▁조 교
▁두 손으로
▁상 정
▁상 우는
▁얼 빠진
▁유 병
▁살 같이
▁따 윈
▁진 우
▁죽 고,
▁강 훈을
▁당신 들을
▁교 장은
▁줄 게."
▁쓰 기도
▁종 범의
▁국 장이
▁빠 진다.
▁사이 좋게
▁아버 진
▁직 책을
▁알아 채
▁속에 다
▁항 아
▁겁 이나
▁발견 되는
▁윤 정이
▁송 글
▁응 하지
▁트 레
▁밥 한
▁답 니다.
▁사무 실은
▁달리 던
▁가로 등
▁맹 렬하게
▁한쪽 에서
▁솟 는
▁머물 렀
▁찰 스가
▁50 대
▁감정 적으로
▁곱 고
▁상징 으로
▁여기저 기를
▁않았을 까?
il d
▁국내 에서
▁한가운데 에
▁필립 은
▁윤곽 을
▁이득 을
▁자물 쇠
▁소극 적인
성 이란
책 도
충 의
▁사 창
▁자 원을
▁지 아는
▁대 입
▁기 계의
▁정 리가
▁중 장이
▁얼 얼
▁경 무
▁돌 볼
▁유 비
▁' 하
▁구 월
▁결 의를
▁노 인들이
▁강 우
▁몸 위로
▁몸 매가
▁후 회를
▁예 순
▁매 질을
▁간 난
▁화 해를
▁종 군
▁문제 라고
▁책 장을
▁합 하여
▁이름 모를
▁잔 혹
▁악 물었다.
▁레 니
▁멀 었다.
▁거기 서는
▁없고 .
▁어른 을
▁띄 고
▁여름 날
▁옵 소서.
▁머물 면서
▁의해서 만
▁멸 시
요."그 가
▁거쳐 야
▁모자 란
▁탈출 을
▁옮기 기
▁요푸 스는
▁이글 거리는
▁무전 기를
▁난폭 하게
▁시무 룩
' 나
▁ 람
보 도
사 내
소 문
아 이는
었 으므로
중 위는
쪽 )
치 다
했 는
▁있 구
▁있 음에
▁사 준
▁나 만의
▁내 주었다.
▁정 현
▁오 존
▁해 드릴
▁인 도로
▁남 하
▁미 모의
▁경 력이
▁유 력
▁' 국
▁장 미가
▁있었 으니까.
▁집 주
▁진 동을
▁개 짖는
▁드 로
▁병 실로
▁귀 향
▁창 에
▁총 명한
▁카 밀
▁봐 ,
▁넣 으면
▁곤 욕을
▁나왔 고,
▁몰라 ?
▁눈앞 에는
▁생각했 는지
▁헐 렁한
▁뿌리 쳤다.
▁우리나라 에
▁해방 된
▁남녀 를
▁모델 로
▁시야 가
▁제국 주의
▁트렁 크를
▁"흠 ,
▁무참 히
< <
▁ 른
겠 습니까
경 감이
냐 !"
닙 니다.
뜻 은
르 트가
먹 어
산 인
영 씨
인 처럼
자 신의
쳐 진
태 수
학 자들이
형 제
▁" 둘
▁하 니까.
▁다 !
▁한 영
▁지 명이
▁내 처
▁주 문이
▁고 도로
▁알 기로는
▁남 양
▁더 위를
▁저 토록
▁경 로를
▁' 말
▁강 형
▁원 조
▁배 와
▁버 이
▁현 종
▁현 주의
▁함 대를
▁길 의
▁순 경은
▁천 수는
▁천 상의
▁약 사
▁학 창
이라 든가,
▁절 묘한
▁뿐 이고
▁귀 하게
▁출 장을
▁환 심을
▁황 토
▁흘 릴
▁만들 기도
▁빠져 드는
▁기억 나지
an c
적이 면서도
▁"우 리의
▁과학 적으로
▁하겠 소.
▁교육 과
▁찍 을
▁해결 이
▁부인 .
▁흉 악한
▁아프 다고
▁불가능 하다고
▁시골 의
▁거울 이
▁영향 력이
▁후회 하고
▁평생 에
▁도둑 놈
▁해석 할
만원 짜리
▁떨어뜨 려
▁아뢰 는
▁금지 된
▁날짜 가
▁벌레 가
▁섭섭 한
▁발길 질을
▁맹목 적인
t e
거 라고
력 이나
백 화
친 구가
카 메
휴 는
▁아 웃
▁가 옥
▁대 북
▁시 니
▁기 자를
▁정 강
▁거 치면서
▁전 망이
▁바 나
▁해 와
▁안 면이
▁제 도에
▁눈 질로
▁더 워
▁서 장
▁유 리로
▁차 장이
▁차 원을
▁연 연
▁피 력
▁마음 먹은
▁있어 !"
▁2 인
▁교 만
▁순 범은
▁역 부족
▁천 명
▁애 리의
▁말이 지만
▁산 림
▁설 거지를
이라 네.
▁크 림을
▁삼 킨
▁경우 이다.
▁놈 !
▁취 하게
스러 움
▁나라 ,
▁읽 어야
▁이야기 와
▁떠나 간
▁자리 한
▁견 고한
녀석 의
▁격 한
▁사진 도
▁올려 놓
▁어둠 은
▁탐 정
▁중얼 거리면서
▁노력 할
▁샤 론
▁기어 올라
▁끌려 갔다.
▁되었을 까?
▁제1 부
▁머릿 속이
▁형성 하고
▁"잘 못
▁바퀴 가
▁"으 응
▁쟁 취
▁사항 은
▁금지 되어
▁꿈틀 거리는
▁달라붙 는
할머니 는
▁아메 리
▁떠밀 려
▁또렷 하게
9 5
I D
돼 지
만 나
만 달러
줄 은
크 스
폐 를
▁이 사의
▁하 다니
▁없 습니까?"
▁보 십시오."
▁일 언
▁지 침
▁모 스
▁여 그
▁바 랬다.
▁조 명을
▁신 숙
▁신 으로
▁공 습
▁구 리를
▁실 례를
▁열 차를
▁싶 었습니다.
▁박 혔다.
▁역 임
▁그렇 잖아도
▁각 국
구나 ...
▁이러 면
▁늘 려
▁투 옥
▁사건 들이
어버 린다.
▁그날 을
▁현재 로서는
▁묵 인
▁택 시에
▁노력 의
▁신경 질을
▁민족 주의
▁여름 ,
▁"하 지만,
▁기뻐 하고
▁뭉 치
▁거두 는
▁무섭 지
▁미사 일의
▁말투 에
▁싹 트
▁베이 컨
▁루이 스
▁줄어 들었다.
▁머무 르고
▁처참 하게
' 하며
( 8
0 7
o .
네 스
노 ,
링 이
모 르
무 신
산 군
선 한
숙 과
시 라
여 ?"
우 나
제 도가
클 레이
▁아 니다."
▁어 조
▁대 에
▁때 도,
▁기 초가
▁정 몽
▁무 마
▁위 급한
▁남 대문
▁동 갑
▁동 쪽에
▁걸 맞는
▁성 벽을
▁앞 바다
▁강 하다.
▁있어 요"
▁애 교
▁약 수
▁포 크
▁침 실에서
▁완 강한
▁누구 냐고
▁로 의
스로 부터
▁레 지던
▁망 친
▁쉬 었다가
▁싫 증
▁놀라 면서
▁준비 할
▁브 리지
▁알았 더니
▁트 라이
레이 터를
▁도망 쳤다.
▁도망 치고
▁있어야 지.
▁동생 인
▁지하 실로
스터 는
▁수행 하고
▁오늘날 에도
▁외국 으로
▁시대 와
▁집중 되어
▁시골 로
▁제공 한
▁늘어 난
▁콜 라
▁체포 된
▁지적 하고
▁불교 가
할머니 가
▁알렉산 드로
▁겨누 었다.
▁비정 상적인
▁ 련
께 에
사 옵니다."
자 신이
택 시
톤 은
혔 을
▁이 밖에
▁" 짜
▁아 르고
▁사 악
▁시 장은
▁정 답게
▁해 안에
▁불 국
▁세 세
.... '
▁발 길로
▁그것 뿐
▁버 리게
▁자기 들끼리
▁줄 까?
▁외 친다.
▁김 삼
▁약 점이
▁최 후를
▁3 주
▁추 적을
▁놀 았다.
▁크 루
▁지나 치는
▁필요 하다
▁항 해를
▁법 적
▁높 이의
▁악 이
▁멀 게
▁이야기 .
▁망 칠
▁능 력의
▁자유 자
▁브 체
▁쥐 어져
▁12 년
▁도망 가는
ar m
▁하였 는데,
▁시험 이
▁동료 를
▁슈 리안
주시 면
▁년 간
▁참여 하는
▁소문 도
▁서두 르
▁의존 하고
▁어이 없는
▁입김 을
▁ 잖
네 에게
노 인의
대 군
더 란
바 늘
사 :
숙 이는
여 명
으 세요."
응 게
작 업
플 러
▁사 명을
▁말 자
▁지 쳤
▁지 표
▁지 피
▁거 시
▁바 도
▁오 기는
▁오 겠다고
▁되 길
▁비 자
▁비 좁
▁신 원을
▁공 대
▁진 술을
▁반 겨
▁재 판에
▁교 전
▁외 부에서
▁타 인을
▁종 소리가
▁청 결
▁< 사
▁완 고
▁임 기
▁임 마.
▁끌 리는
▁꿈 결
▁넣 고는
▁만일 의
▁달라 이라
▁노력 과
▁거리 던
▁상상 력이
▁뽑 고
▁침묵 에
▁가라앉 고
▁늘어 났다.
▁40 분
▁누군가 와
▁부하 가
▁내쉬 고
▁미스 코
▁설치 해
▁뿜 으며
▁기계 적으로
▁되찾 았다.
▁쓰레 기를
▁사귀 고
▁텐 트
▁구분 할
▁꿈꾸 고
▁자욱 한
▁매듭 을
▁오징 어
▁스스럼 없이
▁노아리 자는
I S
대 사가
도 나
심 리학
십 니까,
전 화가
주 리가
치 마
패 의
환 에
▁수 속을
▁않 지.
▁정 기가
▁물 어도
▁세 원
▁저 하
▁경 력을
▁공 적인
▁유 입
▁연 고
▁성 철
▁받 도록
▁진 동이
▁반 들
▁명 희는
▁역 겨운
▁아이 스
▁문제 될
▁넘 어서는
▁민 기는
▁출 석
▁뜻 입니다.
▁별 명
▁리 나는
▁10 년이
▁─ │
▁방법 이었다.
▁관계 ,
▁자유 당
▁기회 도
▁떼 지어
▁내리 면서
▁조직 과
▁날아 간
al k
▁맺 지
▁눈물 과
▁더듬 고
▁섭 은
▁w ay
▁좌우 에
▁본능 을
▁재촉 하는
▁잠수 함의
▁일그러 져
▁전국 적으로
▁국방 부
▁연산 군은
▁올려다보 고
▁소프트웨 어
▁아미 타
▁산더미 처럼
▁"쓸 데
( c
6 5
▁ 츠
녀 에게
르 에게
영 화를
오 에
측 한
호 .
다. ..
▁내 키는
▁시 적
▁마 카
▁오 십시오.
▁조 인
▁저 번
▁공 갈
▁공 고
▁' 금
-- 19
▁발 효
▁연 기는
▁성 당에
▁여자 하고
▁단 계의
▁요 격
▁재 래
▁재 소
▁남자 .
▁초 패
▁둘 ,
▁여기 와
▁되었 소.
▁황 석
▁놈 에게
▁총 격
▁모양 은
▁사용 했던
▁� i
▁들었 는데,
▁기회 로
▁멀리 까지
▁나왔 다고
▁뭘 로
▁당황 하게
▁미안 하지만
▁안돼 ,
▁쾌 히
▁말했다 ,
▁은행 에서
▁자본 주의의
▁치밀 하게
▁작정 하고
▁친절 하고
▁기름 진
▁우스 스러운
▁제임 스는
▁수레 바퀴
▁"여러 분
▁송수 익은
▁강무 혁이
▁가누 지
( 상
경 이가
길 과
님 한테
드 도
떡 을
머 리로
였 죠.
욱 을
장 들이
절 하고
했 는데도
▁있 습니까
▁없 으니까요.
▁보 겠다.
▁대 국
▁전 교
▁전 이었다.
▁바 구니를
▁해 !"
▁위 력
▁남 김없이
▁비 좁은
▁그녀 석이
▁불 같이
▁서 먹
▁경 주를
▁발 악
▁달 하고
요." 나는
▁피 폐
▁길 목
▁참 말
▁학 자들이
▁소리 나
인가 !
▁알아 들었
▁준 의
▁헤 파이
▁해서 든
▁6 7
▁봐 라,
▁묘 지
▁녹 색의
어놓 을
▁「 이
▁낭 독
▁말했 지만,
▁청년 에게
▁옵 니까?
▁섹 스가
▁포함 된
▁대꾸 가
▁알겠 지?
▁하느 님을
▁쫓아 내
▁망설 이지
▁회의 는
▁가벼 워
▁스트 라
▁장교 들이
마을 에
연구 소의
▁이겨 낼
▁본질 은
▁치솟 는
▁억누 르고
,,,,,, .
▁여대 생
▁전속 력으로
▁부르주 아
▁자포 자기
▁조마조 마
계 에서는
고 등학교
광 대
군 요!"
깊 게
끼 의
부 스러
술 집
였 음을
치 기도
포 트
▁" 궁
▁하 다는
▁나 고,
▁모 택
▁마 세요
▁여 윈
▁정 차
▁주 마.
▁같 다."
▁조 처
▁비 린
▁중 개
▁장 엄
니까 ...
▁발 령
▁연 마
▁선 비의
▁달 과
▁반 대한
▁열 기로
▁게 .
▁길 이라고
▁과 히
▁호 는
▁남자 들에게
▁질 긴
이라 ?
▁귀 머
▁5 백만
▁준 석
▁팔 목을
▁별 장을
▁붙 들었다.
▁뭐 하고
▁벗 겼다.
▁취 미를
▁코 린
▁이해 해야
▁악 취가
▁발견 한다.
▁있지 ,
▁갔 더니
▁8 0년
▁돌아가 면서
▁견 해에
▁이용 하면
▁모르겠 다
▁충분 할
▁녹 이
▁지역 에서는
▁받았 는데
▁"아니 요.
▁대표 로
▁이웃 의
▁태어나 지
▁형편 없이
▁고생 하는
▁계곡 에
▁탑 재
▁친척 이
▁운영 하고
▁파티 가
▁늘어나 는
▁허겁지 겁
▁비정 상
3 8
객 들은
곳 이
기 할
담 으로
두 면
죠 "
협 의
▁이 덕
▁" 찰
▁다 하지
▁않 느냐
▁내 팔을
▁때 라
▁여 차
▁여 우는
▁정 인을
▁전 국을
▁주 술
▁되 지도
▁불 같은
▁신 정
▁신 분의
▁미 닫
▁방 불
▁장 자
▁장 래의
▁"그 대
▁뒤 엎
▁개 발을
▁단 체의
▁박 해
▁말이 ,
▁평 을
▁출 마
▁충 만한
▁검 출
▁검 푸른
▁좋아 하던
시키 도록
▁얻 어진
▁아래 는
▁멀 리가
▁한국 군의
▁싫 증을
▁하겠 지만,
▁"정 신
▁노동 자들의
▁다음날 부터
▁턱 없이
▁파악 한
▁움켜 잡고
▁뛰어나 왔다.
▁신분 으로
▁배치 되어
▁스페 인의
▁논리 적으로
▁호들 갑
▁ 댁은
걸 이에
검 사를
남 자
름 으로
사 상을
쓰 지
영 희는
우 게
원 이라는
이 동
죠 ...
지 하고
토 ,
▁그 루의
▁이 민을
▁" 라고
▁수 명이
▁다 본
▁지 출
▁대 원이
▁여 미
▁사람 과의
▁거 푸
▁무 차별
▁우 악
▁만 수
▁불 균
▁중 은
▁아니 .
▁아니 던가.
▁못 하다고
▁경 관
▁공 방
▁공 안
▁영 조
▁노 용
▁누 나와
▁반 감을
▁번 졌다.
▁찾 으려는
▁지금 으로부터
▁천 민
▁따라 오고
▁책 이다.
▁왔 어?
▁프 크는
▁황 량
▁커 지는
▁권 을
▁세계 ,
▁물론 이다.
▁꿈 이었다.
▁섬 은
▁맛 보고
▁낳 는다.
▁맹 획
▁눈치 만
▁안되 겠
▁개념 으로
▁지적 했다.
해졌 고,
▁'이 제
▁출입 문
▁변해 갔다.
▁어때 ?"
▁바르 나
▁위태 로운
▁고마워 요.
▁어딜 가
▁옮긴 이
▁봉지 련의
▁재떨 이에
% 에
( 중
달 린
돌 이는
머 의
뭐 가
뭔 가
서 부터
인 으로서
지 리
지 라는
학 파의
▁그 쯤
▁" 멋
▁사 단이
▁일 념
▁대 야
▁것이 나,
▁여 긴다.
▁소 풍
▁고 르고
▁세 분
▁신 비의
▁장 님이
▁집 에서도
▁입 체
▁개 고
▁스 태
▁얼굴 .
▁예 속
▁박 장
▁놓 기
▁치 더라도
▁외 침에
▁몰 수
▁"아 줌
▁문제 들이
▁왕 궁
▁왔 지만,
▁환 자들의
▁옆 방에서
▁흔 치
▁대해서 ,
▁면 모를
▁품 으로
▁냉 한
▁시절 은
▁늙 어서
▁물러 난
▁맺 을
▁영국 이
▁차가 웠다.
▁옵 고
▁값 으로
▁제거 해
▁적극 적
▁머뭇 거리며
▁점령 한
▁죄송 합니다."
▁d ay
▁인공 위
▁순서 대로
▁간략 하게
3 2
i )
p le
대 감
뜨 기
론 에서
무 라가
세 자의
아 침
이 리
찾 아
하 세요
활 을
희 라는
▁말 인데,
▁내 방에
▁만 질
▁만 세를
▁알 겠어?
▁해 봐
▁조 로
▁제 치고
▁당 기고
▁나는 데
▁유 자
▁유 황
▁' 바
▁결 실을
▁죽 거나
▁후 자는
▁날 리며
▁마음 속의
▁싶 소.
▁명 시
▁허 풍
▁표 했다.
▁난 그
▁호 통
▁드 물었다.
▁않았 는가.
▁병 실에
▁금 기
▁"이 리
▁대답 하자
▁총 재
▁투 여
▁짓 이었다.
▁들어가 도
▁결혼 하게
▁기억 한다.
▁의미 에
▁극 성
▁끊 겨
▁루 비
▁9 4
▁표현 에
▁염 려는
▁과거 는
하려 다가
▁닫 히는
▁못해 도
ar k
▁불행 의
▁동료 들의
▁보였 기
▁촉 구
▁형제 들이
▁지붕 에
▁식사 도
▁떠났 던
▁거래 가
▁킬 츠
▁전환 을
▁합니다 만
▁하하하 .
▁수레 에
▁어처 구니가
▁간곡 한
▁경복 궁
▁포르투 갈
라 니,
레 와
리 만
살 ,
십 년
임 으로써
재 해
책 이었다.
척 에
플 로
학 파
▁하 되
▁하 영의
▁보 이가
▁무 고
▁부 장이
▁인 삼
▁두 세요.
▁상 자에
▁세 네
▁신 체를
▁뒤 지지
▁진 리는
▁데 ..."
▁여자 나
▁강 탈
▁열 차는
▁예 닐
▁시작 했어.
▁배 급
▁처 남
▁떠 다
▁있을 까?"
▁2 개월
▁줄 지
▁표 트
▁힘 ,
▁산 란
▁초 자연
이라 기보다
▁직 속
▁술 의
▁독 약을
▁계속 되어
▁바라보 면
▁프 레이
▁별 도의
▁나무 도
▁흥 청
▁보았 고
▁"당 연
▁도시 락
▁기울 일
▁곡 이
▁불행 하게
▁눈물 까지
▁태어나 기
▁도덕 적으로
▁바닷 가에서
▁핏 기가
▁주민 들의
▁농민 들이
▁농민 들의
▁뛰어나 와
▁선거 를
▁최종 학은
▁경멸 하는
▁정교 하게
▁정서 적
▁무표 정하게
▁심찬 수는
▁정반 대의
▁트라비 스는
▁사피 언스
▁한손 으로는
갔 는데
말 과
미 트
사 처럼
오 "
원 자
음 )
품 들이
▁이 야.
▁이 자를
▁" 달
▁" 취
▁사 돈
▁하 층
▁어 ?
▁다 의
▁일 들에
▁지 섭
▁거 아니
▁오 로
▁되 네.
▁고 혈압
▁제 6
▁눈 엔
▁신 이나
▁더 냐?
▁서 진
▁얼 매나
▁선 다.
▁했 어야
▁건 어
▁앞 다
▁실 감이
▁강 했다.
▁등 에는
▁잠 들지
▁작 전의
▁처 넣
▁매 미
▁박 종
() 이었다.
▁빠 지기
▁백 마
▁흘 깃
▁야 수
▁법 원
▁권 리는
▁속에서 만
▁다가 오자
▁상태 에서는
이에 요?"
▁능 청
아버 지를
er e
▁일단 의
▁뽑 아서
▁운전 석
▁웃음 과
▁생각할 수록
▁흩 뿌
▁정리 하는
▁마루 를
▁챙 기는
▁드리 겠습니다.
▁시도 했다.
▁신비 스러운
▁프로그램 은
합니다 !
▁미워 하고
▁규칙 적인
▁확보 하고
▁배려 를
▁핵심 적인
▁가은 은
▁엉망 진
▁브레이 크를
▁실질 적으로
A N
[...]
