{"<s>":0,"<pad>":1,"</s>":2,"<unk>":3,"<mask>":4,"!":5,"\"":6,"#":7,"%":8,"'":9,"(":10,")":11,"*":12,",":13,"-":14,".":15,"/":16,"0":17,"1":18,"2":19,"3":20,"4":21,"5":22,"6":23,"7":24,"8":25,"9":26,":":27,"<":28,"=":29,">":30,"?":31,"A":32,"B":33,"C":34,"D":35,"E":36,"F":37,"G":38,"H":39,"I":40,"K":41,"L":42,"M":43,"N":44,"O":45,"P":46,"R":47,"S":48,"T":49,"V":50,"W":51,"[":52,"]":53,"^":54,"_":55,"`":56,"a":57,"b":58,"c":59,"d":60,"e":61,"f":62,"g":63,"h":64,"i":65,"k":66,"l":67,"m":68,"n":69,"o":70,"p":71,"r":72,"s":73,"t":74,"u":75,"v":76,"w":77,"y":78,"~":79,"‘":80,"’":81,"“":82,"”":83,"─":84,"━":85,"│":86,"▁":87,"「":88,"」":89,"가":90,"각":91,"간":92,"갈":93,"감":94,"갑":95,"값":96,"갔":97,"강":98,"갖":99,"같":100,"개":101,"객":102,"거":103,"걱":104,"건":105,"걷":106,"걸":107,"검":108,"겁":109,"것":110,"겉":111,"게":112,"겐":113,"겠":114,"겨":115,"격":116,"겪":117,"견":118,"결":119,"겸":120,"겹":121,"겼":122,"경":123,"곁":124,"계":125,"고":126,"곡":127,"곤":128,"곧":129,"골":130,"곰":131,"곱":132,"곳":133,"공":134,"과":135,"곽":136,"관":137,"광":138,"괘":139,"괜":140,"괴":141,"교":142,"구":143,"국":144,"군":145,"굳":146,"굴":147,"굽":148,"궁":149,"권":150,"궐":151,"귀":152,"규":153,"균":154,"그":155,"극":156,"근":157,"글":158,"금":159,"급":160,"긋":161,"기":162,"긴":163,"길":164,"김":165,"깃":166,"깊":167,"까":168,"깐":169,"깔":170,"깜":171,"깥":172,"깨":173,"꺼":174,"껄":175,"껏":176,"께":177,"껴":178,"꼈":179,"꼬":180,"꼭":181,"꼴":182,"꼼":183,"꽃":184,"꽤":185,"꾸":186,"꾼":187,"꿀":188,"꿈":189,"뀌":190,"끄":191,"끈":192,"끊":193,"끌":194,"끓":195,"끔":196,"끗":197,"끝":198,"끼":199,"낀":200,"낄":201,"낌":202,"나":203,"낙":204,"난":205,"날":206,"남":207,"납":208,"낫":209,"났":210,"낭":211,"낮":212,"낯":213,"낳":214,"내":215,"낸":216,"낼":217,"냄":218,"냈":219,"냉":220,"냐":221,"냥":222,"너":223,"넌":224,"널":225,"넓":226,"넘":227,"넣":228,"네":229,"녀":230,"녁":231,"년":232,"념":233,"녔":234,"녕":235,"노":236,"녹":237,"논":238,"놀":239,"놈":240,"농":241,"높":242,"놓":243,"뇌":244,"누":245,"눈":246,"눌":247,"뉴":248,"느":249,"는":250,"늘":251,"늙":252,"능":253,"늦":254,"니":255,"닌":256,"닐":257,"님":258,"닙":259,"다":260,"닥":261,"닦":262,"단":263,"닫":264,"달":265,"닭":266,"담":267,"답":268,"닷":269,"당":270,"닿":271,"대":272,"댁":273,"댄":274,"댔":275,"더":276,"덕":277,"던":278,"덜":279,"덤":280,"덧":281,"덩":282,"덮":283,"데":284,"델":285,"도":286,"독":287,"돈":288,"돋":289,"돌":290,"동":291,"돼":292,"됐":293,"되":294,"된":295,"될":296,"됩":297,"두":298,"둑":299,"둔":300,"둘":301,"둠":302,"둥":303,"뒤":304,"뒷":305,"드":306,"득":307,"든":308,"듣":309,"들":310,"듬":311,"듭":312,"듯":313,"등":314,"디":315,"딘":316,"딜":317,"딪":318,"따":319,"딱":320,"딴":321,"딸":322,"땀":323,"땅":324,"때":325,"떠":326,"떡":327,"떤":328,"떨":329,"떻":330,"떼":331,"또":332,"똑":333,"똥":334,"뚜":335,"뚝":336,"뚫":337,"뚱":338,"뛰":339,"뜨":340,"뜩":341,"뜯":342,"뜻":343,"띄":344,"띠":345,"라":346,"락":347,"란":348,"랄":349,"람":350,"랍":351,"랐":352,"랑":353,"래":354,"랜":355,"램":356,"랫":357,"랬":358,"랴":359,"략":360,"량":361,"러":362,"럭":363,"런":364,"럴":365,"럼":366,"럽":367,"렀":368,"렁":369,"렇":370,"레":371,"렉":372,"렌":373,"려":374,"력":375,"련":376,"렬":377,"렴":378,"렵":379,"렷":380,"렸":381,"령":382,"례":383,"로":384,"록":385,"론":386,"롭":387,"롯":388,"롱":389,"뢰":390,"료":391,"룡":392,"루":393,"룩":394,"류":395,"륙":396,"률":397,"륭":398,"르":399,"른":400,"를":401,"름":402,"릅":403,"릇":404,"릎":405,"리":406,"릭":407,"린":408,"릴":409,"림":410,"립":411,"릿":412,"링":413,"마":414,"막":415,"만":416,"많":417,"말":418,"맑":419,"맘":420,"맙":421,"맛":422,"망":423,"맞":424,"맡":425,"매":426,"맥":427,"맨":428,"맹":429,"맺":430,"머":431,"먹":432,"먼":433,"멀":434,"멈":435,"멋":436,"멍":437,"메":438,"며":439,"면":440,"멸":441,"명":442,"몇":443,"모":444,"목":445,"몬":446,"몰":447,"몸":448,"몹":449,"못":450,"몽":451,"묘":452,"무":453,"묵":454,"묶":455,"문":456,"묻":457,"물":458,"뭇":459,"뭉":460,"뭐":461,"뭔":462,"뭘":463,"므":464,"미":465,"민":466,"믿":467,"밀":468,"및":469,"밑":470,"바":471,"박":472,"밖":473,"반":474,"받":475,"발":476,"밝":477,"밟":478,"밤":479,"밥":480,"방":481,"밭":482,"배":483,"백":484,"뱃":485,"뱉":486,"버":487,"벅":488,"번":489,"벌":490,"범":491,"법":492,"벗":493,"베":494,"벤":495,"벨":496,"벼":497,"벽":498,"변":499,"별":500,"볍":501,"병":502,"보":503,"복":504,"본":505,"볼":506,"봄":507,"봉":508,"봐":509,"봤":510,"부":511,"북":512,"분":513,"불":514,"붉":515,"붓":516,"붕":517,"붙":518,"브":519,"블":520,"비":521,"빈":522,"빌":523,"빗":524,"빙":525,"빛":526,"빠":527,"빨":528,"빵":529,"빼":530,"뻐":531,"뻔":532,"뻗":533,"뼈":534,"뽑":535,"뿌":536,"뿐":537,"뿜":538,"쁘":539,"쁜":540,"쁨":541,"삐":542,"사":543,"삭":544,"산":545,"살":546,"삶":547,"삼":548,"상":549,"새":550,"색":551,"생":552,"샤":553,"서":554,"석":555,"섞":556,"선":557,"설":558,"섬":559,"섭":560,"섯":561,"섰":562,"성":563,"세":564,"섹":565,"센":566,"셈":567,"셋":568,"셔":569,"션":570,"셨":571,"소":572,"속":573,"손":574,"솔":575,"솜":576,"솟":577,"송":578,"쇄":579,"쇠":580,"쇼":581,"수":582,"숙":583,"순":584,"술":585,"숨":586,"숫":587,"숭":588,"숲":589,"쉬":590,"쉽":591,"슈":592,"스":593,"슨":594,"슬":595,"슴":596,"습":597,"슷":598,"승":599,"시":600,"식":601,"신":602,"실":603,"싫":604,"심":605,"십":606,"싱":607,"싶":608,"싸":609,"싹":610,"싼":611,"쌀":612,"쌍":613,"쌓":614,"써":615,"썩":616,"썼":617,"쎄":618,"쏘":619,"쏟":620,"쑥":621,"쓰":622,"쓴":623,"쓸":624,"씀":625,"씨":626,"씩":627,"씬":628,"씻":629,"아":630,"악":631,"안":632,"앉":633,"않":634,"알":635,"암":636,"압":637,"앗":638,"았":639,"앙":640,"앞":641,"애":642,"액":643,"앤":644,"야":645,"약":646,"얀":647,"양":648,"얘":649,"어":650,"억":651,"언":652,"얻":653,"얼":654,"엄":655,"업":656,"없":657,"엇":658,"었":659,"엉":660,"엌":661,"엎":662,"에":663,"엔":664,"엘":665,"여":666,"역":667,"연":668,"열":669,"염":670,"엽":671,"엿":672,"였":673,"영":674,"옆":675,"예":676,"옛":677,"오":678,"옥":679,"온":680,"올":681,"옮":682,"옳":683,"옵":684,"옷":685,"옹":686,"와":687,"완":688,"왔":689,"왕":690,"왜":691,"외":692,"왼":693,"요":694,"욕":695,"용":696,"우":697,"욱":698,"운":699,"울":700,"움":701,"웃":702,"웅":703,"워":704,"원":705,"월":706,"웠":707,"웨":708,"웬":709,"위":710,"윈":711,"유":712,"육":713,"윤":714,"율":715,"으":716,"윽":717,"은":718,"을":719,"음":720,"읍":721,"응":722,"의":723,"이":724,"익":725,"인":726,"일":727,"읽":728,"잃":729,"임":730,"입":731,"잇":732,"있":733,"잉":734,"잊":735,"잎":736,"자":737,"작":738,"잔":739,"잖":740,"잘":741,"잠":742,"잡":743,"장":744,"재":745,"쟁":746,"저":747,"적":748,"전":749,"절":750,"젊":751,"점":752,"접":753,"정":754,"젖":755,"제":756,"젠":757,"져":758,"졌":759,"조":760,"족":761,"존":762,"졸":763,"좀":764,"좁":765,"종":766,"좋":767,"좌":768,"죄":769,"죠":770,"주":771,"죽":772,"준":773,"줄":774,"줌":775,"중":776,"줘":777,"쥐":778,"즈":779,"즉":780,"즐":781,"즘":782,"증":783,"지":784,"직":785,"진":786,"질":787,"짐":788,"집":789,"짓":790,"징":791,"짖":792,"짚":793,"짜":794,"짝":795,"짧":796,"째":797,"쨌":798,"쩌":799,"쩍":800,"쩔":801,"쪽":802,"쫓":803,"쯤":804,"찌":805,"찍":806,"찔":807,"찢":808,"차":809,"착":810,"찬":811,"찮":812,"찰":813,"참":814,"창":815,"찾":816,"채":817,"책":818,"챙":819,"처":820,"척":821,"천":822,"철":823,"첩":824,"첫":825,"청":826,"체":827,"쳐":828,"쳤":829,"초":830,"촉":831,"촌":832,"총":833,"최":834,"추":835,"축":836,"춘":837,"출":838,"춤":839,"충":840,"춰":841,"취":842,"츠":843,"측":844,"층":845,"치":846,"칙":847,"친":848,"칠":849,"침":850,"칭":851,"카":852,"칸":853,"칼":854,"캐":855,"커":856,"컨":857,"컴":858,"케":859,"켜":860,"켰":861,"코":862,"콘":863,"콜":864,"콩":865,"쾌":866,"쿠":867,"퀴":868,"크":869,"큰":870,"클":871,"큼":872,"키":873,"킨":874,"킬":875,"타":876,"탁":877,"탄":878,"탈":879,"탐":880,"탑":881,"탓":882,"탕":883,"태":884,"택":885,"터":886,"턱":887,"턴":888,"털":889,"테":890,"텐":891,"텔":892,"토":893,"톤":894,"통":895,"퇴":896,"투":897,"퉁":898,"튀":899,"트":900,"특":901,"튼":902,"틀":903,"틈":904,"티":905,"틴":906,"파":907,"판":908,"팔":909,"패":910,"팬":911,"팽":912,"퍼":913,"페":914,"펜":915,"펴":916,"편":917,"펼":918,"평":919,"폐":920,"포":921,"폭":922,"폴":923,"표":924,"푸":925,"풀":926,"품":927,"풍":928,"퓨":929,"프":930,"픈":931,"플":932,"픔":933,"피":934,"핀":935,"필":936,"핏":937,"핑":938,"하":939,"학":940,"한":941,"할":942,"함":943,"합":944,"항":945,"해":946,"핵":947,"햇":948,"했":949,"행":950,"향":951,"허":952,"헌":953,"헐":954,"험":955,"헛":956,"헤":957,"헬":958,"혀":959,"혁":960,"현":961,"혈":962,"협":963,"혔":964,"형":965,"혜":966,"호":967,"혹":968,"혼":969,"홀":970,"홍":971,"화":972,"확":973,"환":974,"활":975,"황":976,"회":977,"획":978,"효":979,"후":980,"훈":981,"훌":982,"훔":983,"훨":984,"훼":985,"휘":986,"휴":987,"흉":988,"흐":989,"흑":990,"흔":991,"흘":992,"흙":993,"흠":994,"흡":995,"흥":996,"흩":997,"희":998,"흰":999,"히":1000,"힌":1001,"힐":1002,"힘":1003,"�":1004,"다.":1005,"▁그":1006,"▁있":1007,"▁이":1008,"▁\"":1009,"▁것":1010,"▁아":1011,"▁사":1012,"었다.":1013,"▁하":1014,"▁나":1015,"으로":1016,"..":1017,"▁가":1018,"▁수":1019,"▁말":1020,"에서":1021,"▁어":1022,"▁자":1023,"▁없":1024,"▁보":1025,"▁다":1026,"▁한":1027,"▁일":1028,"▁지":1029,"▁대":1030,"▁않":1031,"▁내":1032,"▁것이":1033,"했다.":1034,"▁모":1035,"▁시":1036,"▁마":1037,"▁때":1038,"니다.":1039,"▁여":1040,"하고":1041,"▁기":1042,".\"":1043,"▁사람":1044,"▁있는":1045,"▁생":1046,"▁정":1047,"▁들":1048,"▁거":1049,"▁전":1050,"▁주":1051,"에게":1052,"▁무":1053,"▁바":1054,"하는":1055,"▁소":1056,"▁오":1057,"▁우":1058,"▁부":1059,"▁되":1060,"▁고":1061,"다는":1062,"▁있었다.":1063,"요.":1064,"들이":1065,"았다.":1066,"지만":1067,"▁같":1068,"▁그러":1069,"▁만":1070,"▁생각":1071,"리고":1072,"▁알":1073,"▁해":1074,"▁위":1075,"▁안":1076,"▁조":1077,"▁인":1078,"▁남":1079,"▁비":1080,"▁그녀":1081,"▁두":1082,"들은":1083,"▁불":1084,"하게":1085,"▁제":1086,"▁상":1087,"▁물":1088,"라고":1089,"▁중":1090,"▁동":1091,"▁눈":1092,"였다.":1093,"▁아니":1094,"▁세":1095,"▁신":1096,"다고":1097,"▁더":1098,"▁못":1099,"▁미":1100,"▁서":1101,"▁우리":1102,"에는":1103,"고,":1104,"▁당":1105,"습니다.":1106,"▁의":1107,"면서":1108,"▁것이다.":1109,"▁나는":1110,"▁얼":1111,"▁저":1112,"▁들어":1113,"▁그는":1114,"▁도":1115,"▁1":1116,"▁경":1117,"▁돌":1118,"라는":1119,"▁공":1120,"이었다.":1121,"?\"":1122,"▁유":1123,"까지":1124,"이다.":1125,"▁살":1126,"....":1127,"▁그런":1128,"▁'":1129,"▁손":1130,"▁문":1131,"▁방":1132,"▁장":1133,"▁속":1134,"▁있었":1135,"▁할":1136,"니까":1137,"▁구":1138,"렇게":1139,"▁걸":1140,"▁집":1141,"--":1142,"▁때문":1143,"▁자신":1144,"▁\"그":1145,"▁그러나":1146,"리를":1147,"▁그리고":1148,"▁입":1149,"▁또":1150,"▁발":1151,"▁영":1152,"▁차":1153,"▁것을":1154,"▁그것":1155,"▁것은":1156,"처럼":1157,"▁연":1158,"▁선":1159,"해서":1160,"▁결":1161,"▁노":1162,"▁달":1163,"기를":1164,"들을":1165,"▁따":1166,"▁있다.":1167,"▁성":1168,"리는":1169,"적인":1170,"▁하는":1171,"▁계":1172,"▁뒤":1173,"▁좋":1174,"▁받":1175,"하지":1176,"▁관":1177,"▁감":1178,"▁진":1179,"는데":1180,"▁누":1181,"▁죽":1182,"▁목":1183,"▁잘":1184,"들의":1185,"▁많":1186,"하여":1187,"▁개":1188,"▁반":1189,"▁했":1190,"▁다시":1191,"▁같은":1192,"이나":1193,"▁건":1194,"부터":1195,"▁스":1196,"▁그의":1197,"▁분":1198,"▁데":1199,"리가":1200,"▁앞":1201,"▁여자":1202,"▁실":1203,"▁내가":1204,"▁강":1205,"...":1206,"다가":1207,"지는":1208,"▁열":1209,"▁하나":1210,"렸다.":1211,"▁몸":1212,"▁너":1213,"▁후":1214,"▁단":1215,"▁돌아":1216,"▁했다.":1217,"요.\"":1218,"▁없는":1219,"▁등":1220,"▁피":1221,"▁새":1222,"▁잠":1223,"▁아무":1224,"▁느":1225,"▁날":1226,"다면":1227,"▁얼굴":1228,"▁마음":1229,"▁번":1230,"▁적":1231,"대로":1232,"▁작":1233,"▁싶":1234,"▁듯":1235,"▁예":1236,"▁있어":1237,"▁원":1238,"▁시작":1239,"▁게":1240,"▁하고":1241,"▁올":1242,"▁명":1243,"라도":1244,"▁배":1245,"▁말했다.":1246,"▁그래":1247,"▁처":1248,"▁다른":1249,"▁된":1250,"▁없었다.":1251,"머니":1252,"▁버":1253,"▁요":1254,"▁떠":1255,"▁일이":1256,"으며":1257,"▁찾":1258,"하기":1259,"▁통":1260,"▁머":1261,"▁말을":1262,"▁현":1263,"이는":1264,"▁재":1265,"▁있을":1266,"▁자기":1267,"▁당신":1268,"▁2":1269,"▁지금":1270,"▁가지":1271,"▁매":1272,"▁행":1273,"▁함":1274,"▁교":1275,"▁파":1276,"▁그녀는":1277,"▁줄":1278,"▁간":1279,"요?":1280,"▁길":1281,"▁순":1282,"적으로":1283,"▁그렇게":1284,"▁군":1285,"▁심":1286,"▁허":1287,"갔다.":1288,"▁때문에":1289,"▁화":1290,"▁사람이":1291,"▁박":1292,"▁잡":1293,"▁언":1294,"▁않았다.":1295,"▁역":1296,"▁표":1297,"왔다.":1298,"▁끝":1299,"▁태":1300,"이었":1301,"▁놓":1302,"▁온":1303,"▁먹":1304,"입니다.":1305,"으면":1306,"▁과":1307,"▁치":1308,"▁앉":1309,"▁형":1310,"▁양":1311,"▁난":1312,"▁외":1313,"▁채":1314,"▁모두":1315,"▁모르":1316,"▁어떤":1317,"▁않는":1318,"▁사실":1319,"▁모든":1320,"▁참":1321,"▁곳":1322,"▁호":1323,"▁천":1324,"보다":1325,"▁드":1326,"▁떨":1327,"▁벌":1328,"▁김":1329,"▁시간":1330,"야.":1331,"▁본":1332,"▁애":1333,"▁그렇":1334,"▁말이":1335,"▁쓰":1336,"▁아이":1337,"▁사랑":1338,"▁없이":1339,"▁친":1340,"기가":1341,"()":1342,"▁않았":1343,"에도":1344,"▁타":1345,"▁힘":1346,"▁약":1347,"한다.":1348,"▁어떻":1349,"▁필":1350,"▁따라":1351,"▁점":1352,"▁이상":1353,"▁최":1354,"▁대한":1355,"▁종":1356,"어나":1357,"▁웃":1358,"▁하지만":1359,"!\"":1360,"▁3":1361,"지.":1362,"▁남자":1363,"▁이제":1364,"기는":1365,"▁맞":1366,"지를":1367,"▁몰":1368,"▁병":1369,"졌다.":1370,"어서":1371,"▁그가":1372,"도록":1373,"▁정도":1374,"▁왜":1375,"▁\"아":1376,"▁변":1377,"▁어떻게":1378,"▁큰":1379,"▁학":1380,"▁산":1381,"려고":1382,"가는":1383,"▁설":1384,"▁추":1385,"지도":1386,"▁이야":1387,"▁국":1388,"▁함께":1389,"▁소리":1390,"▁놀":1391,"▁몇":1392,"▁보고":1393,"▁다음":1394,"▁편":1395,"▁이런":1396,"----":1397,"나는":1398,"기도":1399,"▁자신의":1400,"▁식":1401,"▁모습":1402,"어요.":1403,"▁빠":1404,"▁어느":1405,"하면":1406,"사를":1407,"▁포":1408,"▁초":1409,"기에":1410,"▁사이":1411,"▁질":1412,"▁무슨":1413,"▁그녀의":1414,"▁이렇게":1415,"▁음":1416,"어.":1417,"▁않고":1418,"인가":1419,"▁회":1420,"에서는":1421,"이라":1422,"▁크":1423,"▁한다.":1424,"▁수가":1425,"▁향":1426,"▁내려":1427,"▁은":1428,"▁바라":1429,"▁너무":1430,"지만,":1431,"▁될":1432,"▁밤":1433,"▁아버":1434,"▁찾아":1435,"▁절":1436,"▁뿐":1437,"▁문제":1438,"이라는":1439,"▁알고":1440,"▁바로":1441,"▁위해":1442,"▁좀":1443,"▁어디":1444,"▁특":1445,"이고":1446,"▁귀":1447,"▁막":1448,"▁갈":1449,"이라고":1450,"▁것도":1451,"되어":1452,"들에게":1453,"▁백":1454,"서는":1455,"▁창":1456,"▁인간":1457,"▁확":1458,"▁네":1459,"▁동안":1460,"▁책":1461,"▁무엇":1462,"▁지나":1463,"음을":1464,"이가":1465,"▁어머니":1466,"▁침":1467,"들어":1468,"니다":1469,"▁평":1470,"▁직":1471,"▁깨":1472,"개를":1473,"▁없었":1474,"▁왕":1475,"▁그런데":1476,"▁담":1477,"......":1478,"▁청":1479,"▁왔":1480,"라.":1481,"리에":1482,"▁울":1483,"▁운":1484,"▁얼마":1485,"▁삼":1486,"자가":1487,"▁가장":1488,"▁아니라":1489,"▁아직":1490,"▁근":1491,"▁많은":1492,"▁넘":1493,"▁민":1494,"▁출":1495,"▁돈":1496,"으나":1497,"정을":1498,"▁있던":1499,"▁이미":1500,"▁테":1501,"▁갖":1502,"▁되어":1503,"▁그래서":1504,"▁충":1505,"▁필요":1506,"▁얘":1507,"오는":1508,"▁혼":1509,"▁사람은":1510,"▁같이":1511,"▁하지":1512,"▁엄":1513,"▁그것은":1514,"▁볼":1515,"인이":1516,"▁5":1517,"▁금":1518,"▁술":1519,"▁\"이":1520,"▁그들은":1521,"▁둘":1522,"▁여러":1523,"사가":1524,"▁철":1525,"하며":1526,"▁독":1527,"자는":1528,"▁뜻":1529,"거나":1530,"▁알아":1531,"▁나를":1532,"▁여기":1533,"▁나타":1534,"▁일을":1535,"▁몸을":1536,"지가":1537,"▁준":1538,"▁계속":1539,"지고":1540,"▁합":1541,"사는":1542,"▁팔":1543,"▁환":1544,"▁바라보":1545,"▁대답":1546,"▁앉아":1547,"▁있다는":1548,"▁가슴":1549,"▁갑":1550,"▁<":1551,"▁처음":1552,"▁떨어":1553,"▁존":1554,"▁듣":1555,"▁않은":1556,"▁것이었다.":1557,"▁곧":1558,"▁먼":1559,"▁완":1560,"더니":1561,"▁이름":1562,"▁임":1563,"▁세상":1564,"▁용":1565,"▁숨":1566,"▁프":1567,"▁기다":1568,"▁체":1569,"▁아주":1570,"화를":1571,"▁고개를":1572,"이를":1573,"▁되었":1574,"이지":1575,"▁목소":1576,"▁별":1577,"밖에":1578,"▁손을":1579,"해야":1580,"▁없다.":1581,"▁친구":1582,"▁믿":1583,"▁싸":1584,"▁황":1585,"▁눈을":1586,"로운":1587,"하였다.":1588,"르는":1589,"▁조금":1590,"는데,":1591,"▁커":1592,"▁그때":1593,"장이":1594,"▁리":1595,"▁오늘":1596,"장을":1597,"▁잔":1598,"▁우리는":1599,"▁“":1600,"으니":1601,"문을":1602,"가지":1603,"▁이것":1604,"▁붙":1605,"▁정말":1606,"오.":1607,"▁옆":1608,"▁않을":1609,"▁흘":1610,"▁속에":1611,"주의":1612,"▁에":1613,"▁토":1614,"▁그를":1615,"▁누구":1616,"요?\"":1617,"▁수도":1618,"▁그리":1619,"했던":1620,"다보":1621,"▁움":1622,"▁4":1623,"▁뭐":1624,"▁시작했다.":1625,"▁정신":1626,"▁되는":1627,"▁경우":1628,"▁뛰":1629,"되는":1630,"들과":1631,"▁각":1632,"▁살아":1633,"▁밀":1634,"▁복":1635,"▁가지고":1636,"났다.":1637,"▁(":1638,"▁아닌":1639,"▁사람들이":1640,"▁순간":1641,"▁놈":1642,"▁빨":1643,"▁깊":1644,"▁총":1645,"니까?":1646,"는지":1647,"▁로":1648,"▁일본":1649,"▁카":1650,"▁야":1651,"자를":1652,"▁받아":1653,"▁검":1654,"인은":1655,"없이":1656,"자기":1657,"한테":1658,"▁쳐":1659,"쪽으로":1660,"▁되었다.":1661,"▁터":1662,"▁흔":1663,"▁풀":1664,"스는":1665,"▁올라":1666,"▁항":1667,"▁마치":1668,"▁좋아":1669,"성을":1670,"기로":1671,"까?":1672,"▁법":1673,"었다":1674,"▁권":1675,"▁광":1676,"므로":1677,"▁속에서":1678,"▁글":1679,"▁증":1680,"▁서로":1681,"▁끌":1682,"▁-":1683,"▁옷":1684,"▁언제":1685,"인의":1686,"전히":1687,"하면서":1688,"▁물었다.":1689,"▁벗":1690,"▁취":1691,"정이":1692,"▁19":1693,"▁만나":1694,"▁전에":1695,"인지":1696,"인데":1697,"리며":1698,"스럽":1699,"마다":1700,"스러":1701,"▁바람":1702,"▁않아":1703,"▁높":1704,"▁사회":1705,"▁좋은":1706,"▁희":1707,"▁선생":1708,"요,":1709,"▁더욱":1710,"구나":1711,"이란":1712,"▁그것을":1713,"내가":1714,"▁나가":1715,"시키":1716,"▁말씀":1717,"▁다가":1718,"▁세계":1719,"▁많이":1720,"▁헤":1721,"▁땅":1722,"▁모양":1723,"식을":1724,"▁빛":1725,"▁베":1726,"▁나라":1727,"▁이러":1728,"▁겁":1729,"했다":1730,"쳤다.":1731,"이며":1732,"▁꺼":1733,"내는":1734,"▁얼굴을":1735,"▁늘":1736,"▁대해":1737,"▁같았다.":1738,"자의":1739,"성이":1740,"▁생각이":1741,"▁얻":1742,"▁또한":1743,"▁역시":1744,"...\"":1745,"▁메":1746,"▁보았다.":1747,"▁투":1748,"습니다.\"":1749,"▁농":1750,"리로":1751,"▁승":1752,"▁겨":1753,"▁와":1754,"▁10":1755,"치는":1756,"▁짓":1757,"▁즉":1758,"▁\"어":1759,"사의":1760,"고는":1761,"▁잠시":1762,"▁나의":1763,"력을":1764,"▁그녀가":1765,"▁이유":1766,"▁된다.":1767,"▁묻":1768,"▁남편":1769,"▁판":1770,"▁─":1771,"▁들어가":1772,"▁갑자기":1773,"▁코":1774,"랐다.":1775,"려는":1776,"▁젊":1777,"▁물론":1778,"대의":1779,"▁밖":1780,"▁꿈":1781,"▁나서":1782,"▁이해":1783,"▁일어":1784,"▁움직":1785,"지요.":1786,"상을":1787,"▁악":1788,"▁먼저":1789,"▁읽":1790,"▁우리가":1791,"▁없어":1792,"▁존재":1793,"▁흐":1794,"▁라":1795,"▁일어나":1796,"▁자신이":1797,"▁것으로":1798,"▁미국":1799,"물을":1800,"▁사람들은":1801,"▁보면":1802,"▁폭":1803,"▁결혼":1804,"장은":1805,"▁달려":1806,"▁하늘":1807,"스로":1808,"▁아래":1809,"▁분명":1810,"▁풍":1811,"▁가까":1812,"▁방법":1813,"▁해서":1814,"소.":1815,"으며,":1816,"▁머리":1817,"▁골":1818,"하다.":1819,"▁기분":1820,"▁관계":1821,"▁육":1822,"▁때문이다.":1823,"▁작은":1824,"는다.":1825,"▁하면":1826,"▁생활":1827,"▁해도":1828,"▁나무":1829,"▁위해서":1830,"▁레":1831,"위를":1832,"▁만들":1833,"▁얼마나":1834,"▁밝":1835,"▁아침":1836,"들도":1837,"▁아름":1838,"네.":1839,"▁북":1840,"가?":1841,"▁6":1842,"▁거의":1843,"▁그만":1844,"리지":1845,"자,":1846,"느냐":1847,"▁활":1848,"렀다.":1849,"명을":1850,"▁그대로":1851,"었던":1852,"동안":1853,"▁멀":1854,"▁슬":1855,"▁소리가":1856,"▁사람의":1857,"▁아버지":1858,"▁접":1859,"심을":1860,"▁이야기":1861,"▁생각을":1862,"▁틀":1863,"▁사람을":1864,"▁한국":1865,"▁긴":1866,"--------":1867,"▁궁":1868,"시는":1869,"드는":1870,"▁위에":1871,"도를":1872,"▁꼭":1873,"▁소리를":1874,"▁빠져":1875,"스의":1876,"르고":1877,"만이":1878,"▁보였다.":1879,"▁느끼":1880,"잖아":1881,"웠다.":1882,"▁향해":1883,"▁대해서":1884,"▁중요":1885,"리의":1886,"되었다.":1887,"▁한번":1888,"▁전혀":1889,"▁앞에":1890,"▁나와":1891,"▁어린":1892,"▁모른":1893,"스가":1894,"▁혹":1895,"▁사라":1896,"▁사건":1897,"님이":1898,"▁상태":1899,"▁이번":1900,"수를":1901,"▁짐":1902,"물이":1903,"▁없을":1904,"▁망":1905,"▁봉":1906,"▁전화":1907,"라면":1908,"▁즐":1909,"니,":1910,"▁기억":1911,"▁만들어":1912,"▁왔다.":1913,"대를":1914,"▁행동":1915,"▁잃":1916,"이에":1917,"▁보내":1918,"▁욕":1919,"▁걸어":1920,"▁있었던":1921,"▁이러한":1922,"스를":1923,"▁끼":1924,"▁못한":1925,"시에":1926,"소를":1927,"어진":1928,"▁앞으로":1929,"▁의미":1930,"▁삶":1931,"▁것처럼":1932,"▁있다":1933,"”“":1934,"주는":1935,"▁젊은":1936,"▁있다고":1937,"습니다":1938,"▁딸":1939,"▁발견":1940,"▁들고":1941,"▁키":1942,"▁봐":1943,"▁이루":1944,"▁혼자":1945,"니다.\"":1946,"▁떠나":1947,"▁가서":1948,"▁그들의":1949,"운데":1950,"▁범":1951,"죠.":1952,"▁죄":1953,"▁중국":1954,"스럽게":1955,"▁윤":1956,"▁하여":1957,"냈다.":1958,"듯이":1959,"▁있지":1960,"▁그것이":1961,"▁나오":1962,"▁쓸":1963,"야.\"":1964,"▁있습니다.":1965,"▁그녀를":1966,"▁뛰어":1967,"▁상황":1968,"▁있었다":1969,"되었":1970,"▁잊":1971,"대한":1972,"에서도":1973,"인을":1974,"▁갔":1975,"▁[":1976,"▁걱":1977,"▁넣":1978,"▁──":1979,"치고":1980,"▁못하고":1981,"▁표정":1982,"▁자네":1983,"치를":1984,"어야":1985,"▁때는":1986,"▁극":1987,"▁들었다.":1988,"수가":1989,"에게는":1990,"▁것입니다.":1991,"▁듯한":1992,"하였":1993,"▁서울":1994,"으면서":1995,"▁맡":1996,"가.":1997,"▁논":1998,"▁사용":1999,"지막":2000,"▁얘기":2001,"▁해야":2002,"▁듯이":2003,"▁어려":2004,"▁그곳":2005,"이라도":2006,"▁뜨":2007,"▁하루":2008,"아가":2009,"하자":2010,"▁거야.":2011,"으니까":2012,"섰다.":2013,"▁급":2014,"▁\"그래":2015,"▁첫":2016,"▁사실을":2017,"▁밑":2018,"▁입을":2019,"▁가능":2020,"▁흥":2021,"▁새로운":2022,"▁거기":2023,"▁아마":2024,"▁생각해":2025,"▁끊":2026,"▁괴":2027,"▁집에":2028,"▁가는":2029,"▁을":2030,"▁쉬":2031,"▁수는":2032,"되고":2033,"▁적이":2034,"우는":2035,"▁자리":2036,"▁7":2037,"▁이야기를":2038,"하던":2039,"로부터":2040,"▁그냥":2041,"▁자연":2042,"▁있겠":2043,"▁싫":2044,"▁빼":2045,"▁결국":2046,"▁까":2047,"▁암":2048,"▁저녁":2049,"어버":2050,"▁마음을":2051,"대는":2052,"하겠":2053,"다니":2054,"나라":2055,"▁머리를":2056,"▁스스로":2057,"▁숙":2058,"▁아니었다.":2059,"하고,":2060,"▁칼":2061,"십시":2062,"수는":2063,"▁눈에":2064,"▁아내":2065,"▁있어서":2066,"로서":2067,"움을":2068,"▁빈":2069,"군요.":2070,"▁끄":2071,"▁잘못":2072,"▁그럴":2073,"▁쳐다보":2074,"▁타고":2075,"가를":2076,"▁놀라":2077,"▁페":2078,"씨가":2079,"▁모습을":2080,"▁꽃":2081,"▁오래":2082,"선을":2083,"▁송":2084,"▁능":2085,"▁찬":2086,"니까?\"":2087,"대가":2088,"▁경찰":2089,"▁석":2090,"▁아름다":2091,"▁일은":2092,"로는":2093,"▁들려":2094,"데,":2095,"아버":2096,"▁가운데":2097,"▁휘":2098,"들었다.":2099,"▁멈":2100,"he":2101,"리아":2102,"어져":2103,"▁있고":2104,"▁주는":2105,"▁대신":2106,"장의":2107,"중에":2108,"더라도":2109,"▁그림":2110,"▁8":2111,"▁그들이":2112,"식이":2113,"▁마침":2114,"▁준비":2115,"▁면":2116,"▁마지막":2117,"▁보여":2118,"▁꾸":2119,"▁자신을":2120,"▁가져":2121,"이다":2122,"in":2123,"▁던":2124,"▁쉽":2125,"▁그에게":2126,"▁낮":2127,"▁드러":2128,"까.":2129,"▁\"\"":2130,"▁보았":2131,"▁히":2132,"했을":2133,"▁똑":2134,"▁거예":2135,"▁돌아가":2136,"▁패":2137,"력이":2138,"▁노래":2139,"▁그럼":2140,"명이":2141,"▁일으":2142,"경을":2143,"어지":2144,"▁�":2145,"▁느낌":2146,"▁지난":2147,"0년":2148,"▁빌":2149,"▁놓고":2150,"▁견":2151,"▁쪽으로":2152,"상이":2153,"▁듣고":2154,"▁싶은":2155,"▁엄마":2156,"시아":2157,"▁보니":2158,"▁보이는":2159,"지,":2160,"▁나도":2161,"대에":2162,"부를":2163,"이의":2164,"▁마음이":2165,"▁전쟁":2166,"▁대학":2167,"▁옮":2168,"▁젖":2169,"▁축":2170,"▁아니다.":2171,"▁결과":2172,"▁벽":2173,"▁이곳":2174,"▁학교":2175,"어도":2176,"▁억":2177,"▁뒷":2178,"▁주었다.":2179,"스트":2180,"▁어깨":2181,"▁응":2182,"▁내게":2183,"▁잡아":2184,"명의":2185,"씨는":2186,"▁탄":2187,"▁때,":2188,"▁당신이":2189,"▁불러":2190,"원이":2191,"▁시간이":2192,"▁여자가":2193,"세요.":2194,"신이":2195,"▁그날":2196,"거리":2197,"▁매우":2198,"▁퍼":2199,"▁우리의":2200,"합니다.":2201,"▁말에":2202,"기의":2203,"▁없다는":2204,"▁흘러":2205,"▁조용":2206,"▁\"저":2207,"▁크게":2208,"▁같아":2209,"▁어찌":2210,"원을":2211,"▁꼬":2212,"거렸다.":2213,"▁어쩌":2214,"히려":2215,"▁당신은":2216,"▁생각했다.":2217,"▁자유":2218,"그러":2219,"▁남아":2220,"▁대로":2221,"▁디":2222,"▁옛":2223,"지?":2224,"스러운":2225,"▁하였다.":2226,"▁정도로":2227,"▁마을":2228,"▁고통":2229,"며,":2230,"▁통해":2231,"조차":2232,"▁되면":2233,"나무":2234,"보다는":2235,"▁홍":2236,"▁제가":2237,"▁가득":2238,"▁가르":2239,"▁위한":2240,"▁마시":2241,"▁속으로":2242,"▁사람들":2243,"▁설명":2244,"겠어":2245,"심이":2246,"전에":2247,"▁연구":2248,"▁오히려":2249,"정한":2250,"께서":2251,"부분":2252,"문이":2253,"▁행복":2254,"▁루":2255,"▁앞에서":2256,"▁이를":2257,"▁굴":2258,"▁얼굴이":2259,"▁브":2260,"▁여성":2261,"▁마찬":2262,"체를":2263,"이트":2264,"▁눈이":2265,"▁9":2266,"▁담배":2267,"▁문을":2268,"만을":2269,"▁사이에":2270,"▁수밖에":2271,"녀석":2272,"▁내용":2273,"▁클":2274,"▁그건":2275,"▁돈을":2276,"▁자세":2277,"▁누가":2278,"▁걱정":2279,"습니까?":2280,"▁보는":2281,"음이":2282,"▁격":2283,"다,":2284,"▁학생":2285,"▁푸":2286,"▁정치":2287,"의를":2288,"▁집안":2289,"님은":2290,"▁알았":2291,"가락":2292,"위에":2293,"▁만큼":2294,"▁나온":2295,"▁빨리":2296,"감을":2297,"▁완전히":2298,"▁그랬":2299,"▁밖으로":2300,"▁사는":2301,"▁두려":2302,"▁효":2303,"▁않는다.":2304,"▁섬":2305,"▁갖고":2306,"시켜":2307,"▁엉":2308,"▁느껴":2309,"▁특히":2310,"an":2311,"임을":2312,"장에":2313,"가가":2314,"겼다.":2315,"▁\"네":2316,"수의":2317,"▁두고":2318,"▁보이":2319,"켰다.":2320,"▁마찬가지":2321,"▁좌":2322,"▁길을":2323,"든지":2324,"▁약간":2325,"00":2326,"▁다.":2327,"▁뒤에":2328,"지에":2329,"도가":2330,"▁벌써":2331,"▁아무리":2332,"▁이후":2333,"▁이르":2334,"▁다니":2335,"일이":2336,"가고":2337,"▁중요한":2338,"거든":2339,"우고":2340,"▁부모":2341,"▁조선":2342,"주를":2343,"으로써":2344,"▁그게":2345,"▁아니면":2346,"▁공격":2347,"▁트":2348,"▁가족":2349,"▁언제나":2350,"▁당시":2351,"하시":2352,"▁않으면":2353,"▁때까지":2354,"부가":2355,"▁말은":2356,"체가":2357,"▁늦":2358,"er":2359,"▁뭔":2360,"▁둘러":2361,"없는":2362,"도로":2363,"▁따라서":2364,"▁전화를":2365,"한다는":2366,"▁끌어":2367,"겠다고":2368,"▁걷":2369,"적이":2370,"▁바닥":2371,"▁모르는":2372,"▁사내":2373,"▁보이지":2374,"으므로":2375,"▁저는":2376,"술을":2377,"▁있게":2378,"▁굳":2379,"다란":2380,"on":2381,"▁못했다.":2382,"▁덕":2383,"으로는":2384,"린다.":2385,"제가":2386,"▁것이다":2387,"▁아직도":2388,"니까.":2389,"▁인생":2390,"▁부분":2391,"학교":2392,"▁\"나":2393,"▁표현":2394,"▁보아":2395,"계를":2396,"만큼":2397,"▁누군":2398,"화가":2399,"▁월":2400,"님의":2401,"이야":2402,"▁가진":2403,"▁느꼈":2404,"▁도착":2405,"오.\"":2406,"▁거야":2407,"▁알려":2408,"실로":2409,"▁]":2410,"만은":2411,"▁확인":2412,"▁뿌":2413,"▁이용":2414,"▁아는":2415,"▁직접":2416,"동을":2417,"▁쪽":2418,"기만":2419,"▁니":2420,"다.\"":2421,"▁등을":2422,"▁위로":2423,"하지만":2424,"아,":2425,"방을":2426,"지의":2427,"▁부르":2428,"▁아닐":2429,"거운":2430,"연히":2431,"▁하게":2432,"▁쫓":2433,"▁사진":2434,"▁의해":2435,"인가?":2436,"▁들었":2437,"▁염":2438,"▁나누":2439,"......\"":2440,"▁여전히":2441,"▁정보":2442,"▁지켜":2443,"▁\"우":2444,"▁갔다.":2445,"▁약속":2446,"▁힘을":2447,"▁그러자":2448,"천히":2449,"▁모르겠":2450,"▁들여":2451,"▁여자는":2452,"나?":2453,"▁주고":2454,"함을":2455,"상의":2456,"▁말고":2457,"▁꺼내":2458,"▁깊은":2459,"▁뒤로":2460,"▁그래도":2461,"신을":2462,"▁손에":2463,"▁떠올":2464,"▁아무도":2465,"들고":2466,"전을":2467,"▁와서":2468,"기고":2469,"간에":2470,"▁졸":2471,"다면,":2472,"▁말해":2473,"하다는":2474,"▁계획":2475,"녀는":2476,"길을":2477,"부의":2478,"보고":2479,"▁\"그럼":2480,"▁훨":2481,"▁이것은":2482,"▁착":2483,"냄새":2484,"▁말았다.":2485,"▁있으면":2486,"▁쥐":2487,"▁그저":2488,"▁것이라고":2489,"부는":2490,"이면":2491,"▁경험":2492,"말로":2493,"▁밥":2494,"▁틀림":2495,"자.":2496,"▁괜":2497,"▁옷을":2498,"▁써":2499,"▁한다는":2500,"▁만약":2501,"으로부터":2502,"▁혜":2503,"▁결코":2504,"▁기회":2505,"당한":2506,"보다도":2507,"하다":2508,"▁품":2509,",,":2510,"▁맥":2511,"▁후에":2512,"▁털":2513,"▁옥":2514,"▁불안":2515,"▁천천히":2516,"▁항상":2517,"▁끄덕":2518,"▁\"여":2519,"▁\"그렇":2520,".\"그":2521,"▁물어":2522,"▁돼":2523,"군의":2524,"▁집어":2525,"감이":2526,"▁훨씬":2527,"▁상대":2528,"▁음악":2529,"▁규":2530,"였다":2531,"▁대부분":2532,"았다":2533,"실을":2534,"▁지도":2535,"시를":2536,"▁맛":2537,"▁바라보았다.":2538,"과는":2539,"거리는":2540,"▁익":2541,"▁며":2542,"움이":2543,"▁하면서":2544,"했습니다.":2545,"▁충분":2546,"끄러":2547,"구를":2548,"▁답":2549,"▁옆에":2550,"▁나왔다.":2551,"마디":2552,"▁돌려":2553,"정은":2554,"관이":2555,"▁곁":2556,"▁바다":2557,"▁오는":2558,"▁되고":2559,"▁죽은":2560,"▁쓴":2561,"▁번째":2562,"▁색":2563,"▁또는":2564,"도,":2565,"▁이어":2566,"도의":2567,"▁\"오":2568,"니?":2569,"겠다는":2570,"숨을":2571,"국의":2572,"▁됐":2573,"이었다":2574,"▁그러한":2575,"지지":2576,"으리":2577,"▁만한":2578,"▁아무런":2579,"▁되지":2580,"▁먹고":2581,"서를":2582,"자로":2583,"▁일이었다.":2584,"위는":2585,"가에":2586,"▁붉":2587,"놓고":2588,"▁때마다":2589,"▁올려":2590,"들에":2591,"▁우선":2592,"▁하나의":2593,"가의":2594,"▁여자의":2595,"▁자기가":2596,"▁자리에":2597,"▁싶어":2598,"▁만든":2599,"▁어둠":2600,"원의":2601,"내고":2602,"▁나타나":2603,"▁t":2604,"단을":2605,"▁살고":2606,"▁휴":2607,"냐?":2608,"▁가리":2609,"르게":2610,"▁여행":2611,"▁묘":2612,"▁말하는":2613,"▁너무나":2614,"▁프로":2615,"되지":2616,"▁끝나":2617,"▁실제":2618,"향을":2619,"▁냉":2620,"▁사무":2621,"▁떼":2622,"▁훌":2623,"▁받고":2624,"사에":2625,"▁점점":2626,"▁넘어":2627,"▁숲":2628,"▁위험":2629,"리스":2630,"▁\"그러":2631,"▁물건":2632,"▁\"무":2633,"하니":2634,"된다.":2635,"▁협":2636,"▁마침내":2637,"▁든":2638,"▁확실":2639,"▁자리를":2640,"▁대답했다.":2641,"▁사람들의":2642,"레이":2643,"▁알게":2644,"▁쏟":2645,"▁아름다운":2646,"보는":2647,"▁조심":2648,"▁폐":2649,"질을":2650,"말을":2651,"▁손가락":2652,"으로서":2653,"▁\"당":2654,"▁달리":2655,"▁십":2656,"같이":2657,"▁건너":2658,"▁시간을":2659,"치가":2660,"▁몸이":2661,"▁녹":2662,"▁커다란":2663,"▁말할":2664,"었을":2665,"▁낙":2666,"▁플":2667,"거리며":2668,"▁데리고":2669,"▁다만":2670,"▁안에":2671,"▁있기":2672,"▁20":2673,"군이":2674,"▁모른다.":2675,"▁덮":2676,"▁것일":2677,"▁오른":2678,"▁네가":2679,"비를":2680,"▁모습이":2681,"▁홀":2682,"▁곤":2683,"▁마련":2684,"자에":2685,"▁사고":2686,"▁못하는":2687,"▁탈":2688,"경이":2689,"▁인간의":2690,"▁여기서":2691,"▁명령":2692,"▁못할":2693,"▁결정":2694,"야,":2695,"시간":2696,"도는":2697,"▁넓":2698,"▁이름을":2699,"수록":2700,"▁표정으로":2701,"▁뉴":2702,"▁있고,":2703,"▁집으로":2704,"상에":2705,"▁혀":2706,"re":2707,"▁엘":2708,"▁성공":2709,"==":2710,"▁과학":2711,"▁마주":2712,"ou":2713,"녀가":2714,"▁검은":2715,"▁\"지":2716,"▁목소리로":2717,"면,":2718,"▁시절":2719,"▁곳에":2720,"▁것과":2721,"▁들어갔다.":2722,"군.":2723,"이로":2724,"▁부탁":2725,"▁죽음":2726,"▁찌":2727,"주고":2728,"▁당신의":2729,"▁나에게":2730,"▁늙":2731,"▁그렇지":2732,"▁현재":2733,"▁못했":2734,"▁미소를":2735,"▁하기":2736,"장에서":2737,"▁때문이었다.":2738,"▁동시에":2739,"▁만일":2740,"▁그러면":2741,"키는":2742,"▁깜":2743,"▁내리":2744,"락을":2745,"명한":2746,"▁생각하고":2747,"▁기대":2748,"▁뒤를":2749,"하다고":2750,"오고":2751,"▁제대로":2752,"▁멋":2753,"▁아닙":2754,"▁서서":2755,"▁탐":2756,"▁쉽게":2757,"자들이":2758,"▁가로":2759,"스런":2760,"▁셈":2761,"▁쌓":2762,"▁지역":2763,"▁겨우":2764,"님,":2765,"▁흔들":2766,"▁합니다.":2767,"대체":2768,"▁않게":2769,"년이":2770,"▁했던":2771,"셨다.":2772,"▁아들":2773,"at":2774,"▁멀리":2775,"▁주인":2776,"이야.":2777,"나가":2778,"▁달라":2779,"▁멈추":2780,"▁그들":2781,"▁하겠":2782,"▁교육":2783,"▁물러":2784,"▁집을":2785,"해진":2786,"▁쓰러":2787,"▁낳":2788,"▁아파":2789,"▁손으로":2790,"▁한마디":2791,"원은":2792,"신은":2793,"▁묵":2794,"죠?":2795,"▁그걸":2796,"소리":2797,"미를":2798,"드시":2799,"▁특별":2800,"▁나오는":2801,"지로":2802,"호는":2803,"▁가만":2804,"격을":2805,"▁몹":2806,"▁러":2807,"위가":2808,"성의":2809,"▁얘기를":2810,"래도":2811,"▁12":2812,"롭게":2813,"▁칠":2814,"▁겁니다.":2815,"▁할머니":2816,"▁비밀":2817,"▁의식":2818,"심히":2819,"▁과거":2820,"▁말도":2821,"바닥":2822,"일을":2823,"▁한편":2824,"▁조직":2825,"▁것에":2826,"▁자주":2827,"면서도":2828,"▁\"예":2829,"았던":2830,"위의":2831,"요!":2832,"보았다.":2833,"▁그동안":2834,"▁방안":2835,"▁부드":2836,"▁\"나는":2837,"▁작품":2838,"▁대단":2839,"▁지구":2840,"▁냄새":2841,"▁여러분":2842,"▁문화":2843,"▁무서":2844,"▁녀석":2845,"▁자기의":2846,"▁정확":2847,"▁도시":2848,"비가":2849,"▁\"사":2850,"제를":2851,"▁오빠":2852,"▁것만":2853,"▁그와":2854,"▁같다.":2855,"님을":2856,"▁그들을":2857,"성은":2858,"▁거짓":2859,"▁남자가":2860,"▁캐":2861,"십시오.":2862,"▁소설":2863,"구나.":2864,"다시":2865,"하려":2866,"▁이는":2867,"▁맹":2868,"▁별로":2869,"미가":2870,"통령":2871,"▁현실":2872,"▁관한":2873,"▁눈으로":2874,"라.\"":2875,"▁18":2876,"▁개의":2877,"▁표정을":2878,"▁하며":2879,"▁술을":2880,"▁없다고":2881,"▁누워":2882,"▁주장":2883,"인다.":2884,"▁어머니는":2885,"었습니다.":2886,"▁엄청":2887,"▁받은":2888,"▁요구":2889,"▁날아":2890,"▁높은":2891,"▁있었고,":2892,"▁자식":2893,"생을":2894,"▁컴":2895,"지.\"":2896,"▁해주":2897,"▁기울":2898,"▁도망":2899,"▁지금은":2900,"▁웃었다.":2901,"▁찍":2902,"▁분위":2903,"▁영화":2904,"▁군사":2905,"호를":2906,"▁씨":2907,"산을":2908,"▁몹시":2909,"▁기다리고":2910,"▁때가":2911,"만한":2912,"▁\"너":2913,"▁인정":2914,"▁A":2915,"▁문제가":2916,"▁\"내가":2917,"▁업":2918,"하도록":2919,"▁중얼":2920,"▁30":2921,"▁해결":2922,"주가":2923,"▁떨어져":2924,"어요.\"":2925,"▁자리에서":2926,"▁택":2927,"하려고":2928,"▁있다면":2929,"▁가까이":2930,"▁쏘":2931,"정의":2932,"▁버렸다.":2933,"▁중에":2934,"▁불을":2935,"군은":2936,"입니다.\"":2937,"▁하나가":2938,"▁있어.":2939,"▁그녀에게":2940,"▁무엇을":2941,"▁호텔":2942,"▁\"그런":2943,"▁기록":2944,"▁부인":2945,"▁솔":2946,"년에":2947,"▁지금까지":2948,"했다는":2949,"▁옛날":2950,"▁일에":2951,"▁괜찮":2952,"어놓":2953,"▁불가":2954,"▁영혼":2955,"▁목소리가":2956,"이라면":2957,"▁흰":2958,"▁\"자":2959,"신의":2960,"트를":2961,"▁며칠":2962,"▁쏟아":2963,"en":2964,".....":2965,"▁\"왜":2966,"▁일단":2967,"문에":2968,"▁이상한":2969,"▁나이":2970,"▁쓰고":2971,"라구":2972,"▁살펴":2973,"▁한참":2974,"▁그렇다면":2975,"말이":2976,"▁마음에":2977,"▁없고":2978,"▁힘이":2979,"▁뿐이었다.":2980,"▁햇":2981,"▁\"정":2982,"있는":2983,"바로":2984,"▁반드시":2985,"한다":2986,"▁기분이":2987,"희는":2988,"업을":2989,"),":2990,"▁차례":2991,"▁있어야":2992,"▁이제는":2993,"▁깔":2994,"미는":2995,"▁선택":2996,"▁얼굴로":2997,"간의":2998,"▁제일":2999,"▁상처":3000,"▁딱":3001,"▁사람들을":3002,"연한":3003,"원에":3004,"▁압":3005,"▁T":3006,"▁아가":3007,"▁불과":3008,"▁경제":3009,"▁잡고":3010,"자들은":3011,"▁커피":3012,"▁하고,":3013,"▁새벽":3014,"이기":3015,"▁운동":3016,"▁일부":3017,"▁모르고":3018,"is":3019,"▁인물":3020,"▁했지만":3021,"▁「":3022,"▁맨":3023,"▁낭":3024,"▁입고":3025,"▁무릎":3026,"▁대통령":3027,"▁거예요.":3028,"과의":3029,"▁빗":3030,"▁내일":3031,"▁짧":3032,"▁자동":3033,"차를":3034,"으나,":3035,"▁노력":3036,"▁뚫":3037,"▁있어요.":3038,"▁춤":3039,"▁워":3040,"▁않겠":3041,"▁이리":3042,"----------------":3043,"▁프랑":3044,"이,":3045,"▁국민":3046,"같은":3047,"▁숨을":3048,"▁열었다.":3049,"▁한다":3050,"지기":3051,"▁생긴":3052,"정에":3053,"▁싶었다.":3054,"▁소리로":3055,"시고":3056,"▁느꼈다.":3057,"▁얼굴에":3058,"와는":3059,"▁소년":3060,"▁안으로":3061,"라가":3062,"실에":3063,"▁달아":3064,"▁분명히":3065,"퓨터":3066,"방에":3067,"▁낯":3068,"▁말이다.":3069,"입니다":3070,"▁둔":3071,"▁아버지는":3072,"▁혹은":3073,"▁어쩌면":3074,"관을":3075,"▁몽":3076,"상은":3077,"▁혹시":3078,"디어":3079,"▁나갔다.":3080,"▁척":3081,"▁여자를":3082,"▁”":3083,"비는":3084,"세를":3085,"종의":3086,"▁보통":3087,"▁말하고":3088,"▁거리":3089,"▁조용히":3090,"▁닫":3091,"소.\"":3092,"▁보기":3093,"▁말한다.":3094,"▁나왔":3095,"전의":3096,"▁틈":3097,"▁헌":3098,"니는":3099,"▁단순":3100,"▁흉":3101,"으려고":3102,"▁없습니다.":3103,"▁”“":3104,"▁일반":3105,"▁비슷":3106,"였던":3107,"▁했다":3108,"or":3109,"▁썼":3110,"▁못해":3111,"▁바람에":3112,"마는":3113,"▁가게":3114,"▁전투":3115,"▁들어서":3116,"▁내밀":3117,"아서":3118,"▁생각하는":3119,"▁책을":3120,"▁가슴이":3121,"텐데":3122,"▁팔을":3123,"▁어쩔":3124,"▁차를":3125,"▁새끼":3126,"▁어렵":3127,"▁이끌":3128,"▁:":3129,"▁유리":3130,"적을":3131,"▁반대":3132,"▁무렵":3133,"▁깨달":3134,"▁케":3135,"마저":3136,"▁훈":3137,"요\"":3138,"▁무엇이":3139,"▁비록":3140,"▁종교":3141,"▁아버지가":3142,"▁주변":3143,"▁짜":3144,"사와":3145,"시키는":3146,"▁비행":3147,"름이":3148,"선이":3149,"체의":3150,"▁나머":3151,"▁건강":3152,"치지":3153,"▁어려운":3154,"지게":3155,"자고":3156,"으려":3157,"▁게다가":3158,"▁만족":3159,"▁사나":3160,"▁훌륭":3161,"▁옳":3162,"▁S":3163,"▁신경":3164,"▁말했":3165,"▁겨울":3166,"▁상상":3167,"▁봄":3168,"가,":3169,"▁어른":3170,"자와":3171,"소?":3172,"▁청년":3173,"▁그렇지만":3174,"▁덜":3175,"▁공포":3176,"이니":3177,"▁있는데":3178,"▁그것도":3179,"▁가슴을":3180,"▁뽑":3181,"▁몰라":3182,"장으로":3183,"▁할아버":3184,"▁불구":3185,"▁컴퓨터":3186,"▁어리":3187,"▁있다가":3188,"▁기술":3189,"▁버렸":3190,"▁다섯":3191,"▁말아":3192,"▁어두":3193,"▁아까":3194,"▁띄":3195,"▁재미":3196,"▁잠깐":3197,"사로":3198,"화는":3199,"▁지키":3200,"인들이":3201,"▁퇴":3202,"▁사랑을":3203,"▁돌아오":3204,"▁가만히":3205,"▁절대":3206,"▁멍":3207,"▁어머니가":3208,"▁어쨌":3209,"▁한쪽":3210,"▁집에서":3211,"▁곳에서":3212,"혔다.":3213,"▁측":3214,"리게":3215,"▁탓":3216,"▁걸려":3217,"▁동생":3218,"리기":3219,"▁들어오":3220,"▁오후":3221,"ar":3222,"▁단지":3223,"▁전해":3224,"와서":3225,"▁사람도":3226,"▁민족":3227,"▁왼":3228,"▁공부":3229,"▁다행":3230,"▁솟":3231,"▁없다":3232,"▁오랜":3233,"▁피해":3234,"▁15":3235,"▁일이다.":3236,"까요?":3237,"주었다.":3238,"▁좋을":3239,"복을":3240,"제는":3241,"고를":3242,"에게서":3243,"▁아니었":3244,"▁길이":3245,"▁구석":3246,"어가":3247,"러운":3248,"▁샤":3249,"진다.":3250,"▁지배":3251,"▁닦":3252,"시가":3253,"▁끝에":3254,"▁최고":3255,"▁11":3256,"▁아니고":3257,"▁침묵":3258,"▁지하":3259,"▁필요한":3260,"금을":3261,"▁마리":3262,"목을":3263,"▁이것이":3264,"▁일찍":3265,"식은":3266,"인데,":3267,"방의":3268,"▁흥분":3269,"▁펼":3270,"▁그렇다고":3271,"▁치료":3272,"al":3273,"▁고려":3274,"▁모두가":3275,"▁탁":3276,"▁바꾸":3277,"▁노동":3278,"▁혁":3279,"까지도":3280,"▁말한":3281,"▁땀":3282,"▁문득":3283,"이터":3284,"▁무척":3285,"▁쇠":3286,"▁당신을":3287,"▁필요가":3288,"빨리":3289,"▁건물":3290,"▁역사":3291,"▁뻗":3292,"했고,":3293,"▁중심":3294,"▁가끔":3295,"진이":3296,"▁간단":3297,"▁물을":3298,"야?":3299,"면을":3300,"▁맺":3301,"▁뻔":3302,"a�":3303,"▁신문":3304,"▁한다고":3305,"▁모여":3306,"▁도와":3307,"인가.":3308,"▁판단":3309,"점을":3310,"방으로":3311,"영은":3312,"▁보지":3313,"▁으":3314,"▁열심히":3315,"소가":3316,"▁안에서":3317,"▁어울":3318,"▁받았다.":3319,"▁일도":3320,"군을":3321,"▁거기에":3322,"▁빙":3323,"▁아이를":3324,"▁위하여":3325,"간다.":3326,"▁뭘":3327,"▁눈앞":3328,"▁독일":3329,"어를":3330,"▁형태":3331,"▁‘":3332,"▁영국":3333,"▁세상에":3334,"▁는":3335,"▁담배를":3336,"(1":3337,"▁하시":3338,"겠습니다.":3339,"야만":3340,"습니까?\"":3341,"▁있었고":3342,"▁자꾸":3343,"▁\"뭐":3344,"하기도":3345,"권을":3346,"▁동물":3347,"▁얻어":3348,"▁놓은":3349,"버린":3350,"▁\"내":3351,"기와":3352,"▁차가":3353,"▁얼른":3354,"▁곡":3355,"▁영원":3356,"▁뭔가":3357,"석은":3358,"▁깊이":3359,"▁벼":3360,"▁개인":3361,"▁웃음을":3362,"함이":3363,"▁날이":3364,"▁까닭":3365,"댔다.":3366,"모를":3367,"▁태어":3368,"▁이에":3369,"▁습":3370,"▁여름":3371,"▁눈치":3372,"수한":3373,"까지는":3374,"들,":3375,"▁당황":3376,"▁비로":3377,"▁왜냐":3378,"▁가고":3379,"▁널":3380,"당히":3381,"▁받았":3382,"▁반응":3383,"구가":3384,"▁매일":3385,"▁몰아":3386,"에서의":3387,"▁데려":3388,"▁튀":3389,"씨의":3390,"요일":3391,"▁짐작":3392,"▁그러므로":3393,"▁도대체":3394,"▁고향":3395,"▁생각에":3396,"도에":3397,"저히":3398,"▁분노":3399,"서야":3400,"소리가":3401,"▁없어.":3402,"▁쳐다보았다.":3403,"▁원래":3404,"▁조그":3405,"토록":3406,"it":3407,"▁입은":3408,"▁곳이":3409,"라의":3410,"▁가까운":3411,"▁책임":3412,"▁어깨를":3413,"씨를":3414,"망을":3415,"▁그러니까":3416,"자마":3417,"▁시선을":3418,"▁\"알":3419,"▁하였":3420,"▁K":3421,"▁등이":3422,"▁유지":3423,"예요.":3424,"▁강한":3425,"▁어떠":3426,"스터":3427,"하거나":3428,"▁올라가":3429,"▁새로":3430,"es":3431,"속으로":3432,"▁뇌":3433,"▁C":3434,"시킨":3435,"쪽을":3436,"▁국가":3437,"▁철학":3438,"하의":3439,"발을":3440,"와의":3441,"▁역할":3442,"했고":3443,"▁대해서는":3444,"▁대체":3445,"어졌다.":3446,"▁세월":3447,"▁겪":3448,"▁눈빛":3449,"▁명의":3450,"▁오르":3451,"▁테이":3452,"▁핵":3453,"드리":3454,"쪽에":3455,"▁\"아니":3456,"▁관련":3457,"▁만난":3458,"▁남은":3459,"그는":3460,"놓은":3461,"▁의심":3462,"▁운전":3463,"어.\"":3464,"▁침대":3465,"지어":3466,"▁미안":3467,"▁편지를":3468,"▁비롯":3469,"▁넌":3470,"▁맞아":3471,"▁흑":3472,"▁이건":3473,"▁사람들에게":3474,"해도":3475,"부로":3476,"▁쓰는":3477,"야말로":3478,"▁인사":3479,"▁눈물을":3480,"▁바라보고":3481,"▁생각은":3482,"▁받아들":3483,"호가":3484,"▁문제를":3485,"▁기쁨":3486,"▁묶":3487,"▁너희":3488,"▁입술":3489,"군요.\"":3490,"▁그리고는":3491,"▁매달":3492,"▁the":3493,"▁비교":3494,"▁우리를":3495,"▁부족":3496,"▁모르게":3497,"▁어머니의":3498,"▁너는":3499,"▁발생":3500,"▁없었던":3501,"▁성격":3502,"▁다르":3503,"▁남의":3504,"▁요즘":3505,"▁왜냐하면":3506,"▁봤":3507,"▁손이":3508,"나,":3509,"니가":3510,"▁정신을":3511,"었고,":3512,"▁났":3513,"▁남자는":3514,"네.\"":3515,"▁」":3516,"▁나중에":3517,"많은":3518,"▁있는지":3519,"▁말로":3520,"▁과연":3521,"세.":3522,"성에":3523,"▁떠오":3524,"▁어서":3525,"세요.\"":3526,"▁늙은":3527,"▁옮겨":3528,"▁소개":3529,"▁엄청난":3530,"라,":3531,"트는":3532,"▁│":3533,"한다고":3534,"하려는":3535,"▁조사":3536,"▁`":3537,"▁닿":3538,"▁인도":3539,"▁사람에게":3540,"▁닥":3541,"위로":3542,"▁\"무슨":3543,"▁있었기":3544,"경은":3545,"집을":3546,"▁I":3547,"제의":3548,"명은":3549,"▁남자의":3550,"▁따르":3551,"▁\"미":3552,"▁태양":3553,"안을":3554,"동이":3555,"▁나쁜":3556,"▁안돼":3557,"▁아마도":3558,"책을":3559,"▁그러니":3560,"▁벗어나":3561,"▁중에서":3562,"▁버리고":3563,"▁싶지":3564,"▁됩":3565,"▁몰려":3566,"▁지어":3567,"류의":3568,"▁하나를":3569,"▁다음과":3570,"마를":3571,"해졌다.":3572,"▁들여다보":3573,"분이":3574,"▁등의":3575,"▁아프":3576,"▁근처":3577,"▁그려":3578,"▁이론":3579,"▁된다는":3580,"상으로":3581,"이고,":3582,"▁어지":3583,"▁비로소":3584,"돌아":3585,"▁깨끗":3586,"▁뿐이다.":3587,"▁바닥에":3588,"▁기운":3589,"▁변화":3590,"구려":3591,"▁먹을":3592,"치게":3593,"▁사랑하는":3594,"해.":3595,"▁미리":3596,"▁받는":3597,"▁포기":3598,"쪽에서":3599,"▁세워":3600,"▁붉은":3601,"▁도로":3602,"소에":3603,"▁다음날":3604,"렸다":3605,"▁놓여":3606,"▁꼴":3607,"기까지":3608,"▁잠을":3609,"▁열어":3610,"▁우주":3611,"▁쾌":3612,"라이":3613,"▁속의":3614,"히는":3615,"해져":3616,"▁밀어":3617,"▁화가":3618,"했지만":3619,"▁당장":3620,"▁무엇인가":3621,"▁생각하":3622,"▁아버지의":3623,"마의":3624,"▁곳으로":3625,"녀의":3626,"▁웬":3627,"▁화장":3628,"▁떨어진":3629,"▁금방":3630,"▁이번에는":3631,"▁오랫":3632,"▁상관":3633,"▁진행":3634,"히고":3635,"장님":3636,"!!":3637,"▁맑":3638,"학생":3639,"▁이젠":3640,"▁있었습니다.":3641,"일한":3642,"▁불행":3643,"▁\"난":3644,"께서는":3645,"면에":3646,"▁때도":3647,"▁덩":3648,"▁뜻을":3649,"▁몸에":3650,"▁의견":3651,"▁아이가":3652,"▁실험":3653,"▁연락":3654,"조를":3655,"▁나머지":3656,"▁참으로":3657,"▁둥":3658,"트의":3659,"리와":3660,"▁세상을":3661,"▁섞":3662,"모가":3663,"▁무시":3664,"인들은":3665,"이었던":3666,"▁웃으며":3667,"▁깜짝":3668,"방에서":3669,"▁티":3670,"▁연결":3671,"살이":3672,"▁놈이":3673,"했다고":3674,"다른":3675,"▁겸":3676,"▁전문":3677,"부에":3678,"▁문제는":3679,"럽게":3680,"▁꽤":3681,"▁\"하":3682,"▁있으니":3683,"▁및":3684,"들로":3685,"▁눌":3686,")의":3687,"적이고":3688,"판을":3689,"▁선생님":3690,"▁빠져나":3691,"어지는":3692,"▁혈":3693,"▁관심을":3694,"▁무언":3695,"거리고":3696,"▁엎":3697,"만의":3698,"서,":3699,"▁되겠":3700,"하고는":3701,"▁주먹":3702,"개의":3703,"▁하더라도":3704,"▁잠자":3705,"▁자랑":3706,"실에서":3707,"▁좋겠":3708,"두고":3709,"이와":3710,"▁거대한":3711,"▁궁금":3712,"▁발전":3713,"▁오랫동안":3714,"▁식으로":3715,"▁\"안":3716,"에다":3717,"▁납":3718,"▁인사를":3719,"▁조각":3720,"▁듯했다.":3721,"하신":3722,"▁찢":3723,"트가":3724,"▁발을":3725,"▁가정":3726,"장과":3727,"▁굽":3728,"라리":3729,"▁장난":3730,"선생":3731,"▁열고":3732,"시킬":3733,"▁빼앗":3734,"▁배우":3735,"▁푸른":3736,"▁한숨을":3737,"▁정도의":3738,"냐?\"":3739,"▁이른":3740,"▁옵":3741,"▁보호":3742,"석을":3743,"as":3744,"번에":3745,"스와":3746,"▁없었다":3747,"▁만드는":3748,"화의":3749,"▁얼굴은":3750,"어?":3751,"나게":3752,"▁언젠":3753,"▁사실이":3754,"에요.":3755,"워서":3756,"▁있도록":3757,"▁어디서":3758,"▁온몸":3759,"이며,":3760,"생활":3761,"스에":3762,"나.":3763,"▁수많은":3764,"▁블":3765,"▁주지":3766,"▁턱":3767,"▁따뜻":3768,"살을":3769,"▁바뀌":3770,"▁방법을":3771,"일은":3772,"▁실패":3773,"에게도":3774,"....\"":3775,"▁가슴에":3776,"름을":3777,"▁불빛":3778,"▁웃음":3779,"▁없게":3780,"▁교회":3781,"▁다음에":3782,"▁아무래도":3783,"▁오직":3784,"▁때의":3785,"▁눈물이":3786,"▁다리를":3787,"▁불구하고":3788,"둘러":3789,"▁만났":3790,"▁시험":3791,"▁벗어":3792,"▁죽을":3793,"방이":3794,"이크":3795,"▁그대":3796,"▁때에":3797,"장한":3798,"▁의사":3799,"▁에너":3800,"▁있지만":3801,"서가":3802,"▁아닌가":3803,"네가":3804,"림을":3805,"차가":3806,"▁웅":3807,"식으로":3808,"석이":3809,"▁아빠":3810,"병을":3811,"▁자기를":3812,"무를":3813,"영이":3814,"통을":3815,"▁이름이":3816,"▁뚜":3817,"▁수행":3818,"▁충분히":3819,"▁자신도":3820,"▁바람이":3821,"▁돈이":3822,"▁짝":3823,"▁살인":3824,"식의":3825,"▁개미":3826,"▁작업":3827,"윽고":3828,"▁\"한":3829,"▁붙어":3830,"원으로":3831,"'의":3832,"▁아니라,":3833,"▁효과":3834,"관은":3835,"시다.":3836,"▁재빨리":3837,"▁사실은":3838,"해지":3839,"▁생각했":3840,"▁헛":3841,"▁주시":3842,"▁느낄":3843,"▁증거":3844,"가로":3845,"▁바라보며":3846,"▁어제":3847,"조의":3848,"▁.":3849,"▁소리쳤다.":3850,"▁펴":3851,"▁생각할":3852,"드의":3853,"▁죽어":3854,"▁실제로":3855,"요!\"":3856,"'는":3857,"▁칭":3858,"▁불가능":3859,"해를":3860,"전한":3861,"비의":3862,"▁\"누":3863,"그래":3864,"었다는":3865,"잔을":3866,"▁말했다":3867,"리카":3868,"▁보낸":3869,"▁위에서":3870,"▁물질":3871,"▁불렀다.":3872,"▁동료":3873,"문은":3874,"'라는":3875,"조는":3876,"하다가":3877,"▁걸음":3878,"▁손님":3879,"세가":3880,"이어":3881,"▁없어요.":3882,"▁끈":3883,"▁뒤에서":3884,"소한":3885,"기지":3886,"었지만":3887,"▁이내":3888,"▁데이":3889,"▁나타난":3890,"▁붙잡":3891,"성과":3892,"▁여기에":3893,"▁관계를":3894,"ing":3895,"▁병사":3896,"▁훌륭한":3897,"▁대표":3898,"▁않다.":3899,"▁진짜":3900,"▁위해서는":3901,"▁엘리":3902,"ed":3903,"어졌":3904,"▁생활을":3905,"색이":3906,"국이":3907,"르며":3908,"▁앉아서":3909,"▁주저":3910,"한다면":3911,"▁거야.\"":3912,"가서":3913,"인과":3914,"▁맞추":3915,"▁내렸다.":3916,"▁s":3917,"입을":3918,"▁일어난":3919,"국을":3920,"▁접근":3921,"▁M":3922,"▁무너":3923,"▁거기서":3924,"▁이와":3925,"해가":3926,"▁하던":3927,"▁미친":3928,"▁하얀":3929,"아.":3930,"자마자":3931,"▁교수":3932,"▁\"제":3933,"▁놀란":3934,"▁부딪":3935,"▁덧":3936,"▁좁":3937,"▁것이라는":3938,"었고":3939,"▁절대로":3940,"'라고":3941,"분을":3942,"자인":3943,"품을":3944,"나?\"":3945,"일에":3946,"▁믿고":3947,"▁그리하여":3948,"▁있는데,":3949,"▁안내":3950,"▁징":3951,"텔레":3952,"▁오늘날":3953,"▁같았":3954,"▁아이는":3955,"▁있었는데":3956,"▁임금":3957,"▁돌렸다.":3958,"▁\"아,":3959,"▁\"좋":3960,"▁가을":3961,"▁깨닫":3962,"계의":3963,"▁\"전":3964,"▁모양이었다.":3965,"직한":3966,"보지":3967,"▁어쨌든":3968,"게.":3969,"성으로":3970,"▁차지":3971,"▁구경":3972,"▁소유":3973,"▁그들에게":3974,"▁물고":3975,"▁보다":3976,"▁눈물":3977,"▁거라고":3978,"만,":3979,"▁가난":3980,"조가":3981,"▁o":3982,"디오":3983,"▁것,":3984,"려면":3985,"▁감추":3986,"▁똑같은":3987,"▁날카":3988,"▁가볍":3989,"▁썩":3990,"▁싸움":3991,"으시":3992,"▁출발":3993,"▁심각":3994,"▁내어":3995,"▁구멍":3996,"▁밝혀":3997,"지와":3998,"▁가르쳐":3999,"▁아들이":4000,"▁싫어":4001,"▁나가는":4002,"▁힘들":4003,"드가":4004,"▁목을":4005,"▁모를":4006,"▁백성":4007,"▁흩":4008,"▁이날":4009,"관의":4010,"▁있었지만":4011,"▁마찬가지로":4012,"▁목표":4013,"▁아저":4014,"나의":4015,"▁않았던":4016,"▁미래":4017,"▁두려워":4018,"▁잇":4019,"세기":4020,"▁사업":4021,"▁즉시":4022,"▁무서운":4023,"▁잠이":4024,"드려":4025,"▁인간이":4026,"▁방향":4027,"▁조금도":4028,"▁아파트":4029,"▁이유가":4030,"마가":4031,"절한":4032,"산이":4033,"영의":4034,"이상":4035,"▁씻":4036,"▁조건":4037,"지요.\"":4038,"▁가야":4039,"▁이윽고":4040,"르르":4041,"해요.":4042,"▁목소리":4043,"▁유럽":4044,"▁대고":4045,"▁외국":4046,"경에":4047,"▁중의":4048,"▁25":4049,"감은":4050,"▁번쩍":4051,"아의":4052,"▁��":4053,"▁마르":4054,"▁이유는":4055,"▁뜨거운":4056,"▁지휘":4057,"진은":4058,"드를":4059,"▁17":4060,"▁이해할":4061,"▁하나도":4062,"▁섹":4063,"▁보자":4064,"▁좋아하는":4065,"▁만에":4066,"▁버린":4067,"▁머물":4068,"나요?":4069,"정으로":4070,"▁처음으로":4071,"▁하니":4072,"▁보며":4073,"▁짓을":4074,"▁일어났다.":4075,"버렸다.":4076,"▁슬픔":4077,"▁안되":4078,"망이":4079,"만에":4080,"▁앉은":4081,"▁몰랐":4082,"지?\"":4083,").":4084,"▁사랑의":4085,"▁행동을":4086,"리학":4087,"▁방문":4088,"▁처리":4089,"▁들이":4090,"▁더구나":4091,"약을":4092,"▁있음을":4093,"냐.":4094,"애를":4095,"▁바깥":4096,"▁주위를":4097,"었는데":4098,"▁동네":4099,"로서는":4100,"죠.\"":4101,"▁찰":4102,"▁이웃":4103,"▁\"우리":4104,"간을":4105,"▁걸음을":4106,"▁지니":4107,"▁파괴":4108,"▁밀려":4109,"▁하늘을":4110,"▁그리스":4111,"▁하나는":4112,"▁먹는":4113,"▁들은":4114,"▁잔뜩":4115,"론을":4116,"▁대답을":4117,"▁포함":4118,"▁기다리":4119,"았을":4120,"▁숫":4121,"▁예술":4122,"▁들어와":4123,"▁버리":4124,"▁느낌이":4125,"▁여인":4126,"▁적어도":4127,"▁않았다":4128,"증을":4129,"▁여유":4130,"색을":4131,"숙이":4132,"▁마당":4133,"▁앉았다.":4134,"▁시작한":4135,"▁꼼":4136,"▁줄을":4137,"▁더듬":4138,"시켰다.":4139,"▁따로":4140,"른다.":4141,"사한":4142,"▁소용":4143,"▁육체":4144,"담을":4145,"▁생명":4146,"▁노래를":4147,"풀이":4148,"▁아래로":4149,"▁위치":4150,"▁슈":4151,"▁#":4152,"진의":4153,"왕의":4154,"▁회사":4155,"전이":4156,"▁주머니":4157,"▁중앙":4158,"하셨":4159,"▁쿠":4160,"구의":4161,"▁났다.":4162,"▁기어":4163,"▁흙":4164,"▁생겨":4165,"▁긴장":4166,"▁\"그건":4167,"▁전체":4168,"▁가라":4169,"▁보였":4170,"느냐고":4171,"▁미소":4172,"▁아니,":4173,"▁전부":4174,"▁말하자":4175,"네는":4176,"본다.":4177,"▁지었다.":4178,"▁배를":4179,"▁끝내":4180,"시키고":4181,"▁이동":4182,"양이":4183,"▁족":4184,"소리를":4185,"▁머리가":4186,"▁그에":4187,"▁밖에":4188,"회의":4189,"▁풀어":4190,"계가":4191,"▁말하":4192,"길이":4193,"__":4194,"▁들어왔다.":4195,"▁\"마":4196,"▁흡":4197,"은,":4198,"▁않아도":4199,"▁곰":4200,"▁뒤집":4201,"▁허리를":4202,"▁예를":4203,"속을":4204,"로를":4205,"▁펼쳐":4206,"▁끄덕였다.":4207,"▁나타났다.":4208,"▁정신이":4209,"▁밟":4210,"중한":4211,"▁할지":4212,"▁헬":4213,"▁돌아온":4214,"▁받을":4215,"라를":4216,"보며":4217,"어,":4218,"▁영향을":4219,"분의":4220,"▁물이":4221,"▁부르는":4222,"▁남편이":4223,"▁뭐라고":4224,"왕은":4225,"▁보면서":4226,"▁대꾸":4227,"▁\"지금":4228,"▁것인지":4229,"▁독립":4230,"음에":4231,"▁겉":4232,"▁다녀":4233,"▁귀를":4234,"▁아름답":4235,"잖아.":4236,"▁삶을":4237,"가?\"":4238,"원에서":4239,"호의":4240,"희가":4241,"▁대하여":4242,"▁음식":4243,"▁오늘은":4244,"▁나라의":4245,"▁정말로":4246,"형을":4247,"▁언덕":4248,"하지는":4249,"속에":4250,"▁입술을":4251,"▁50":4252,"안에":4253,"▁상당히":4254,"▁관리":4255,"▁\"대":4256,"구는":4257,"▁생산":4258,"▁차라리":4259,"▁훈련":4260,"▁들렸다.":4261,"▁있었을":4262,"▁인해":4263,"▁도저히":4264,"만으로":4265,"▁자극":4266,"▁내려가":4267,"▁죽음을":4268,"▁목적":4269,"▁눈은":4270,"▁끌고":4271,"▁켜":4272,"▁어딘":4273,"▁이것을":4274,"우스":4275,"▁발표":4276,"▁짧은":4277,"조로":4278,"▁밤에":4279,"▁P":4280,"자들의":4281,"어지고":4282,"▁말이야.":4283,"▁쌀":4284,"▁알겠":4285,"▁춘":4286,"▁즐거":4287,"▁찔":4288,"▁하자":4289,"▁가볍게":4290,"▁살피":4291,"▁것들이":4292,"는가?":4293,"▁통해서":4294,"▁다양":4295,"'을":4296,"()의":4297,"om":4298,"▁--":4299,"력은":4300,"▁노릇":4301,"법을":4302,"▁띠":4303,"냐고":4304,"▁곳을":4305,"하기로":4306,"▁드디어":4307,"▁이래":4308,"▁부정":4309,"▁폴":4310,"▁비슷한":4311,"▁지내":4312,"머리":4313,"▁거부":4314,"▁16":4315,"침을":4316,"▁모습은":4317,"▁부엌":4318,"▁빛을":4319,"▁\"네,":4320,"▁알지":4321,"▁시대":4322,"▁최근":4323,"▁값":4324,"▁본다.":4325,"▁아닙니다.":4326,"▁피가":4327,"▁책상":4328,"해주":4329,"▁했을":4330,"▁온갖":4331,"우가":4332,"▁테니":4333,"▁없어서":4334,"아는":4335,"죠?\"":4336,"▁테니까":4337,"학을":4338,"▁때문이":4339,"▁깃":4340,"▁f":4341,"▁삶의":4342,"▁활동":4343,"아야":4344,"▁길게":4345,"▁들어갔":4346,"▁\"고":4347,"▁프랑스":4348,"어요":4349,"▁등에":4350,"▁감사":4351,"====":4352,"▁셋":4353,"물론":4354,"▁창조":4355,"▁글을":4356,"▁끓":4357,"▁앙":4358,"▁감정":4359,"▁싱":4360,"▁힐":4361,"▁사로":4362,"▁시간에":4363,"▁우린":4364,"▁아이들이":4365,"▁일어서":4366,"▁정리":4367,"▁바보":4368,"▁아내가":4369,"▁훔":4370,"▁방송":4371,"겁게":4372,"▁사이로":4373,"▁꿈을":4374,"질이":4375,"▁하느":4376,"▁텐데":4377,"자에게":4378,"ic":4379,"불을":4380,"▁텔레":4381,"쟁이":4382,"▁사냥":4383,"소의":4384,"려서":4385,"▁처녀":4386,"▁나갈":4387,"▁오지":4388,"▁\"조":4389,"▁짚":4390,"▁훼":4391,"▁편안":4392,"▁러시아":4393,"▁바이":4394,"었다고":4395,"▁그제":4396,"▁나갔":4397,"▁쫓아":4398,"▁관찰":4399,"▁쏘아":4400,"▁뿐만":4401,"▁받아들이":4402,"안으로":4403,"▁단단":4404,"▁알았다.":4405,"▁지금도":4406,"▁\"모":4407,"▁수사":4408,"▁나올":4409,"▁원하는":4410,"▁이들":4411,"령이":4412,"'이":4413,"경의":4414,"단이":4415,"▁좀더":4416,"받은":4417,"▁몰랐다.":4418,"▁갖추":4419,"▁연주":4420,"▁언니":4421,"▁곱":4422,"▁좋지":4423,"▁그러고":4424,"▁복잡":4425,"성한":4426,"▁때부터":4427,"▁말씀을":4428,"에,":4429,"▁사태":4430,"스크":4431,"et":4432,"▁못하게":4433,"행을":4434,"▁사내가":4435,"▁생겼":4436,"▁류":4437,"▁다이":4438,"치며":4439,"겠지.":4440,"회를":4441,"▁보인다.":4442,"▁나면":4443,"▁완벽":4444,"▁사라져":4445,"▁분이":4446,"▁높이":4447,"▁그곳에":4448,"▁마시고":4449,"▁마음은":4450,"▁강력":4451,"▁우리에게":4452,"▁\"글":4453,"▁달라고":4454,"▁크리스":4455,"세요?":4456,"▁급히":4457,"어질":4458,"▁숨어":4459,"나마":4460,"▁일으키":4461,"▁용서":4462,"▁입에":4463,"함으로써":4464,"하면서도":4465,"▁사로잡":4466,"▁목숨을":4467,"▁하여금":4468,"년의":4469,"▁예상":4470,"▁혼란":4471,"▁옆으로":4472,"▁박사":4473,"▁적은":4474,"란히":4475,"▁모양이":4476,"겠다.":4477,"▁기다려":4478,"▁걸었다.":4479,"▁짐승":4480,"▁일로":4481,"▁있었는데,":4482,"▁것인가":4483,"▁비틀":4484,"기,":4485,"설을":4486,"▁거리를":4487,"하듯":4488,"▁뼈":4489,"▁헐":4490,"했기":4491,"▁태어나":4492,"▁낫":4493,"▁자동차":4494,"▁쌍":4495,"진을":4496,"▁자신에게":4497,".......":4498,"▁조금씩":4499,"▁폭발":4500,"졌다":4501,"▁밑에":4502,"▁빛이":4503,"▁만날":4504,"▁지나지":4505,"▁집중":4506,"▁객":4507,"서도":4508,"▁다리":4509,"▁반짝":4510,"▁시골":4511,"애가":4512,"▁양반":4513,")이":4514,"▁상징":4515,"▁쇼":4516,"생이":4517,"▁끔":4518,"▁유명한":4519,"▁도움이":4520,"▁넓은":4521,"▁어떠한":4522,"▁개발":4523,"▁아예":4524,"개가":4525,"어머니":4526,"▁어디로":4527,"▁칼을":4528,"▁느끼고":4529,"▁어디에":4530,"▁런":4531,"그램":4532,"▁여겨":4533,"▁남성":4534,"▁흔히":4535,"▁대원":4536,"el":4537,"▁부끄러":4538,"▁13":4539,"▁다소":4540,"▁가치":4541,"하나":4542,"▁자세히":4543,"▁지혜":4544,"▁인민":4545,"▁마루":4546,"▁중얼거렸다.":4547,")을":4548,"▁정부":4549,"집이":4550,"더니,":4551,"어버린":4552,"st":4553,"▁F":4554,"▁이게":4555,"▁작용":4556,"▁p":4557,"일의":4558,"▁끌려":4559,"▁B":4560,"간이":4561,"▁팽":4562,"▁졸업":4563,"▁가라앉":4564,"▁이상의":4565,"▁믿을":4566,"▁이들은":4567,"야!":4568,"▁고맙":4569,"▁유일한":4570,"림이":4571,"우의":4572,"▁기회를":4573,"림은":4574,"▁변호":4575,"하러":4576,"▁현대":4577,"▁뜻이":4578,"▁때에는":4579,"▁여섯":4580,"▁여기저":4581,"▁딴":4582,"물었다.":4583,"▁한동안":4584,"▁마디":4585,"▁액":4586,"▁않았을":4587,"▁무릎을":4588,"▁조그만":4589,"▁낼":4590,"▁속삭":4591,"숙한":4592,"▁다름":4593,"▁떠난":4594,"▁챙":4595,"라!":4596,"욕을":4597,"▁엉덩":4598,"▁있으니까":4599,"▁기본":4600,"▁죽는":4601,"▁식당":4602,"▁듣는":4603,"▁199":4604,"씨,":4605,"렸을":4606,"는지도":4607,"▁구성":4608,"▁벨":4609,"증이":4610,"모는":4611,"▁갖다":4612,"▁*":4613,"입니까?":4614,"계에":4615,"란한":4616,"▁버려":4617,"▁거울":4618,"▁돌아와":4619,"다듬":4620,"오?":4621,"▁파악":4622,"준다.":4623,"▁했습니다.":4624,"▁건네":4625,"▁경우가":4626,"질러":4627,"▁과정":4628,"▁느낀":4629,"▁감정을":4630,"▁던져":4631,"▁낸":4632,"길로":4633,"▁노려":4634,"르지":4635,"▁of":4636,"▁나간":4637,"▁자료":4638,"▁제발":4639,"▁수준":4640,"▁그러다가":4641,"애는":4642,"▁찾는":4643,"점이":4644,"▁처음에는":4645,"▁사령":4646,"▁받지":4647,"오가":4648,"분에":4649,"▁가면":4650,"▁방으로":4651,"▁전부터":4652,")에":4653,"하며,":4654,"▁역할을":4655,"▁저지":4656,"▁골목":4657,"산의":4658,"▁제공":4659,"실은":4660,"▁서양":4661,"▁끊임":4662,"▁서류":4663,"▁기뻐":4664,"▁테이블":4665,"▁불이":4666,"▁드리":4667,"로,":4668,"▁전통":4669,"▁나섰다.":4670,"▁계시":4671,"▁친구가":4672,"▁땅에":4673,"이에요.":4674,"나를":4675,"▁빠른":4676,"▁드는":4677,"체는":4678,"실한":4679,"어요?":4680,"총을":4681,"형이":4682,"▁서둘러":4683,"▁흠":4684,"▁식사를":4685,"떻게":4686,"▁마구":4687,"선은":4688,"란은":4689,"▁주로":4690,"▁넣어":4691,"▁뭉":4692,"▁스승":4693,"마.":4694,"▁땅을":4695,"▁기사":4696,"▁늘어":4697,"등학교":4698,"▁거절":4699,"주지":4700,"▁정상":4701,"▁지방":4702,"실의":4703,"▁\"가":4704,"▁말하지":4705,"▁][":4706,"▁생각하지":4707,"렬한":4708,"▁촉":4709,"선의":4710,"▁제시":4711,"미터":4712,"▁자가":4713,"▁모아":4714,"인에게":4715,"▁됩니다.":4716,"▁붓":4717,"-1":4718,"▁고민":4719,"문의":4720,"하하":4721,"▁망설":4722,"례를":4723,"모의":4724,"여서":4725,"▁끝까지":4726,"▁내지":4727,"▁개념":4728,"▁되자":4729,"▁문학":4730,"▁자는":4731,"▁질문을":4732,"▁영원히":4733,"▁자,":4734,"▁소식을":4735,"▁앞서":4736,"병이":4737,"▁곁에":4738,"▁내린":4739,"습을":4740,"리한":4741,"▁절망":4742,"▁조심스럽게":4743,"느라":4744,"▁삐":4745,"▁대중":4746,"▁그러는":4747,"▁14":4748,"▁누구나":4749,"버릴":4750,"▁그릇":4751,"다!":4752,"▁특별한":4753,"▁회의":4754,"철은":4755,"▁\"응":4756,"'를":4757,"단의":4758,"▁의해서":4759,"▁온통":4760,"물의":4761,"것도":4762,"▁도움을":4763,"▁표정이":4764,"▁점을":4765,"▁스타":4766,"▁비난":4767,"끼리":4768,"▁페이":4769,"격이":4770,"▁아니라는":4771,"▁읽어":4772,"제로":4773,"번째":4774,"연이":4775,"▁기능":4776,"▁두드":4777,"▁이름은":4778,"▁고통을":4779,"▁시민":4780,"▁갔다":4781,"▁사내는":4782,"▁살해":4783,"▁놓았다.":4784,"관에":4785,"▁터뜨":4786,"▁아침에":4787,"기에는":4788,"▁담당":4789,"쁘게":4790,"임이":4791,"▁은행":4792,"▁뿌리":4793,"▁둘째":4794,"▁앞을":4795,"▁\"그래,":4796,"▁남겨":4797,"▁방에":4798,"▁채로":4799,"사람":4800,"지요?":4801,"▁떠올랐다.":4802,"국에":4803,"▁때로는":4804,"초의":4805,"▁모래":4806,"으로,":4807,"▁장소":4808,"▁빠진":4809,"▁뜯":4810,"인들의":4811,"희의":4812,"▁서서히":4813,"력의":4814,"▁일제":4815,"사,":4816,"도와":4817,"▁북한":4818,"봐.":4819,"▁다니는":4820,"▁마음의":4821,"▁잃고":4822,"미의":4823,"프는":4824,"구.":4825,"실이":4826,"▁대부분의":4827,"훈은":4828,"▁이틀":4829,"▁하지만,":4830,"리면서":4831,"▁방을":4832,"져서":4833,"세의":4834,"▁각각":4835,"▁의하면":4836,"▁남자를":4837,"▁아니겠":4838,"▁솔직":4839,"........":4840,"▁희생":4841,"군.\"":4842,"▁눈앞에":4843,"▁다녔":4844,"십시오.\"":4845,"▁돋":4846,"어로":4847,"▁생기":4848,"▁염려":4849,"▁감각":4850,"▁형제":4851,"▁맞은":4852,"교를":4853,"▁않도록":4854,"▁미국의":4855,"로가":4856,"하게도":4857,"산에":4858,"▁자라":4859,"나고":4860,"▁어느새":4861,"▁섭":4862,"종은":4863,"▁않는다는":4864,"프를":4865,"▁배가":4866,"▁b":4867,"▁박사는":4868,"▁나름":4869,"▁너무도":4870,"▁들려왔다.":4871,"자들을":4872,"는데도":4873,"▁하다가":4874,"▁보냈다.":4875,"▁인식":4876,"▁심지어":4877,"▁계속해서":4878,"▁콜":4879,"리라고":4880,"▁평화":4881,"▁하셨":4882,"▁잡았다.":4883,"▁대기":4884,"▁비가":4885,"▁일부러":4886,"레스":4887,"▁레이":4888,"▁어두운":4889,"▁감싸":4890,"▁있으며,":4891,"▁시내":4892,"▁위협":4893,"심한":4894,"차게":4895,"▁누군가가":4896,"▁모른다는":4897,"공을":4898,"▁멸":4899,"니를":4900,"▁사람과":4901,"방은":4902,"▁한가":4903,"▁40":4904,"▁아,":4905,"▁\"아니,":4906,"▁방법이":4907,"▁꼼짝":4908,"▁영웅":4909,"▁의미를":4910,"▁사이의":4911,"▁고마":4912,"▁누군가":4913,"▁춤을":4914,"▁심한":4915,"손으로":4916,"▁파고":4917,"()을":4918,"물에":4919,"▁장군":4920,"▁지닌":4921,"▁회복":4922,"▁앤":4923,"▁돌아왔다.":4924,"투를":4925,"▁점이":4926,"▁\"정말":4927,"▁허락":4928,"▁거두":4929,"▁근무":4930,"배를":4931,"중을":4932,"▁덧붙":4933,"▁>":4934,"민은":4935,"▁사상":4936,"장,":4937,"▁저도":4938,"▁H":4939,"리,":4940,"▁죽여":4941,"▁반복":4942,"단다.":4943,"았습니다.":4944,"▁거야?":4945,"▁무섭":4946,"▁혼자서":4947,"▁이사":4948,"영을":4949,"▁틀림없이":4950,"▁그토록":4951,"▁불어":4952,"▁놓아":4953,"▁들어간":4954,"▁형편":4955,"왕이":4956,"▁왔던":4957,"는가":4958,"▁아시":4959,"▁많아":4960,"▁미사":4961,"▁왔다":4962,"▁말씀이":4963,"▁고구려":4964,"형의":4965,"▁내려다":4966,"▁희망":4967,"▁시도":4968,"요.\"그":4969,"▁잊지":4970,"는가.":4971,"▁흐르는":4972,"▁D":4973,"▁직업":4974,"구에":4975,"▁신음":4976,"▁것인":4977,"▁자네가":4978,"▁관심":4979,")를":4980,"▁괴로":4981,"▁시원":4982,"▁이집":4983,"▁벌떡":4984,"▁,":4985,"▁편지":4986,"▁준비를":4987,"▁내리는":4988,"이기도":4989,"▁결혼을":4990,"▁자고":4991,"▁밤을":4992,"대고":4993,"▁도덕":4994,"▁그만큼":4995,"타는":4996,"▁지니고":4997,"더군요.":4998,"발이":4999,"▁마음으로":5000,"▁머리에":5001,"▁무덤":5002,"▁맞는":5003,"▁부하":5004,"▁옹":5005,"▁일행":5006,"▁진지":5007,"▁아이들은":5008,"▁밤이":5009,"▁w":5010,"단은":5011,"▁것이고,":5012,"▁없지":5013,"리라.":5014,"▁다루":5015,"▁시각":5016,"란이":5017,"▁체포":5018,"▁보일":5019,"바람":5020,"▁않습니다.":5021,"▁인간은":5022,"상한":5023,"석에":5024,"▁벤":5025,"▁위대한":5026,"▁호기":5027,"▁모습으로":5028,"▁확실히":5029,"▁솟아":5030,"연을":5031,"준은":5032,"▁수화":5033,"▁바위":5034,"▁해.":5035,"▁저를":5036,"il":5037,"▁이거":5038,"▁아내는":5039,"▁강조":5040,"까,":5041,"▁국제":5042,"▁밝은":5043,"and":5044,"▁둘이":5045,"오,":5046,"▁팬":5047,"겠지만":5048,"▁손바닥":5049,"해지는":5050,"▁영향":5051,"▁희미":5052,"▁아들을":5053,"▁찾을":5054,"역을":5055,"▁느껴졌다.":5056,"▁내고":5057,"시켰":5058,"▁주었":5059,"색의":5060,"시의":5061,"▁저항":5062,"심으로":5063,"▁이외":5064,"▁좌우":5065,"재를":5066,"▁안고":5067,"▁참을":5068,"자도":5069,"니까.\"":5070,"▁된다":5071,"▁내놓":5072,"▁차림":5073,"▁일어났":5074,"▁혁명":5075,"▁관계가":5076,"▁솜":5077,"▁힌":5078,"양을":5079,"▁의한":5080,"▁더러":5081,"▁생각도":5082,"작을":5083,"▁기업":5084,"▁터져":5085,"▁리가":5086,"▁머리카":5087,"짜리":5088,"5년":5089,"▁들을":5090,"▁소녀":5091,"▁되었을":5092,"▁가능한":5093,"▁'그":5094,"▁없고,":5095,"▁종이":5096,"▁음식을":5097,"▁움켜":5098,"▁제1":5099,"▁이유를":5100,"집에":5101,"▁근거":5102,"▁나이가":5103,"▁부부":5104,"리어":5105,"지면":5106,"▁발달":5107,"자들":5108,"▁걸쳐":5109,"▁경비":5110,"▁머릿":5111,"인으로":5112,"▁무의":5113,"훈이":5114,"▁어째":5115,"▁맘":5116,"▁이야기가":5117,"▁남편의":5118,"▁부러":5119,"보를":5120,"▁냄새가":5121,"보니":5122,"▁한다면":5123,"원들이":5124,"물은":5125,"▁이가":5126,"▁피를":5127,"▁내쉬":5128,"소?\"":5129,"▁모두들":5130,"▁낮은":5131,"▁데는":5132,"▁무사":5133,"▁아내의":5134,"마,":5135,"▁요시":5136,"▁부처":5137,"▁안전":5138,"▁것이라":5139,"▁상황을":5140,"▁사건이":5141,"▁갈아":5142,"▁느낌을":5143,"리에서":5144,"▁기도":5145,"▁소파":5146,"▁많다.":5147,"달라고":5148,"느냐?":5149,"▁가벼":5150,"▁물건을":5151,"력에":5152,"▁감히":5153,"버려":5154,"석의":5155,"▁봐야":5156,"ot":5157,"▁공동":5158,"▁가시":5159,"▁돌아서":5160,"스러워":5161,"▁들지":5162,"▁지식":5163,"▁같은데":5164,"▁질렀다.":5165,"▁범죄":5166,"▁화를":5167,"▁붙여":5168,"고도":5169,"▁일주":5170,"니?\"":5171,"쪽의":5172,"▁것보다":5173,"▁일본의":5174,"▁일종의":5175,"▁들어가는":5176,"▁끔찍":5177,"▁이기":5178,"▁훼릭":5179,"스레":5180,"▁아버지를":5181,"▁그래,":5182,"▁제거":5183,"치의":5184,"▁군사를":5185,"▁피곤":5186,"▁소리는":5187,"▁간호":5188,"▁쳤다.":5189,"▁거칠":5190,"서의":5191,"▁\"다":5192,"▁끝난":5193,"▁나아가":5194,"▁\"오늘":5195,"▁답답":5196,"▁제외":5197,"▁텔레비":5198,"▁치고":5199,"▁목소리는":5200,"수로":5201,"▁입에서":5202,"▁또다시":5203,"▁목소리를":5204,"▁사진을":5205,"분은":5206,"▁바닷":5207,"▁해당":5208,"▁내는":5209,"▁보게":5210,"▁지시":5211,"you":5212,"다지":5213,"▁뱃":5214,"마한":5215,"▁공부를":5216,"▁처음부터":5217,"▁스트":5218,"담이":5219,"▁부드러운":5220,"▁미스":5221,"합니다.\"":5222,"▁끊임없이":5223,"에만":5224,"▁이성":5225,"▁대개":5226,"▁등장":5227,"▁뭐가":5228,"니아":5229,"▁저희":5230,"▁민주":5231,"내지":5232,"▁198":5233,"▁계집":5234,"학의":5235,"▁단순한":5236,"교의":5237,"▁설치":5238,"▁곳은":5239,"뿐만":5240,"니까,":5241,"건을":5242,"여,":5243,"옥은":5244,"령을":5245,"▁아랫":5246,"▁전달":5247,"▁엿":5248,"▁덤":5249,"▁제2":5250,"▁어머니를":5251,"중의":5252,"▁살려":5253,"▁구체":5254,"뚱한":5255,"▁설득":5256,"▁늦게":5257,"되기":5258,"▁내내":5259,"▁자체":5260,"▁환경":5261,"▁구름":5262,"▁괴롭":5263,"▁르":5264,"▁느끼는":5265,"▁나뭇":5266,"▁벽에":5267,"터를":5268,"목이":5269,"약한":5270,"▁보시":5271,"▁지으며":5272,"▁신의":5273,"▁말투":5274,"▁해가":5275,"에겐":5276,"님께":5277,"면이":5278,"▁불쌍":5279,"▁아가씨":5280,"아!":5281,"▁있으며":5282,"▁신비":5283,"3년":5284,"▁잎":5285,"▁__":5286,"▁후회":5287,"▁수십":5288,"마에":5289,"▁수용":5290,"스키":5291,"십니까?":5292,"▁때문에,":5293,"▁썼다.":5294,"라서":5295,"▁속에는":5296,"안이":5297,"▁되돌아":5298,"▁불편":5299,"▁프로그램":5300,"표를":5301,"▁이혼":5302,"▁\"글쎄":5303,"감에":5304,"▁비해":5305,"▁나라를":5306,"주머니":5307,"오의":5308,"음은":5309,"▁...":5310,"▁경계":5311,"민이":5312,"범은":5313,"▁진정":5314,"온다.":5315,"▁있습니다.\"":5316,"거든요.":5317,"▁의지":5318,"▁부인이":5319,"▁자신은":5320,"▁걸린":5321,"다\"":5322,"문으로":5323,"▁셔":5324,"▁시켜":5325,"▁여기저기":5326,"▁신경을":5327,"렸던":5328,"▁비명을":5329,"▁붕":5330,"▁적극":5331,"▁아닌가.":5332,"▁\"장":5333,"▁무거운":5334,"랑이":5335,"ion":5336,"▁그도":5337,"▁생각한":5338,"▁다시는":5339,"▁기관":5340,"▁지붕":5341,"▁당연히":5342,"▁진정한":5343,"▁것일까?":5344,"▁이처럼":5345,"▁눈동":5346,"le":5347,"답니다.":5348,"▁문제에":5349,"저리":5350,"▁못한다.":5351,"안의":5352,"▁견딜":5353,"지에서":5354,"▁보냈":5355,"▁말하면":5356,"▁형사":5357,"▁\"하지만":5358,"▁뛰어난":5359,"▁몸은":5360,"',":5361,"▁화려":5362,"유의":5363,"'이라는":5364,"▁생각한다.":5365,"▁읽고":5366,"▁빨간":5367,"▁정보를":5368,"겠습니다.\"":5369,"리라":5370,"▁L":5371,"▁싶다.":5372,"▁아이의":5373,"▁옆에서":5374,"고가":5375,"▁마지막으로":5376,"▁언젠가":5377,"▁점심":5378,"▁다스":5379,"▁비판":5380,"하를":5381,"▁아주머니":5382,"▁묻는":5383,"▁계획을":5384,"지며":5385,"▁구두":5386,"▁평생":5387,"▁벗겨":5388,"▁\"그는":5389,"▁지적":5390,"▁총을":5391,"▁힘든":5392,"받는":5393,"▁우리나라":5394,"▁가능성이":5395,"주시":5396,"계는":5397,"차피":5398,"▁일곱":5399,"이게":5400,"▁마땅":5401,"▁문이":5402,"수와":5403,"▁있었다는":5404,"▁떠날":5405,"▁않으":5406,"구,":5407,"란을":5408,"▁그대는":5409,"▁열쇠":5410,"▁젊은이":5411,"하라고":5412,"주로":5413,"▁만들었다.":5414,"▁지옥":5415,"거나,":5416,"▁들어오는":5417,"▁출신":5418,"▁\"수":5419,"▁우울":5420,"▁대단한":5421,"▁제법":5422,"거든.":5423,"▁깨어":5424,"▁달러":5425,"▁의자에":5426,"리면":5427,"무지":5428,"▁이곳에":5429,"▁나아":5430,"후의":5431,"▁너머":5432,"불어":5433,"▁현관":5434,"으니,":5435,"가에서":5436,"준이":5437,"▁\"그런데":5438,"▁점차":5439,"▁태어난":5440,"=-":5441,"▁뽑아":5442,"현은":5443,"▁이익":5444,"절을":5445,"▁당신에게":5446,"2년":5447,"▁후,":5448,"▁흘러나":5449,"종을":5450,"어들":5451,"트로":5452,"스,":5453,"▁넣고":5454,"▁번도":5455,"양의":5456,"▁되풀이":5457,"▁사과":5458,"▁크고":5459,"▁유혹":5460,"▁빵":5461,"으러":5462,"에서부터":5463,"▁튀어나":5464,"▁한때":5465,"▁달린":5466,"▁이었다.":5467,"▁특징":5468,"▁사람처럼":5469,"해졌":5470,"▁속을":5471,"▁싸우":5472,"▁해방":5473,"▁정도였다.":5474,"다운":5475,"()이":5476,"▁선배":5477,"▁잔을":5478,"▁모르지만":5479,"▁마른":5480,"합니다":5481,"야?\"":5482,"령은":5483,"▁식사":5484,"▁내리고":5485,"▁평소":5486,"▁질문":5487,"▁증명":5488,"▁저런":5489,"▁경우에는":5490,"▁나란히":5491,"▁것이었":5492,"▁요청":5493,"▁쉬운":5494,"▁근본":5495,"년을":5496,"▁외쳤다.":5497,"▁한번도":5498,"력과":5499,"▁사회의":5500,"지자":5501,")가":5502,"▁한두":5503,"▁부산":5504,"으면서도":5505,"▁장교":5506,"손을":5507,"▁거쳐":5508,"▁확신":5509,"▁아르":5510,".”":5511,"▁클레":5512,"더라면":5513,"▁낯선":5514,"▁아우":5515,"▁거짓말":5516,"오를":5517,"세요":5518,"▁\"당신":5519,"▁'이":5520,"리라는":5521,"무는":5522,"▁갖게":5523,"▁말인가?":5524,"▁인류":5525,".......\"":5526,"▁부인은":5527,"▁대화":5528,"면서,":5529,"▁통과":5530,"▁참고":5531,"▁삭":5532,"것은":5533,"소서":5534,"▁물리":5535,"4년":5536,"▁린":5537,"까?\"":5538,"▁형성":5539,"▁생각하면":5540,"▁대단히":5541,"셔야":5542,"▁보이고":5543,"▁넘겨":5544,"▁간신":5545,"▁물결":5546,"▁나한테":5547,"ac":5548,"▁놀랐다.":5549,"개월":5550,"부터는":5551,"르의":5552,"▁일으켜":5553,"▁\"하고":5554,"6년":5555,"▁되어서":5556,"▁\"잘":5557,"▁첫째":5558,"▁않고,":5559,"▁들어올":5560,"▁분야":5561,"잡고":5562,"물로":5563,"▁\"아무":5564,"▁몇몇":5565,"인,":5566,"▁체험":5567,"▁멋진":5568,"이자":5569,"▁했는데":5570,"▁모자":5571,"프가":5572,"▁내용을":5573,"▁더이상":5574,"▁주저앉":5575,"▁하다":5576,"▁기가":5577,"▁상처를":5578,"▁소리에":5579,"점에서":5580,"의가":5581,"급히":5582,"급한":5583,"▁무리":5584,"▁부여":5585,"놈이":5586,"가며":5587,"했는데":5588,"▁햇빛":5589,"▁아니라고":5590,"▁너를":5591,"▁작가":5592,"▁종류의":5593,"국은":5594,"짓을":5595,"▁안타":5596,"▁방금":5597,"▁눈길을":5598,"매를":5599,"▁현상":5600,"해서는":5601,"▁울려":5602,"▁중간":5603,"▁더불어":5604,"▁젖어":5605,"▁명령을":5606,"쾌한":5607,"▁h":5608,"▁본능":5609,"ve":5610,"▁많았다.":5611,"▁운명":5612,"이지만":5613,"들이었다.":5614,"주에":5615,"7년":5616,"▁때였다.":5617,"일까?":5618,"▁차려":5619,"인들":5620,"▁제자":5621,"르트":5622,"▁'아":5623,"▁병원":5624,"스라":5625,"▁계산":5626,"▁지금의":5627,"▁바퀴":5628,"▁자체가":5629,"▁대접":5630,"▁공산":5631,"▁주위":5632,"▁이슬":5633,"▁향했다.":5634,"▁이야기는":5635,"▁공중":5636,"되면":5637,"▁만들고":5638,"▁뿜":5639,"력으로":5640,"▁내며":5641,"▁경쟁":5642,"안은":5643,"▁대가":5644,"▁\"세":5645,"두는":5646,"▁\"부":5647,"로의":5648,"▁감고":5649,"어지지":5650,"▁있어도":5651,"▁말하자면":5652,"▁집단":5653,"차는":5654,"▁\"그게":5655,"잖아요.":5656,"▁년":5657,"▁갈라":5658,"▁일어섰다.":5659,"▁도둑":5660,"▁뜻밖":5661,"▁호흡":5662,"▁전에는":5663,"판에":5664,"▁\"이제":5665,"▁그녀와":5666,"▁가려":5667,"9년":5668,"▁꿀":5669,"치기":5670,"▁황금":5671,"▁지경":5672,")는":5673,"▁순간,":5674,"▁걸어갔다.":5675,"든가":5676,"▁\"기":5677,"▁100":5678,"했으나":5679,"▁이탈":5680,"▁내밀었다.":5681,"▁죽고":5682,"▁살짝":5683,"▁도달":5684,"▁놀라운":5685,"▁누구도":5686,"▁\"물론":5687,"▁기계":5688,"구요.":5689,"▁감옥":5690,"▁했지만,":5691,"▁해석":5692,"th":5693,"▁남녀":5694,"▁두려움":5695,"ol":5696,"▁숭":5697,"▁세상에서":5698,"철이":5699,"▁거듭":5700,"'에":5701,"▁떡":5702,"▁아니야.":5703,"▁찾아가":5704,"▁귀에":5705,"▁수술":5706,"▁스테":5707,"▁충격":5708,"▁견디":5709,"소는":5710,"▁완성":5711,"▁기다리는":5712,"▁그다지":5713,"'가":5714,"치에":5715,"▁잠겨":5716,"▁표시":5717,"▁걷어":5718,"am":5719,"▁두어":5720,"▁웃고":5721,"무가":5722,"▁성적":5723,"▁웨":5724,"▁수화기를":5725,"▁남편은":5726,"▁버리는":5727,"▁세상의":5728,"▁감시":5729,"▁우리들은":5730,"이었습니다.":5731,"▁죽이":5732,"▁사내의":5733,"▁듣지":5734,".....\"":5735,"▁지은":5736,"생의":5737,"▁마치고":5738,"▁수백":5739,"▁손수":5740,"▁왔을":5741,"▁하다.":5742,"어의":5743,"아를":5744,"▁돌아가는":5745,"▁이렇":5746,"▁칭찬":5747,"서에":5748,"▁시간은":5749,"▁\"일":5750,"▁불꽃":5751,"▁구조":5752,"▁편이":5753,"겠어요.":5754,"▁뉴욕":5755,"종이":5756,"▁일어나는":5757,"▁대화를":5758,"▁허리":5759,"▁데가":5760,"=-=-":5761,"▁않아.":5762,"▁핏":5763,"▁따뜻한":5764,"▁간신히":5765,"▁못하":5766,"▁초조":5767,"사에게":5768,"▁끼고":5769,"▁밥을":5770,"과도":5771,"▁하려고":5772,"▁나타났":5773,"란다.":5774,"▁사이에서":5775,"▁!":5776,"▁속이":5777,"로서의":5778,"함에":5779,"ow":5780,"▁있으":5781,"▁세계의":5782,"▁주민":5783,"▁세계를":5784,"우를":5785,"▁것이었다":5786,"▁결심":5787,"1년":5788,"▁피아":5789,"▁애를":5790,"▁꺼냈다.":5791,"어오":5792,"▁쑥":5793,"▁정도는":5794,"▁움직이는":5795,",,,,":5796,"▁이따":5797,"이었을":5798,"▁쓰지":5799,"▁\"도":5800,"▁고생":5801,"▁못했던":5802,"▁맞이":5803,"▁최고의":5804,"▁콩":5805,"▁바탕":5806,"▁있단":5807,"▁새삼":5808,"전은":5809,"학년":5810,"▁가졌":5811,"지면서":5812,"▁있지만,":5813,"▁죽었":5814,"에선":5815,"▁공간":5816,"▁발휘":5817,"▁여행을":5818,"▁되기":5819,"랜드":5820,"▁않아요.":5821,"▁얼마든지":5822,"▁법칙":5823,"▁빌려":5824,"▁엄마가":5825,"▁주리는":5826,"으니까.":5827,"▁분석":5828,"▁존경":5829,"▁계곡":5830,"▁평범":5831,"▁잊어버":5832,"▁세상이":5833,"▁찌푸":5834,"로지":5835,"조건":5836,"▁것이고":5837,"▁좋다.":5838,"▁거느":5839,"▁돌아왔":5840,"▁저렇게":5841,"0년대":5842,"래의":5843,"▁시대의":5844,"▁산업":5845,"▁했고,":5846,"▁내보":5847,"▁침대에":5848,"▁불길":5849,"▁욕망":5850,"해지고":5851,"기에서":5852,"박한":5853,"까봐":5854,"▁짓고":5855,"하에":5856,"▁사람들과":5857,"▁니다.":5858,"거니":5859,"▁목숨":5860,"▁지나가":5861,"어는":5862,"▁겁니다.\"":5863,"드릴":5864,"들여":5865,"▁\"거":5866,"▁험":5867,"▁말인가":5868,"8년":5869,"▁균":5870,"▁출입":5871,"반을":5872,"▁받게":5873,"▁사건을":5874,"▁싶었":5875,"▁투쟁":5876,"▁약속을":5877,"집으로":5878,"▁놈은":5879,"▁뿐이":5880,"문학":5881,"이었지만":5882,"▁껴":5883,"▁TV":5884,"사랑":5885,"▁흔들었다.":5886,"아이":5887,"수에":5888,"함은":5889,"▁제목":5890,"▁신기":5891,"▁당한":5892,"▁무언가":5893,"▁율":5894,"▁그대의":5895,"▁참석":5896,"▁물에":5897,"웠던":5898,"▁사정":5899,"이었고,":5900,"▁경우는":5901,"량이":5902,"우리":5903,"▁발자":5904,"▁\"어디":5905,"▁카메":5906,"▁어색":5907,"어내":5908,"통이":5909,"파의":5910,"▁차가운":5911,"▁있을까?":5912,"▁그늘":5913,"▁사랑이":5914,"선으로":5915,"정하게":5916,"네,":5917,"▁어차피":5918,"▁울음":5919,"▁잃은":5920,"▁5,":5921,"▁지나가는":5922,"있게":5923,"▁말입니다.":5924,"▁콘":5925,"하라는":5926,"스토":5927,"▁평가":5928,"▁마이":5929,"▁때면":5930,"▁말았":5931,"▁당연한":5932,"▁일어날":5933,"▁나름대로":5934,"▁사람으로":5935,"▁밖에서":5936,"▁특별히":5937,"식에":5938,"옷을":5939,"▁대비":5940,"묘한":5941,"▁관심이":5942,"▁함부로":5943,"▁동안에":5944,"안고":5945,"▁결과를":5946,"▁하는데":5947,"��":5948,"▁실망":5949,"하기는":5950,"읍니다.":5951,"▁사람들도":5952,"▁자본":5953,"▁자살":5954,"숙은":5955,"▁청소":5956,"▁걱정이":5957,"▁달래":5958,"동의":5959,"▁중에는":5960,"▁바라보는":5961,"악한":5962,"장도":5963,"▁\"어떻게":5964,"세는":5965,"▁아내를":5966,"▁중심으로":5967,"▁있소.":5968,"▁명이":5969,"▁\"예,":5970,"요...":5971,"▁있으리":5972,"▁몰래":5973,"▁사이를":5974,"▁왼쪽":5975,"▁1년":5976,"▁농민":5977,"▁군.":5978,"란의":5979,"▁시달":5980,"▁안되는":5981,"▁먹은":5982,"둥이":5983,"그러나":5984,"▁발사":5985,"▁만나는":5986,"▁자신들의":5987,"나지":5988,"▁무엇보다도":5989,"▁뛰어나":5990,"▁그런데도":5991,"▁밑에서":5992,"▁않기":5993,"까요?\"":5994,"▁불쑥":5995,"▁닭":5996,"조리":5997,"하기를":5998,"함과":5999,"▁다물":6000,"▁시체":6001,"래를":6002,"▁상황이":6003,"해질":6004,"▁식구":6005,"니.":6006,"▁집이":6007,"▁노예":6008,"▁타이":6009,"히지":6010,"'하고":6011,"▁1.":6012,"▁이끌고":6013,"느라고":6014,"▁미처":6015,"▁침착":6016,"▁\"강":6017,"▁한결":6018,"▁\"주":6019,"▁브라":6020,"▁\"그렇게":6021,"니의":6022,"▁지원":6023,"▁의원":6024,"▁커피를":6025,"▁었다.":6026,"판이":6027,"▁있습니다":6028,"▁같지":6029,"▁끝났":6030,"▁날카로운":6031,"▁뚜렷":6032,"▁없애":6033,"▁순식":6034,"▁\"시":6035,"▁소리와":6036,"임에":6037,"▁곧바로":6038,"▁밑으로":6039,"▁시작한다.":6040,"▁R":6041,"▁벼슬":6042,"▁핑":6043,"▁갈등":6044,"▁불렀":6045,"'은":6046,"▁밭":6047,"▁우리들의":6048,"였을":6049,"▁뒤따":6050,"▁능력을":6051,"▁동원":6052,"▁가질":6053,"▁집어넣":6054,"나도":6055,"▁없기":6056,"절로":6057,"러가":6058,"▁주인공":6059,"▁건설":6060,"구만":6061,"▁이전":6062,"▁계단을":6063,"▁안정":6064,"탄을":6065,"▁개가":6066,"▁없으면":6067,"▁크리":6068,"했어요.":6069,"▁변해":6070,"▁방법으로":6071,"놓았다.":6072,"다가는":6073,"▁되고,":6074,"하고도":6075,"리자":6076,"▁장사":6077,"도에서":6078,"▁간에":6079,".\"그는":6080,"▁이때":6081,"훈의":6082,"▁선생은":6083,"▁그야말로":6084,"▁살았":6085,"▁참여":6086,"말에":6087,"▁나지":6088,"ad":6089,"▁죄를":6090,"▁것은,":6091,"()를":6092,"▁\"영":6093,"▁정확히":6094,"▁번씩":6095,"▁엔":6096,"▁굳이":6097,"▁대장":6098,"▁데서":6099,"▁\"그렇다면":6100,"습니까.":6101,"▁심각한":6102,"▁E":6103,"님께서":6104,"▁해요.":6105,"▁목이":6106,"▁숨이":6107,"▁홀로":6108,"▁197":6109,"▁나오지":6110,"▁불리":6111,"▁살이":6112,"하지도":6113,"▁지속":6114,"▁생물":6115,"▁것들을":6116,"▁철저":6117,"▁내버려":6118,"▁한꺼":6119,"나요?\"":6120,"▁\"형":6121,"▁시를":6122,"냐,":6123,"파는":6124,"▁그림을":6125,"▁조정":6126,"▁장식":6127,"들었":6128,"▁설명을":6129,"▁감독":6130,"▁아무것도":6131,"▁고요":6132,"▁행위":6133,"로써":6134,"▁세우":6135,"▁신이":6136,"▁나누어":6137,"보았":6138,"▁보내는":6139,"갔다":6140,"▁아이들":6141,"하라.":6142,"▁집은":6143,"리고,":6144,"기보다는":6145,"▁태도를":6146,"▁성장":6147,"▁부드럽게":6148,"▁남편을":6149,"만원":6150,"용을":6151,"제에":6152,"▁동굴":6153,"▁찾고":6154,"▁인생을":6155,"품이":6156,"네요.":6157,"▁가리키":6158,"▁떨어뜨":6159,"이한":6160,"▁얻은":6161,"▁잉":6162,"▁번이나":6163,"▁종종":6164,"아리":6165,"▁버릇":6166,"소로":6167,"▁응시":6168,"▁우연히":6169,"▁자존":6170,"▁되었다":6171,"▁똑똑":6172,"▁사망":6173,"▁\"말":6174,"▁똑바로":6175,"▁불교":6176,"▁결합":6177,"게도":6178,"독한":6179,"하기가":6180,"▁왔습니다.":6181,"▁얻을":6182,"슨은":6183,"▁다행히":6184,"▁내뱉":6185,"▁자네는":6186,"뿐이었다.":6187,"▁흘러내":6188,"▁때로":6189,"▁남을":6190,"▁방문을":6191,"▁뜨고":6192,"▁잡은":6193,"▁서너":6194,"▁어깨에":6195,"인도":6196,"▁나선":6197,"▁없지만":6198,"▁강력한":6199,"였고,":6200,"▁눈치를":6201,"▁모양이다.":6202,"▁강화":6203,"대장":6204,"상에서":6205,"▁그곳에서":6206,"▁다양한":6207,"▁어머":6208,"▁부서":6209,"봐야":6210,"▁기자":6211,"는지,":6212,"비아":6213,"▁로마":6214,"▁말라":6215,"▁내부":6216,"▁먹어":6217,"▁\"소":6218,"▁갖는":6219,"▁않았지만":6220,"다니는":6221,"라스":6222,"▁느끼게":6223,"니까요.":6224,"▁했으나":6225,"▁없겠":6226,"▁반가":6227,"▁지키고":6228,"게.\"":6229,"▁쳐다":6230,"▁기다렸다.":6231,"▁알아차":6232,"귀를":6233,"▁아이들을":6234,"▁순식간에":6235,"세에":6236,"▁멈추고":6237,"▁워낙":6238,"▁부지":6239,"▁고쳐":6240,"▁식탁":6241,"▁나타나는":6242,"▁믿는":6243,"다시피":6244,"이든":6245,"▁지극":6246,"▁숨겨":6247,"▁주어":6248,"▁류지":6249,"▁착각":6250,"하라":6251,"▁의식을":6252,"▁기운이":6253,"▁눌러":6254,"▁그린":6255,"산은":6256,"언을":6257,"량을":6258,"소,":6259,"시대":6260,"▁\"진":6261,"▁라이":6262,"▁\"유":6263,"▁트럭":6264,"▁마음대로":6265,"▁웃어":6266,"애의":6267,"▁소련":6268,"▁안될":6269,"▁\"남":6270,"▁신부":6271,"▁통일":6272,"▁2.":6273,"▁결론":6274,"▁한꺼번에":6275,"거야.":6276,"▁되찾":6277,"▁추억":6278,"▁들어갈":6279,"운이":6280,"▁시집":6281,"▁것인가?":6282,"▁감정이":6283,"▁흔들어":6284,"▁사랑은":6285,"그런":6286,"리도":6287,"▁채워":6288,"▁경우도":6289,"▁사장":6290,"▁버스":6291,"▁\"나도":6292,"연의":6293,"(),":6294,"▁기회가":6295,"▁싹":6296,"▁중국의":6297,"점에":6298,"▁익숙":6299,"▁그제서야":6300,"▁만남":6301,"▁사회적":6302,"▁접촉":6303,"▁무기":6304,"▁명예":6305,"갑을":6306,"▁조종":6307,"▁기억이":6308,"▁사흘":6309,"▁부친":6310,"▁끝이":6311,"▁법이":6312,"작은":6313,"▁추구":6314,"▁공격을":6315,"▁여자들이":6316,"▁시기":6317,"▁방해":6318,"▁남자와":6319,"▁임신":6320,"락이":6321,"▁24":6322,"▁보여주":6323,"▁탑":6324,"▁\"당신은":6325,"▁무관":6326,"▁오면":6327,"우스는":6328,"▁신앙":6329,"▁길은":6330,"격한":6331,"▁소문이":6332,"▁다가가":6333,"▁믿지":6334,"▁같아서":6335,"▁맑은":6336,"▁억지로":6337,"▁\"언":6338,"된다고":6339,"▁떨어졌다.":6340,"줘야":6341,"▁여인의":6342,"▁바짝":6343,"연은":6344,"편에":6345,"▁틀어":6346,"▁사람이었다.":6347,"▁길에":6348,"▁오로지":6349,"▁길로":6350,"이도":6351,"▁다를":6352,"▁것이며,":6353,"▁선거":6354,"▁했다는":6355,"▁W":6356,"▁보인":6357,"적으로는":6358,"▁웃는":6359,"19":6360,"▁시계를":6361,"▁갑작":6362,"▁여자와":6363,"▁쓰레":6364,"▁털어놓":6365,"학적":6366,"▁즈":6367,"간은":6368,"▁너의":6369,"▁가져다":6370,"'이라고":6371,"▁최초의":6372,"▁보고는":6373,"▁거지":6374,"▁비명":6375,"▁일제히":6376,"▁단말":6377,"당의":6378,"회가":6379,"▁케이":6380,"상적인":6381,"▁불평":6382,"▁않아서":6383,"느니":6384,"향이":6385,"▁그러면서":6386,"기며":6387,"▁안심":6388,"▁좁은":6389,"▁귀족":6390,"대학":6391,"베이터":6392,"▁수염":6393,"▁오고":6394,"▁잘라":6395,"▁그래.":6396,"▁장수":6397,"▁얘기가":6398,"내기":6399,"▁묻는다.":6400,"▁곽":6401,"구멍":6402,"▁치밀":6403,"▁쏟아져":6404,"▁감동":6405,"위원":6406,"▁제기":6407,"▁이따금":6408,"놈의":6409,"▁같습니다.":6410,"드로":6411,"▁아줌":6412,"▁쥐고":6413,"▁이지":6414,"ay":6415,"쯤은":6416,"▁버티":6417,"▁뒤집어":6418,"람세":6419,"▁떨어지는":6420,"▁색깔":6421,"▁생명을":6422,"▁통제":6423,"▁얼어":6424,"▁것입니다.\"":6425,"셔서":6426,"받고":6427,"현이":6428,"▁의미가":6429,"▁비극":6430,"▁떠났":6431,"▁저의":6432,"들에게는":6433,"▁죽음의":6434,"▁인생의":6435,"였습니다.":6436,"▁않다는":6437,"▁신고":6438,"▁196":6439,"▁\"제가":6440,"▁돌아갈":6441,"▁오른쪽":6442,"▁빠르게":6443,"▁곧장":6444,"▁이루어진":6445,"▁서로의":6446,"▁개혁":6447,"▁의견을":6448,"▁지나치게":6449,"▁방울":6450,"이었고":6451,"▁5월":6452,"▁차이가":6453,"▁느끼지":6454,"리나":6455,"▁정의":6456,"초를":6457,"▁재촉":6458,"청을":6459,"▁수천":6460,"▁있었지만,":6461,"했어.":6462,"이지요.":6463,"▁상태에서":6464,"--------------------------------":6465,"▁N":6466,"()에":6467,"▁하늘이":6468,"▁\"자,":6469,"▁울고":6470,"ent":6471,"세.\"":6472,"민의":6473,"어?\"":6474,"▁보내고":6475,"대에서":6476,"▁기독":6477,"▁이들이":6478,"▁창백":6479,"▁\"허":6480,"▁일러":6481,"▁노인":6482,"▁만나게":6483,"가요?":6484,"▁살아가는":6485,"▁튼":6486,"하기만":6487,"▁아픈":6488,"해야만":6489,"▁활짝":6490,"▁여인이":6491,"▁잊고":6492,"면으로":6493,"▁스쳐":6494,"▁동의":6495,"▁잡혀":6496,"▁이럴":6497,"▁은근":6498,"▁슬픈":6499,"▁이리저리":6500,"베르":6501,"▁장미":6502,"▁잠수":6503,"▁한달":6504,"▁유명":6505,"▁되도록":6506,"그레":6507,"▁내다":6508,"스타":6509,"▁울렸다.":6510,"▁방향을":6511,"▁입구":6512,"▁엄마는":6513,"이다.\"":6514,"▁가난한":6515,"▁내세":6516,"▁된다고":6517,"리적":6518,"오지":6519,"구니":6520,"시한":6521,"▁새겨":6522,"▁�a�":6523,"▁약간의":6524,"▁개를":6525,"트에":6526,"▁출판":6527,"▁기다렸":6528,"▁즐거운":6529,"하실":6530,"단에":6531,"어주":6532,"▁흐느":6533,"▁그대가":6534,"▁거짓말을":6535,"▁뚫고":6536,"▁덩어":6537,"▁\"그래서":6538,"겠다":6539,"▁하나씩":6540,"▁몰라도":6541,"▁실천":6542,"▁유전":6543,"▁죽인":6544,"▁종일":6545,"지금":6546,"▁데도":6547,"▁않을까":6548,"▁끼어":6549,"▁탈출":6550,"련을":6551,"▁다짐":6552,"▁내려다보":6553,"겠어.":6554,"▁대상":6555,"에게로":6556,"▁쓰다듬":6557,"▁몰고":6558,"▁방법은":6559,"▁일하는":6560,"▁주어야":6561,"▁방향으로":6562,"다를":6563,"▁이르러":6564,"▁아기":6565,"▁잘못된":6566,"▁전의":6567,"담은":6568,"▁」「":6569,"박을":6570,"▁고급":6571,"▁것일까.":6572,"▁사람,":6573,"▁고백":6574,"▁깨달았다.":6575,"▁너도":6576,"반의":6577,"▁당시의":6578,"▁구해":6579,"▁실은":6580,"▁고등학교":6581,"▁주의":6582,".'":6583,"▁걸고":6584,"▁거예요.\"":6585,"크를":6586,"▁있지.":6587,"---":6588,"▁똥":6589,"운을":6590,"▁한층":6591,"겠어요?":6592,"동에":6593,"▁돌아올":6594,"▁짐을":6595,"찮은":6596,"▁대륙":6597,"▁원망":6598,"루를":6599,"입니까?\"":6600,"방울":6601,"▁하이":6602,"▁혀를":6603,"▁바람을":6604,"▁나온다.":6605,"▁머뭇":6606,"▁3년":6607,"회에":6608,"..\"":6609,"▁때를":6610,"▁많았":6611,"▁과정을":6612,"▁필요는":6613,"▁높아":6614,"▁고대":6615,"돌이":6616,"▁도무지":6617,"▁달려가":6618,"▁비웃":6619,"▁모자를":6620,"▁포도":6621,"▁살펴보":6622,"▁구별":6623,"어지게":6624,"▁젖은":6625,"▁죠":6626,"랍니다.":6627,"▁떠났다.":6628,"▁완전한":6629,"나와":6630,"▁둘러싸":6631,"▁지지":6632,"▁정확하게":6633,"▁무한":6634,"▁알아야":6635,"분한":6636,"유를":6637,"▁비추":6638,"▁잔인":6639,"▁이십":6640,"포를":6641,"▁연락을":6642,"▁제이":6643,"마을":6644,"▁묻고":6645,"▁창문":6646,"고한":6647,"�a�":6648,"▁작정":6649,"▁원칙":6650,"▁시선이":6651,"▁거리는":6652,"▁공주":6653,"▁기분을":6654,"▁m":6655,"▁말대로":6656,"▁따위":6657,"하여,":6658,"차에":6659,"▁인상을":6660,"▁미루":6661,"외로":6662,"▁전화가":6663,"▁국내":6664,"▁제3":6665,"용이":6666,"▁장면":6667,"▁3.":6668,"코는":6669,"▁발걸":6670,"해는":6671,"섭은":6672,"▁쓸쓸":6673,"▁단계":6674,"으로도":6675,"▁해보":6676,"▁서로를":6677,"▁사라졌다.":6678,"▁피아노":6679,"▁죽이고":6680,"▁상태에":6681,"▁돌아오는":6682,"▁비참":6683,"▁없었습니다.":6684,"▁다가왔다.":6685,"하가":6686,"르기":6687,"▁세운":6688,"▁미터":6689,"ch":6690,"원들은":6691,"감의":6692,"▁주요":6693,"▁경우에":6694,"▁딸을":6695,"변을":6696,"사도":6697,"▁덕분에":6698,"im":6699,"었기":6700,"▁계급":6701,"▁재판":6702,"희를":6703,"▁고정":6704,"린은":6705,"▁가로막":6706,"▁비롯한":6707,"▁놓인":6708,"세한":6709,"▁노란":6710,"▁가까워":6711,"▁싶어서":6712,"▁왕은":6713,"▁위험한":6714,"관으로":6715,"금이":6716,"▁첩":6717,"다의":6718,"먹을":6719,"▁밖의":6720,"▁했었다.":6721,"▁이유로":6722,"스에게":6723,"▁지나갔다.":6724,"하시는":6725,"▁전쟁을":6726,"▁센":6727,"이던":6728,"형은":6729,"▁대충":6730,"창을":6731,"▁떨고":6732,"▁뻗어":6733,"▁상당한":6734,"▁장애":6735,"▁간다.":6736,"▁말이었다.":6737,"인에":6738,"▁만나고":6739,"▁선생님이":6740,"▁올라갔다.":6741,"조차도":6742,"▁널리":6743,"▁\"만":6744,"아주":6745,"▁치켜":6746,"▁\"보":6747,"▁시체를":6748,"▁여기는":6749,"▁상태로":6750,"였고":6751,")은":6752,"▁예전":6753,"▁2년":6754,"치면":6755,"▁가벼운":6756,"▁최소한":6757,"▁바가":6758,"▁21":6759,"▁서울로":6760,"그가":6761,"담한":6762,"준의":6763,"▁\"잠":6764,"속의":6765,"받을":6766,"▁힘껏":6767,"▁당연":6768,"▁조금만":6769,"▁다리가":6770,"▁책임을":6771,"화된":6772,"님.":6773,"에서,":6774,"▁신체":6775,"▁쫓겨":6776,"씨와":6777,"▁눈에는":6778,"▁그곳을":6779,"▁들어섰다.":6780,"▁흥미":6781,"▁예쁜":6782,"▁달이":6783,"심은":6784,"▁행복한":6785,"▁소문":6786,"▁했고":6787,"▁것이나":6788,"▁피우":6789,"릅니다.":6790,"설이":6791,"▁배운":6792,"친다.":6793,"▁밤새":6794,"▁안겨":6795,"▁여자들은":6796,"to":6797,"▁피로":6798,"▁전개":6799,"▁경영":6800,"네의":6801,"▁굴러":6802,"현의":6803,"채를":6804,"선에":6805,"였지만":6806,"▁\"그럴":6807,"▁출근":6808,"킬로":6809,"▁땀을":6810,"▁뚝":6811,"▁그러다":6812,"재가":6813,"▁헤매":6814,"▁아쉬":6815,"고의":6816,"연구":6817,"▁런던":6818,"▁걸로":6819,"▁친척":6820,"▁수상":6821,"▁우리들":6822,"스러웠다.":6823,"▁신분":6824,"전으로":6825,"▁중에서도":6826,"▁노인은":6827,"▁아무튼":6828,"▁삼십":6829,"▁향하여":6830,"▁멈춰":6831,"당을":6832,"▁웃음이":6833,"▁모조리":6834,"▁주차":6835,"▁\"음":6836,"무리":6837,"▁신세":6838,"▁비서":6839,"▁없으니":6840,"장에게":6841,"▁그때는":6842,"▁때문입니다.":6843,"적은":6844,"▁돌이":6845,"▁밀고":6846,"밖에는":6847,"▁다해":6848,"▁인간을":6849,"부인":6850,"▁달빛":6851,"이면서":6852,"▁나가서":6853,"▁아뢰":6854,"▁학교에":6855,"▁바라는":6856,"▁\"어머":6857,"▁통신":6858,"▁\"서":6859,"▁목욕":6860,"▁안녕":6861,"▁않았습니다.":6862,"▁비어":6863,"▁걸어가":6864,"▁주십시오.":6865,"▁\"...":6866,"▁에이":6867,"▁주인이":6868,"족의":6869,"▁아끼":6870,"했었다.":6871,"▁넘는":6872,"▁강요":6873,"▁없는데":6874,"월에":6875,"▁자기도":6876,"▁엘리베이터":6877,"드라":6878,"▁줄은":6879,"▁충격을":6880,"▁반응을":6881,"▁흘렀다.":6882,"▁나중":6883,"▁부분을":6884,"▁중단":6885,"▁필요로":6886,"▁재능":6887,"하고자":6888,"▁쓸데":6889,"▁이른바":6890,"님과":6891,"형사가":6892,"▁오시":6893,"▁적도":6894,".\"하고":6895,"▁군데":6896,"들인":6897,"▁다닐":6898,"크는":6899,"▁생존":6900,"▁확실한":6901,"▁미워":6902,"▁선생이":6903,"▁써서":6904,"'고":6905,"▁부대":6906,"▁시작했다":6907,"▁취급":6908,"동생":6909,"리오":6910,"여.":6911,"중하게":6912,"▁전자":6913,"▁연극":6914,"기라도":6915,"000":6916,"▁보아도":6917,"르가":6918,"▁어째서":6919,"▁굳게":6920,"파가":6921,"▁것.":6922,"▁마셨다.":6923,"▁그보다":6924,"▁헤아":6925,"감한":6926,"▁올랐다.":6927,"▁극복":6928,"▁거친":6929,"▁이해가":6930,"쳐서":6931,"▁파란":6932,"소에서":6933,"▁아버지와":6934,"시로":6935,"▁연기":6936,"▁어조로":6937,"▁예언":6938,"▁보자.":6939,"▁퍼져":6940,"다가,":6941,"▁드러내":6942,"▁사랑하고":6943,"▁환자":6944,"▁무지":6945,"”하고":6946,"감과":6947,"▁아픔":6948,"━━":6949,"▁오셨":6950,"전에서":6951,"▁적의":6952,"었어.":6953,"▁분명했다.":6954,"▁대사":6955,"▁안개":6956,"▁여성의":6957,"▁있었으나":6958,"▁돌아갔다.":6959,"린이":6960,"▁미끄러":6961,"▁사용하는":6962,"▁셈이다.":6963,"▁G":6964,"▁이루고":6965,"▁증오":6966,"id":6967,"▁짝이":6968,"▁공항":6969,"▁처음에":6970,"▁\"아직":6971,"봤다.":6972,"▁저기":6973,"▁영어":6974,"료를":6975,"▁뒤,":6976,"▁비상":6977,"겠어요.\"":6978,"태가":6979,"▁며느":6980,"▁소비":6981,"▁인물이":6982,"▁반쯤":6983,"디는":6984,"▁소리도":6985,"▁페르":6986,"인지도":6987,"▁심하게":6988,"했는지":6989,"▁반대로":6990,"▁맞춰":6991,"▁침을":6992,"▁근육":6993,"▁순간에":6994,"하기에":6995,"▁왕이":6996,"▁<<":6997,"사이":6998,"사에서":6999,"▁강하게":7000,"▁사랑에":7001,"▁분명한":7002,"▁가방을":7003,"▁하나로":7004,"아니":7005,"▁등은":7006,"▁분위기를":7007,"시다.\"":7008,"▁소위":7009,"▁쓰러져":7010,"▁점령":7011,"죽을":7012,"▁관념":7013,"일,":7014,"▁딸이":7015,"보가":7016,"▁단순히":7017,"막을":7018,"▁친구를":7019,"▁손가락을":7020,"으로서의":7021,"롭고":7022,"▁차마":7023,"▁이상하게":7024,"▁내면":7025,"▁거요.":7026,"▁추측":7027,"(19":7028,"▁애써":7029,"▁이탈리아":7030,":(":7031,"▁손가락으로":7032,"us":7033,"▁댄":7034,"▁선물":7035,"▁병이":7036,"▁똑같이":7037,"▁\"여기":7038,"올랐다.":7039,"▁단단히":7040,"까지만":7041,"▁아기를":7042,"▁명을":7043,"▁귀가":7044,"▁뱉":7045,"으라고":7046,"▁질문에":7047,"▁삼아":7048,"▁엎드려":7049,"▁퉁":7050,"철의":7051,"▁예정":7052,"▁병원에":7053,"▁이겨":7054,"▁\"에":7055,"▁아저씨":7056,"녀를":7057,"▁한데":7058,"림의":7059,"▁시장":7060,"▁교통":7061,"▁유행":7062,"▁방어":7063,"▁언급":7064,"반에":7065,"직을":7066,"해.\"":7067,"▁점에서":7068,"▁둘은":7069,"▁첫번째":7070,"▁칸":7071,"앉았다.":7072,"▁엉뚱한":7073,"▁언어":7074,"▁떨었다.":7075,"▁자연스럽게":7076,"▁\"여보":7077,"▁멍청":7078,"▁지났":7079,"▁신뢰":7080,"군과":7081,"▁층":7082,"▁떠나는":7083,">>":7084,"▁말야.":7085,"▁생각하며":7086,"▁평범한":7087,"▁냈다.":7088,"만치":7089,"▁주문":7090,"호텔":7091,"▁돌아다":7092,"▁놈들이":7093,"30":7094,"비로":7095,"▁\"상":7096,"▁일치":7097,"▁품고":7098,"▁신문을":7099,"▁겹":7100,"▁\"경":7101,"▁어때":7102,"▁세자":7103,"▁초대":7104,"▁친절":7105,"▁강의":7106,"까지나":7107,"년은":7108,"▁달려갔다.":7109,"▁정치적":7110,"▁진실":7111,"▁여자에게":7112,"▁키가":7113,"▁보도":7114,"▁올리":7115,"▁기름":7116,"▁핀":7117,"▁\"아버":7118,"했는데,":7119,"▁우스":7120,"기나":7121,"복이":7122,"▁어머니와":7123,"▁죄송":7124,"▁자꾸만":7125,"km":7126,"▁운영":7127,"▁멍하니":7128,"답게":7129,"되었던":7130,"▁외로":7131,"▁갈수록":7132,"▁일으켰다.":7133,"▁자세를":7134,"▁꽃을":7135,"▁살을":7136,"▁전쟁이":7137,"수,":7138,"▁같기도":7139,"▁저절로":7140,"▁늘어놓":7141,"▁스물":7142,"▁규칙":7143,"▁담겨":7144,"구나.\"":7145,"했지만,":7146,"▁봐도":7147,"▁예의":7148,"▁\"신":7149,"▁재미있":7150,"▁변화를":7151,"▁추적":7152,"▁주위에":7153,"▁상기":7154,"▁연합":7155,"퍼센":7156,"▁파리":7157,"하,":7158,"▁상태를":7159,"량의":7160,"▁간단한":7161,"ec":7162,"▁흐르고":7163,"경으로":7164,"그렇":7165,"2)":7166,"▁몇번":7167,"▁있어요.\"":7168,"스코":7169,"세요,":7170,"▁못하겠":7171,"▁단호":7172,"▁입장":7173,"학이":7174,"▁있어서는":7175,"었어요.":7176,"▁감탄":7177,"▁손님이":7178,"성,":7179,"숙의":7180,"음에도":7181,"▁것이오.":7182,"형사는":7183,"권이":7184,"길에":7185,"▁\"으":7186,"▁보살":7187,"▁않으려고":7188,"▁맥주":7189,"▁마친":7190,"▁모순":7191,"▁위치를":7192,"▁훔쳐":7193,"▁되었습니다.":7194,"디가":7195,"지고,":7196,"▁읽는":7197,"10":7198,"어!":7199,"▁되었던":7200,"▁━━":7201,"▁무게":7202,"▁기타":7203,"각을":7204,"▁유난":7205,"▁195":7206,"▁쟁":7207,"▁무조건":7208,"하였다":7209,"▁두지":7210,"는,":7211,"▁정책":7212,"▁말이야.\"":7213,"▁놓았":7214,"▁카페":7215,"심에":7216,"혼자":7217,"▁거기에는":7218,"어요?\"":7219,"▁지껄":7220,"▁열려":7221,"치로":7222,"▁관광":7223,"▁돈은":7224,"버렸":7225,"▁고양":7226,"▁빛나는":7227,"▁조용한":7228,"▁사무실":7229,"레를":7230,"▁고집":7231,"▁나와서":7232,"▁어리석은":7233,"인들을":7234,"▁본질":7235,"터가":7236,"▁괜히":7237,"▁정확한":7238,"▁세우고":7239,"▁거다.":7240,"▁거래":7241,"상과":7242,"진한":7243,"▁\"두":7244,"사건":7245,"결을":7246,"▁즉,":7247,"▁이승":7248,"▁여학생":7249,"라우":7250,"맞은":7251,"취를":7252,"▁질투":7253,"괜찮":7254,"원과":7255,"▁영광":7256,"움과":7257,"▁이들의":7258,"▁우리도":7259,"▁막아":7260,"으리라.":7261,"별로":7262,"▁은밀":7263,"▁기념":7264,"▁우물":7265,"▁돌아보았다.":7266,"달러":7267,"▁얼음":7268,"▁깨어나":7269,"거리가":7270,"▁하긴":7271,"▁계신":7272,"옵니다.":7273,"▁실로":7274,"▁움직일":7275,"▁끝나고":7276,"▁무엇인지":7277,"▁예측":7278,"▁킬":7279,"▁모델":7280,"▁형사는":7281,"▁지켜보고":7282,"▁과정에서":7283,"▁\"저는":7284,"▁\"요":7285,"▁찾아내":7286,"▁도서":7287,"▁운동을":7288,"▁......":7289,"과를":7290,"▁차에":7291,"▁아닐까":7292,"배가":7293,"▁돌고":7294,"▁뒷모":7295,"▁공을":7296,"▁취해":7297,"▁비교적":7298,"▁부인의":7299,"▁타는":7300,"자리에":7301,"▁쌓여":7302,"▁기간":7303,"▁잡지":7304,"▁마리가":7305,"▁싶다는":7306,"공이":7307,"예요.\"":7308,"▁적용":7309,"▁득":7310,"▁오.":7311,"▁외출":7312,"갑게":7313,"파를":7314,"▁움직이지":7315,"낸다.":7316,"되어야":7317,"▁마찬가지였다.":7318,"댁은":7319,"▁이르는":7320,"▁떨리는":7321,"▁죽일":7322,"▁날,":7323,"▁살아남":7324,"▁걸친":7325,"▁의자":7326,"▁자세로":7327,"아요.":7328,"▁확대":7329,"▁갔을":7330,"▁시인":7331,"하곤":7332,"▁말라고":7333,"▁말해서":7334,"▁대해서도":7335,"▁능력이":7336,"▁한마디로":7337,"초가":7338,"▁그럼에도":7339,"그녀는":7340,"▁공장":7341,"▁솔직히":7342,"▁들어온":7343,"▁병을":7344,"▁상황에":7345,"▁매달려":7346,"곡을":7347,"▁화학":7348,"========":7349,"▁무섭게":7350,"▁올려다":7351,"▁던졌다.":7352,"▁여인은":7353,"▁차고":7354,"▁몸으로":7355,"▁보려고":7356,"▁공통":7357,"▁말했습니다.":7358,"▁군대":7359,"▁받아들여":7360,"▁세월이":7361,"겠지":7362,"▁\"현":7363,"▁자식이":7364,"가게":7365,"▁드라":7366,"느냐는":7367,"▁능력":7368,"▁따른":7369,"▁소년은":7370,"생활을":7371,"신으로":7372,"▁그러던":7373,"▁있어.\"":7374,"▁않았고,":7375,"▁하늘에":7376,"산으로":7377,"▁농담":7378,"익은":7379,"▁말인가.":7380,"▁사라진":7381,"▁사정을":7382,"▁마사":7383,"▁준다.":7384,"임은":7385,"▁작전":7386,"▁아니지만":7387,"▁프리":7388,"▁6월":7389,"봐,":7390,"▁저었다.":7391,"▁기독교":7392,"움에":7393,"▁왕의":7394,"▁나오고":7395,"▁사항":7396,"▁말하였다.":7397,"▁스위":7398,"작이":7399,"▁인터":7400,"▁회장":7401,"▁풍부":7402,"머리를":7403,"이제":7404,"▁오전":7405,"▁용기를":7406,"국으로":7407,"▁보안":7408,"▁거슬":7409,"▁옵니다.":7410,"▁안타까":7411,"부인은":7412,"▁그들과":7413,"▁각종":7414,"▁사귀":7415,"재의":7416,"▁정복":7417,"▁서두":7418,"시키기":7419,"▁보낼":7420,"▁유태":7421,"▁고독":7422,"▁이상이":7423,"▁들리는":7424,"▁물려":7425,"▁태도":7426,"▁전기":7427,"▁싸움을":7428,"▁본래":7429,"▁지불":7430,"▁부근":7431,"▁전차":7432,"▁놈의":7433,"▁선생님은":7434,"▁잡을":7435,"빈은":7436,"었는데,":7437,"▁눈부":7438,"▁않는다고":7439,"▁도착한":7440,"일으":7441,"▁있나":7442,"▁문명":7443,"▁맞지":7444,"▁것이기":7445,"▁금지":7446,"스테":7447,"태는":7448,"▁지르며":7449,"▁쳐다보고":7450,"▁람세":7451,"▁없었기":7452,"권의":7453,"난다.":7454,"▁하밤":7455,"▁법을":7456,"▁전날":7457,"▁합니다.\"":7458,"▁방에서":7459,"▁존재를":7460,"▁존재하는":7461,"▁울음을":7462,"▁수입":7463,"먹은":7464,"▁실내":7465,"▁대답이":7466,"목에":7467,"으신":7468,"▁하려":7469,"▁맡겨":7470,"소설":7471,"▁바른":7472,"▁뚱":7473,"▁되돌":7474,"▁묵묵":7475,"▁손은":7476,"▁점은":7477,"당이":7478,"해,":7479,"▁뒤에는":7480,"▁다음에는":7481,"발로":7482,"▁것이니":7483,"▁실현":7484,"▁내려갔다.":7485,"색으로":7486,"▁녀석이":7487,"ig":7488,"오던":7489,"▁말의":7490,"▁사실에":7491,"▁나라가":7492,"부에서":7493,"▁제주":7494,"▁알아서":7495,"▁거라는":7496,"▁사실이다.":7497,"▁\"이런":7498,"▁억울":7499,"▁텐":7500,"속이":7501,"적의":7502,"▁주기":7503,"▁내려와":7504,"▁통하여":7505,"▁그렇다.":7506,"▁차이":7507,"▁계단":7508,"▁등으로":7509,"▁충분한":7510,"▁거지.":7511,"▁의무":7512,"▁건축":7513,"▁and":7514,"▁\"인":7515,"▁지고":7516,"▁무어":7517,"류를":7518,"▁먹지":7519,"라니":7520,"▁연상":7521,"럽고":7522,"▁파견":7523,"▁든다.":7524,"다리":7525,"들처럼":7526,"린의":7527,"프의":7528,"▁오르는":7529,"▁간직":7530,"▁베풀":7531,"▁끔찍한":7532,"▁일년":7533,"()가":7534,"▁슨":7535,"했으며,":7536,"▁미치":7537,"겠습니까?":7538,"▁보니까":7539,"▁하는데,":7540,"▁딱딱":7541,"대며":7542,"▁나이트":7543,"▁어느날":7544,"▁있는가":7545,"▁노인이":7546,"▁실려":7547,"▁d":7548,"됩니다.":7549,"워야":7550,"▁술잔을":7551,"연하게":7552,"▁그것에":7553,"▁웃으면서":7554,"▁창문을":7555,"수도":7556,"어서는":7557,"▁술이":7558,"▁193":7559,"▁더니":7560,"▁것인가.":7561,"▁박사가":7562,"크가":7563,"▁고속":7564,"▁있을까":7565,"▁완전":7566,"지나":7567,"▁수단":7568,"▁바르":7569,"국에서":7570,"▁어밤":7571,"▁8월":7572,"라고는":7573,"▁당신도":7574,"▁아직은":7575,"▁사라지고":7576,"컨대":7577,"▁하더":7578,"감으로":7579,"▁특수":7580,"▁밝아":7581,"▁\"동":7582,"▁바꾸어":7583,"▁행위를":7584,"▁이름으로":7585,"지라도":7586,"▁한국의":7587,"▁펜":7588,"▁귀여":7589,"▁친구는":7590,"▁참가":7591,"▁팬티":7592,"▁매력":7593,"▁4.":7594,"▁담긴":7595,"▁다가갔다.":7596,"▁할머니는":7597,"▁언젠가는":7598,"되게":7599,"▁마신":7600,"▁과거의":7601,"론은":7602,"스럽고":7603,"▁신선":7604,"즈는":7605,"▁살다.":7606,"▁최종":7607,"▁신은":7608,"▁있었어요.":7609,"으셨":7610,"un":7611,"론이":7612,"▁자아":7613,"▁쳐다보며":7614,"풍이":7615,"▁획":7616,"▁대리":7617,"법이":7618,"▁속도로":7619,"▁배신":7620,"▁경험이":7621,"▁몰라.":7622,"피를":7623,"▁묻어":7624,"▁일어나서":7625,"▁복잡한":7626,"▁구분":7627,"▁벗고":7628,"▁0":7629,"주와":7630,"▁그거":7631,"▁읽을":7632,"갈아":7633,"왕을":7634,"▁돌아다니":7635,"일로":7636,"루만":7637,"▁일요일":7638,"▁주먹을":7639,"▁살아야":7640,"▁화려한":7641,"▁유난히":7642,"▁주도":7643,"▁되살":7644,"▁빌어":7645,"▁결국은":7646,"부와":7647,"▁목격":7648,"불이":7649,"태를":7650,"▁정도가":7651,"▁페이시아":7652,"▁놀랍":7653,"▁일그러":7654,"▁이번에":7655,"▁시키":7656,"▁추진":7657,"▁23":7658,"▁교환":7659,"▁술에":7660,"▁to":7661,"▁했어요.":7662,"졌던":7663,"▁바다를":7664,"대기":7665,"학은":7666,"▁나쁘":7667,"적이었다.":7668,"후에":7669,"▁같아요.":7670,"▁36":7671,"긴다.":7672,"▁이대로":7673,"▁나무를":7674,"크라":7675,"한을":7676,"▁상대가":7677,"▁불안한":7678,"▁시가":7679,"▁다들":7680,"▁현재의":7681,"화에":7682,"▁지극히":7683,"역에":7684,"한테는":7685,"▁하늘의":7686,"▁전화번":7687,"▁자연의":7688,"절이":7689,"▁어릴":7690,"▁탄생":7691,"(:":7692,"▁얘기는":7693,"▁알려진":7694,"자리를":7695,"▁서른":7696,"열을":7697,"▁골짜":7698,"▁상태가":7699,"▁잃어버":7700,"되었을":7701,"당에":7702,"▁잡는":7703,"▁애쓰":7704,"▁힘으로":7705,"▁창고":7706,"▁있습니까?":7707,"▁신하":7708,"나라의":7709,"더러":7710,"▁변화가":7711,"▁직원":7712,"고.":7713,"유한":7714,"▁알려져":7715,"버리고":7716,"▁들리지":7717,"▁설명해":7718,"끄러미":7719,"군에":7720,"버리":7721,"▁올렸다.":7722,"▁탕":7723,"▁꿈꾸":7724,"▁스스로를":7725,"선가":7726,"음의":7727,"▁아이들의":7728,"▁맡아":7729,"▁독특":7730,"▁7월":7731,"▁읍":7732,"면에서":7733,"▁어린이":7734,"▁경험을":7735,"▁일주일":7736,"처를":7737,"졌을":7738,"▁사주":7739,"름한":7740,"▁럭":7741,"▁움직여":7742,"▁경찰이":7743,"보면":7744,"▁수만":7745,"▁인상":7746,"▁결정을":7747,"토를":7748,"▁접어":7749,"▁황제":7750,"층으로":7751,"▁어떨":7752,"▁저택":7753,"▁택시":7754,"▁4월":7755,"▁오래된":7756,"▁음악을":7757,"▁다음,":7758,"▁만들어진":7759,"▁팔아":7760,"▁신사":7761,"▁절을":7762,"와,":7763,"었다가":7764,"▁60":7765,"크의":7766,"▁아들의":7767,"▁요란":7768,"▁분위기가":7769,"령의":7770,"▁아닌가?":7771,"라구.":7772,"▁비밀을":7773,"▁모른다고":7774,"쪽이":7775,"▁알아듣":7776,"▁쌓아":7777,"님도":7778,"적,":7779,"류가":7780,"▁앞의":7781,"공의":7782,"된다는":7783,"▁거북":7784,"▁히틀":7785,"▁하려는":7786,"▁피워":7787,"▁10년":7788,"▁마시는":7789,"▁194":7790,"정과":7791,"▁있었다고":7792,"▁갈아입":7793,"음으로":7794,"정말":7795,"▁고기":7796,"련의":7797,"해의":7798,"▁그라":7799,"(?":7800,"날이":7801,"▁동양":7802,"▁묘한":7803,"▁좋았다.":7804,"▁상황에서":7805,"▁발견한":7806,"▁결과가":7807,"▁좋게":7808,"▁챙겨":7809,"▁그에게는":7810,"▁수업":7811,"▁그러나,":7812,"결에":7813,"▁여신":7814,"▁과장":7815,"▁없었고,":7816,"▁행복을":7817,"사하고":7818,"▁비단":7819,"▁공식":7820,"▁권총을":7821,"▁그곳은":7822,"▁확보":7823,"▁정이":7824,"▁도전":7825,"▁선언":7826,"▁보면,":7827,"▁때려":7828,"▁허벅":7829,"▁그나마":7830,"▁의사가":7831,"▁법률":7832,"▁부를":7833,"▁냄새를":7834,"▁생기는":7835,"▁된다면":7836,"▁국가의":7837,"▁식민":7838,"▁하자.":7839,"하듯이":7840,"▁파티":7841,"▁맞고":7842,"▁따르면":7843,"**":7844,"매가":7845,"▁부분이":7846,"▁교육을":7847,"▁배달":7848,"▁생활에":7849,"▁윈":7850,"으려는":7851,"▁거리가":7852,"▁불빛이":7853,"▁승용":7854,"▁근처에":7855,"▁나서는":7856,"▁막을":7857,"▁기준":7858,"▁비디오":7859,"▁9월":7860,"▁부담":7861,"▁증가":7862,"▁내용이":7863,"▁틀림없":7864,"▁자전":7865,"▁마세요.":7866,"▁감았다.":7867,"▁있을지도":7868,"▁할머니가":7869,"▁막상":7870,"▁빨아":7871,"락의":7872,"▁엉덩이를":7873,"▁한창":7874,"▁작업을":7875,"▁조상":7876,"병은":7877,"▁무엇인가를":7878,"▁전환":7879,"과,":7880,"▁끼여":7881,"▁올린":7882,"▁으로":7883,"시오.":7884,"▁바늘":7885,"▁구부":7886,"▁취한":7887,"▁보장":7888,"는지는":7889,"▁들면":7890,"▁소용이":7891,"이었는데":7892,"댁이":7893,"▁이슬람":7894,"하늘":7895,"▁말일":7896,"▁미군":7897,"해진다.":7898,"▁내릴":7899,"▁고객":7900,"▁서구":7901,"▁임명":7902,"▁포로":7903,"▁신라":7904,"▁\"바":7905,"▁들어가서":7906,"▁재미있는":7907,"▁때문이다":7908,"▁느끼며":7909,"▁관련된":7910,"▁부르고":7911,"▁물끄러미":7912,"스(":7913,"▁\"그래도":7914,"▁섞여":7915,"▁버릴":7916,"▁않는다면":7917,"▁입이":7918,"▁쥐어":7919,"롭지":7920,"토바":7921,"▁우두":7922,"▁번은":7923,"▁세계에":7924,"▁그로":7925,"▁따랐다.":7926,"▁곳곳":7927,"위와":7928,"▁공허":7929,"▁올바":7930,"▁\"공":7931,"하는데":7932,"▁장기":7933,"▁약한":7934,"▁살아가":7935,"▁그것으로":7936,"성도":7937,"▁달랐다.":7938,"▁피어":7939,"▁괘":7940,"▁받으며":7941,"▁호소":7942,"▁열린":7943,"▁기억하고":7944,"▁날아가":7945,"버트":7946,"▁억제":7947,"▁마리의":7948,"▁귀찮":7949,"되었다":7950,"재는":7951,"▁대대":7952,"▁글쎄":7953,"각이":7954,"▁싸늘":7955,"아저":7956,"▁허공":7957,"▁알리":7958,"▁가지를":7959,"▁3월":7960,"▁보아야":7961,"▁섰":7962,"▁퇴근":7963,"▁흘리며":7964,"▁주세요.":7965,"ver":7966,"▁싶을":7967,"▁잠자코":7968,"▁뜯어":7969,"▁찾았다.":7970,"금은":7971,"습니다만":7972,"▁장히":7973,"▁노력을":7974,"▁않았다는":7975,"▁할아버지":7976,"▁어루만":7977,"▁알몸":7978,"론의":7979,"병의":7980,"▁링":7981,"▁역사를":7982,"▁같으면":7983,"▁신호":7984,"▁서방":7985,"▁\"참":7986,"바닥에":7987,"▁셋째":7988,"여섯":7989,"체로":7990,"▁나자":7991,"▁적어":7992,"▁둘다":7993,"ter":7994,"동은":7995,"▁퍼부":7996,"▁그레":7997,"▁뜻.":7998,"▁상호":7999,"▁완벽한":8000,"안에서":8001,"▁않았기":8002,"▁피할":8003,"들만":8004,"잡을":8005,"▁것뿐":8006,"▁고무":8007,"쪽은":8008,"▁울부":8009,"▁여기까지":8010,"▁정당":8011,"▁이만":8012,"▁그러면서도":8013,"▁우려":8014,"▁이빨":8015,"▁무얼":8016,"▁안에는":8017,"그러자":8018,"▁가리켰다.":8019,"▁기쁨을":8020,"▁거꾸":8021,"▁장례":8022,"▁불러일으":8023,"-2":8024,"▁가입":8025,"▁했는데,":8026,"책이":8027,"▁번갈아":8028,"▁않았고":8029,"▁멈추었다.":8030,"▁구석에":8031,"손이":8032,"자나":8033,"훈을":8034,"▁기원":8035,"▁신념":8036,"새를":8037,"▁닦아":8038,"▁부른":8039,"▁드나":8040,"▁걷고":8041,"움은":8042,"!\"하고":8043,"▁이르기까지":8044,"▁어떡":8045,"와도":8046,"점은":8047,"▁못지":8048,"▁카르":8049,"리아는":8050,"스턴":8051,"▁적당한":8052,"▁애가":8053,"▁묻지":8054,"'로":8055,"▁두루":8056,"▁시작하는":8057,"▁몸부":8058,"▁쓰레기":8059,"▁단정":8060,"▁택시를":8061,"▁\"......\"":8062,"▁데이빗":8063,"▁수수":8064,"▁대상이":8065,"▁주무":8066,"▁아랑":8067,"▁목에":8068,"▁10월":8069,"한테서":8070,"▁광주":8071,"▁말씀드":8072,"▁코를":8073,"▁풀려":8074,"거를":8075,"▁말과":8076,"▁대립":8077,"▁고용":8078,"▁공개":8079,"▁묵묵히":8080,"▁있었어.":8081,"▁벌어진":8082,"▁계속했다.":8083,"냐는":8084,"▁노출":8085,"▁경우,":8086,"▁마지":8087,"▁간단히":8088,"▁창밖":8089,"▁파묻":8090,"▁그랬다.":8091,"▁방안에":8092,"▁다시금":8093,"▁왔다는":8094,"▁은근히":8095,"편으로":8096,"▁생생":8097,"▁학문":8098,"▁주인은":8099,"당할":8100,"▁갖지":8101,"▁판매":8102,"▁휘두":8103,"▁영원한":8104,"런히":8105,"▁의존":8106,"▁좀처럼":8107,"했으며":8108,"▁전체가":8109,"▁절반":8110,"▁우뚝":8111,"들이다.":8112,"▁생각했던":8113,"▁슬퍼":8114,"▁아득":8115,"▁주위의":8116,"▁의식이":8117,"▁놀랄":8118,"▁나라에":8119,"▁발견했다.":8120,"되었다는":8121,"심의":8122,"▁옮기":8123,"▁벅":8124,"▁배치":8125,"▁술집":8126,"구로":8127,"▁자신과":8128,"▁\"그러나":8129,"▁이의":8130,"▁위의":8131,"▁방식":8132,"▁질러":8133,"먹는":8134,"▁두들":8135,"층의":8136,"▁교수는":8137,"강을":8138,"계로":8139,"잖아.\"":8140,"▁일상":8141,"▁인기":8142,"▁것이며":8143,"치면서":8144,"▁흉내":8145,"▁않지만":8146,"그라":8147,"▁소식":8148,"▁듣자":8149,"중이":8150,"▁하면,":8151,"▁정지":8152,"군,":8153,"너는":8154,"렸습니다.":8155,"▁순수":8156,"▁순수한":8157,"▁태워":8158,"▁놀라서":8159,"▁기도를":8160,"▁얼어붙":8161,"os":8162,"권은":8163,"다)":8164,"위에서":8165,"▁향한":8166,"▁옮겼다.":8167,"것이":8168,"▁한숨":8169,"▁잠들어":8170,"▁당신과":8171,"▁소파에":8172,"▁사기":8173,"▁치며":8174,"▁기둥":8175,"▁같았다":8176,"▁내용은":8177,"▁그놈":8178,"▁되었고,":8179,"\"하고":8180,"▁삼촌":8181,"▁즐기":8182,"▁깨끗이":8183,"▁공급":8184,"▁베르":8185,"▁이번엔":8186,"화와":8187,"▁시작된":8188,"▁녹음":8189,"발의":8190,"▁내다보":8191,"▁전국":8192,"▁일으킨":8193,"▁대형":8194,"▁그래?":8195,"▁침입":8196,"▁검사":8197,"▁항복":8198,"▁내던":8199,"답을":8200,"▁대문":8201,"▁아니고,":8202,"▁광경을":8203,"하겠다는":8204,"원,":8205,"▁치는":8206,"▁돌아오지":8207,"▁우주의":8208,"▁생각으로":8209,"▁초라":8210,"▁힐끗":8211,">의":8212,"▁설마":8213,"▁그때까지":8214,"▁방안을":8215,"▁기생":8216,"들지":8217,"▁물었다":8218,"ir":8219,"▁소식이":8220,"▁집안에":8221,"러는":8222,"▁시야":8223,"▁금세":8224,"▁\"네.\"":8225,"▁자기에게":8226,"▁메시":8227,"았다는":8228,"▁줄곧":8229,"▁일정한":8230,"오늘":8231,"▁셈이":8232,"▁아시아":8233,"▁그러지":8234,"▁자기는":8235,"쳤다":8236,"▁고개":8237,"▁마음속으로":8238,"▁끝날":8239,"▁나누고":8240,"▁미술":8241,"▁연기를":8242,"▁사건은":8243,"▁아내와":8244,"체에":8245,"십니까?\"":8246,"▁보여주는":8247,"▁오기":8248,"ag":8249,"▁허용":8250,"보게":8251,"카는":8252,"▁관해":8253,"해하는":8254,"▁것입니다":8255,"▁쓰여":8256,"비와":8257,"▁개월":8258,"▁\"알았":8259,"▁\"엄":8260,"▁부상":8261,"▁무사히":8262,"셔츠":8263,"행이":8264,"▁자의":8265,"▁슬쩍":8266,"잡아":8267,"▁바라본다.":8268,"▁흩어져":8269,"▁끝내고":8270,"▁간절":8271,"▁오랜만에":8272,"라!\"":8273,"▁양쪽":8274,"철을":8275,"터에":8276,"▁놀랐":8277,"▁축하":8278,"▁시대에":8279,"▁기꺼":8280,"이었기":8281,"▁우리들이":8282,"▁하는지":8283,"▁침묵이":8284,"드레":8285,"들.":8286,"▁부풀":8287,"▁독자":8288,"틴은":8289,"▁스님":8290,"▁집착":8291,"▁할지라도":8292,"▁있다면,":8293,"우며":8294,"▁은혜":8295,"▁일찍이":8296,"▁지워":8297,"▁이르렀":8298,"▁산을":8299,"▁모험":8300,"▁뛰쳐":8301,"▁탁자":8302,"▁깊숙이":8303,"▁맛이":8304,"▁움직이고":8305,"▁이끌어":8306,"▁모니":8307,"데.":8308,"▁몇년":8309,"▁한편으로는":8310,"움으로":8311,"▁이치":8312,"든다.":8313,"▁발자국":8314,"세요?\"":8315,"십니다.":8316,"▁공손":8317,"만으로도":8318,"음.":8319,"▁지쳐":8320,"▁전하":8321,"▁들어선":8322,"▁외면":8323,"▁노릇을":8324,"었지.":8325,"▁후에는":8326,"▁각기":8327,"▁마는":8328,"▁제한":8329,"▁날은":8330,"▁골라":8331,"▁리는":8332,"▁정부의":8333,"▁사건의":8334,"▁다투":8335,"▁없었을":8336,"▁떠나지":8337,"▁본격":8338,"▁무심":8339,"▁운명을":8340,"ke":8341,"▁태평":8342,"▁따르는":8343,"▁되었다는":8344,"▁두었다.":8345,"▁활용":8346,"▁무서워":8347,"▁냈":8348,"르면서":8349,"▁남자들은":8350,"▁한명":8351,"▁모시고":8352,"▁그러고는":8353,"▁더러운":8354,"▁남자들이":8355,"비에":8356,"관과":8357,"▁\"어머니":8358,"▁서울에":8359,"▁광고":8360,"▁촌":8361,"내려":8362,"▁정신적":8363,"▁침묵을":8364,"▁라디오":8365,"▁다가와":8366,"회에서":8367,"▁때와":8368,"▁데에":8369,"▁박정":8370,"▁내쉬었다.":8371,"▁만났다.":8372,"▁그래야":8373,"길은":8374,"회는":8375,"▁제이크":8376,"▁심리":8377,"▁덧붙였다.":8378,"대와":8379,"▁제임":8380,"ur":8381,"▁무엇보다":8382,"별을":8383,"사리":8384,"▁없다면":8385,"▁예외":8386,"유가":8387,"▁나이에":8388,"▁입술이":8389,"▁돼지":8390,"▁황홀":8391,"▁가치가":8392,"\"라고":8393,"그의":8394,"▁날짜":8395,"▁백수":8396,"▁제작":8397,"▁차는":8398,"▁연습":8399,"▁있으므로":8400,"▁주목":8401,"▁적혀":8402,"▁외에":8403,"▁보관":8404,"범이":8405,"▁\"김":8406,"▁지루":8407,"▁정신없이":8408,"▁곤란":8409,"조선":8410,"▁영혼을":8411,"▁명백":8412,"▁극히":8413,"만큼이나":8414,"od":8415,"▁지키는":8416,"▁정일":8417,"▁스며":8418,"인데도":8419,"▁대체로":8420,"습니까":8421,"층에":8422,"▁불쾌":8423,"▁없었고":8424,"으니까요.":8425,"▁물러나":8426,"ap":8427,"e�":8428,"혹한":8429,"세로":8430,"보기":8431,"▁주의를":8432,"▁약을":8433,"서로":8434,"▁후의":8435,"▁식물":8436,"▁꾸며":8437,"겠어?":8438,"▁더욱이":8439,"▁아테":8440,"▁동정":8441,"▁땅이":8442,"▁들여다":8443,"받아":8444,"아아":8445,"▁들러":8446,"▁영화를":8447,"▁\"스":8448,"▁하러":8449,"▁인공":8450,"▁떨어지":8451,"▁묻혀":8452,"물어":8453,"▁전체를":8454,"▁소나무":8455,"▁황급히":8456,"▁효과를":8457,"▁부자":8458,"주의의":8459,"러진":8460,"▁그로부터":8461,"▁울부짖":8462,"▁알렉":8463,"였기":8464,"▁분리":8465,"▁나타나지":8466,"▁드릴":8467,"▁\"당신이":8468,"▁있으나":8469,"오?\"":8470,"탄이":8471,"포가":8472,"▁상대로":8473,"▁바싹":8474,"사들이":8475,"▁조금은":8476,"▁일어나지":8477,"겠지요.":8478,"덩이":8479,"▁없습니다.\"":8480,"▁\"그러면":8481,"▁아프리카":8482,"침이":8483,"▁유치":8484,"▁요리":8485,"▁누나":8486,"당하고":8487,"▁얼핏":8488,"▁활동을":8489,"▁드러나":8490,"▁끌어안":8491,"▁다녔다.":8492,"아지":8493,"▁있는가?":8494,"▁만다.":8495,"▁반사":8496,"오!":8497,"▁의도":8498,"▁200":8499,"▁불쌍한":8500,"▁래":8501,"옥이":8502,"▁좋다고":8503,"이야말로":8504,"거워":8505,"▁\"노":8506,"▁제정":8507,"았고,":8508,"▁따위는":8509,"▁외에는":8510,"▁이상은":8511,"▁집안의":8512,"검을":8513,"▁문제로":8514,"▁베이":8515,"요한":8516,"▁모습이었다.":8517,"겠소.":8518,"▁자녀":8519,"▁입원":8520,"들로부터":8521,"▁일들을":8522,"▁\"그리고":8523,"▁\"최":8524,"▁돌리고":8525,"▁꿈틀":8526,"씨도":8527,"점으로":8528,"▁진심으로":8529,"거리를":8530,"신에":8531,"▁가치를":8532,"▁일들이":8533,"▁항공":8534,"▁\"그래.":8535,"▁오빠가":8536,"야!\"":8537,"▁정작":8538,"▁같아.":8539,"▁거칠게":8540,"학과":8541,"▁불리는":8542,"▁오리":8543,"▁날마다":8544,"일까.":8545,"▁전설":8546,"▁막혀":8547,"▁누구에게":8548,"▁둘러보았다.":8549,"▁\"자네":8550,"▁할아버지는":8551,"는다는":8552,"재로":8553,"▁하며,":8554,"▁조금이라도":8555,"▁보리":8556,"▁목사":8557,"▁적응":8558,"날을":8559,"달아":8560,"▁셈이었다.":8561,"▁자식을":8562,"▁기초":8563,"▁의하여":8564,"리아의":8565,"▁찔러":8566,"▁했어.":8567,"▁데다":8568,"▁통치":8569,"▁처음엔":8570,"▁형태로":8571,"▁미소가":8572,"▁연속":8573,"▁되어야":8574,"즈의":8575,"▁사람에":8576,"▁했다고":8577,"▁\"\"그":8578,"▁스페":8579,"▁종업":8580,"▁살아온":8581,"▁깊게":8582,"▁몰두":8583,"듯이,":8584,"▁\"사람":8585,"▁샤워":8586,"타를":8587,"▁지냈":8588,"▁제안":8589,"▁동안이나":8590,"되자":8591,"화되어":8592,"▁실행":8593,"▁\"누구":8594,"▁시작되었다.":8595,"▁논쟁":8596,"가와":8597,"대,":8598,"▁걸어나":8599,"▁말하며":8600,"▁중이었다.":8601,"▁성큼":8602,"규는":8603,"열이":8604,"▁편집":8605,"싱턴":8606,"▁제국":8607,"▁않는다":8608,"▁없었지만":8609,"달이":8610,"▁사막":8611,"▁..":8612,"ut":8613,"▁들었다":8614,"▁느껴지는":8615,"▁섹스":8616,"▁여기에서":8617,"▁권력":8618,"▁사람이다.":8619,"▁\"그가":8620,"▁입으로":8621,"▁달라붙":8622,"추를":8623,"▁이곳을":8624,"▁깨끗한":8625,"용의":8626,"▁기술을":8627,"▁거리며":8628,"▁별다른":8629,"▁마음속":8630,"▁두리":8631,"▁많고":8632,"▁벌레":8633,"▁준비가":8634,"짐을":8635,">,":8636,"자리":8637,"▁\"괜찮":8638,"▁저녁에":8639,"▁실수":8640,"▁적지":8641,"▁자유를":8642,"순간":8643,"악의":8644,"적이다.":8645,"▁1,":8646,"▁존재가":8647,"▁파이":8648,"ab":8649,"루가":8650,"▁무신":8651,"▁붙은":8652,"숨에":8653,"▁The":8654,"렸고,":8655,"▁모르겠다.":8656,"▁마이크":8657,"▁그만두":8658,"▁즐겁게":8659,"▁이집트":8660,"남의":8661,"사장":8662,"▁물은":8663,"시면":8664,"천을":8665,"▁찾기":8666,"▁교도":8667,"데이":8668,"주인":8669,"▁모으":8670,"소리에":8671,"▁남긴":8672,"▁지켜보":8673,"~~":8674,"악을":8675,"▁어이":8676,"▁어리둥":8677,"▁너머로":8678,"▁중이":8679,"▁결론을":8680,"▁환영":8681,"▁세계에서":8682,"▁거야?\"":8683,"▁불가능한":8684,"▁키스":8685,"▁거느리고":8686,"▁독특한":8687,"▁계약":8688,"▁5.":8689,"▁비행기":8690,"▁꼴이":8691,"▁고양이":8692,"▁맞추어":8693,"▁걸터":8694,"▁예수":8695,"인지는":8696,"▁달라는":8697,"▁아닐까?":8698,"▁하겠다.":8699,"▁무의식":8700,"법은":8701,"트라":8702,"▁중독":8703,"▁반항":8704,"까지의":8705,"▁얼굴에는":8706,"초에":8707,"▁동일":8708,"▁당할":8709,"동으로":8710,"▁않던":8711,"왔다":8712,"▁목적을":8713,"마땅":8714,"먹고":8715,"▁소중한":8716,"▁세웠다.":8717,"▁경멸":8718,"▁태도로":8719,"▁온몸이":8720,"▁투덜":8721,"리던":8722,"▁말아야":8723,"▁어렸을":8724,"▁의아":8725,"▁없던":8726,"▁어느덧":8727,"▁일어나고":8728,"급하게":8729,"▁192":8730,"▁보았다":8731,"▁개인적인":8732,"원도":8733,"▁점이다.":8734,"▁오염":8735,"▁키스를":8736,"▁태어났":8737,"▁영국의":8738,"▁맡고":8739,"▁12월":8740,"1.":8741,"백을":8742,"트리":8743,"▁고문":8744,"▁이전에":8745,"▁실시":8746,"▁가늘":8747,"▁내의":8748,"▁거꾸로":8749,"▁마누":8750,"▁나가고":8751,"▁최대한":8752,"▁문제의":8753,"▁서성":8754,"▁맡은":8755,"▁없지.":8756,"▁지구의":8757,"▁││":8758,"▁대꾸했다.":8759,"에요.\"":8760,"▁만나서":8761,"\",":8762,"버리는":8763,"로에":8764,"통에":8765,"▁조나":8766,"▁선생의":8767,"▁웅크":8768,"사하는":8769,"▁이나":8770,"되면서":8771,"▁새롭게":8772,"▁땀이":8773,"타의":8774,"▁싸여":8775,"▁벽을":8776,"▁안돼.":8777,"▁스테파":8778,"관에서":8779,"▁바를":8780,"▁재산":8781,"▁폭력":8782,"▁꼬리를":8783,"무슨":8784,"겠어.\"":8785,"em":8786,"테면":8787,"▁분위기":8788,"▁대지":8789,"▁떠들":8790,"▁생활이":8791,"i�":8792,"씨에게":8793,"적에":8794,"▁싶었던":8795,"▁기꺼이":8796,"▁가입을":8797,"▁연락이":8798,"▁수치":8799,"▁모릅니다.":8800,"▁희망을":8801,"었는지":8802,"▁오두":8803,"▁재산을":8804,"군에게":8805,"▁행정":8806,"▁에너지":8807,"▁영역":8808,"2.":8809,"려야":8810,"적한":8811,"차의":8812,"▁적을":8813,"▁속삭였다.":8814,"만도":8815,"▁여느":8816,"▁세상은":8817,"▁옳은":8818,"▁보였다":8819,"▁성격을":8820,"▁여간":8821,"▁뒤덮":8822,"▁이르렀다.":8823,"옥의":8824,"▁전략":8825,"▁고작":8826,"▁플로":8827,"아무":8828,"▁심장":8829,"▁사건에":8830,"였는데":8831,"▁뜻으로":8832,"▁이어서":8833,"▁남북":8834,"하지.":8835,"어린":8836,"▁보러":8837,"▁고기를":8838,"▁해줄":8839,"▁받아야":8840,"▁마셔":8841,"룩한":8842,"▁사형":8843,"▁학교에서":8844,"오르는":8845,"잖은":8846,"▁찾지":8847,"▁없소.":8848,"▁새벽에":8849,"우스의":8850,"▁\"민":8851,"▁것들은":8852,"▁발이":8853,"▁평양":8854,"잖아?":8855,"▁넘어서":8856,"▁낀":8857,"지요":8858,"▁머리는":8859,"▁너무나도":8860,"▁아라":8861,"▁회색":8862,"었으나":8863,"▁사모":8864,"▁학생들이":8865,"▁있었으며,":8866,"▁따라가":8867,"▁여유가":8868,"▁협박":8869,"이런":8870,"▁부축":8871,"▁공기":8872,"▁느닷":8873,"▁누구를":8874,"▁표정이었다.":8875,"▁이후로":8876,"교도":8877,"▁오토바":8878,"▁스티":8879,"▁몸의":8880,"▁책은":8881,"▁꽃이":8882,"▁점에":8883,"▁뿐,":8884,"이라고는":8885,"▁행동이":8886,"▁아낙":8887,"\"고":8888,"▁열두":8889,"▁참모":8890,"▁알아볼":8891,"▁가보":8892,"하다면":8893,"▁죽게":8894,"▁근대":8895,"▁솟구":8896,"▁성격이":8897,"▁아니다":8898,"▁성취":8899,"▁책이":8900,"▁가지는":8901,"▁방식으로":8902,"▁앞장":8903,"▁테니까.":8904,"▁깔려":8905,"밖으로":8906,"웠다":8907,"▁싶어하는":8908,"량한":8909,"련이":8910,"▁2월":8911,"▁환자의":8912,"▁일이라고":8913,"▁덮어":8914,"▁희미한":8915,"▁가죽":8916,"▁합니다":8917,"▁어리석":8918,"마스":8919,"▁이고":8920,"▁무력":8921,"▁몸에서":8922,"▁속에서도":8923,"▁즐겨":8924,"▁어둠이":8925,"▁하듯":8926,"▁잠재":8927,"▁드물":8928,"느냐?\"":8929,"▁들여다보았다.":8930,"학자":8931,"혹시":8932,"▁상실":8933,"▁도입":8934,"세,":8935,"▁시작할":8936,"▁어려울":8937,"▁\"네가":8938,"▁가끔씩":8939,"▁흑인":8940,"하지만,":8941,"▁이들을":8942,"▁친구의":8943,"▁틈을":8944,"스티":8945,"▁여긴":8946,"▁만져":8947,"▁실수를":8948,"너를":8949,"▁털어":8950,"▁포위":8951,"▁울타":8952,"▁농사":8953,"래가":8954,"▁표정은":8955,".)":8956,"집어":8957,"으로서는":8958,"심과":8959,"해요.\"":8960,"▁자신에":8961,"겠지만,":8962,"법에":8963,"▁지식을":8964,"▁파는":8965,"구.\"":8966,"빛이":8967,"▁당겨":8968,"▁좋았":8969,"할머니":8970,"▁그지":8971,"▁대전":8972,"▁동작":8973,"든,":8974,"▁초월":8975,"▁사이가":8976,"▁필요도":8977,"▁나타날":8978,"▁똑같":8979,"▁밤의":8980,"▁이마에":8981,"▁대위는":8982,"▁30분":8983,"▁’":8984,"▁주체":8985,"▁뜻이다.":8986,"▁친구들이":8987,"▁있어?":8988,"▁침략":8989,"▁보존":8990,"▁27":8991,"▁자리잡고":8992,"▁결과는":8993,"양은":8994,"린을":8995,"음과":8996,"키가":8997,"▁단숨에":8998,"▁예쁘":8999,"란드":9000,"▁좋고":9001,"귀한":9002,"터는":9003,"▁마실":9004,"벌을":9005,"▁동안의":9006,"▁\"천":9007,"▁지리":9008,"▁채,":9009,"▁담아":9010,"이트를":9011,"하겠다고":9012,"▁넘어가":9013,"당하게":9014,"▁이자":9015,"▁생명의":9016,"▁난처":9017,"▁있으면서":9018,"▁작고":9019,"▁토요일":9020,"▁생활의":9021,"▁억압":9022,"▁멸망":9023,"▁개인의":9024,"▁돌아가고":9025,"▁엘리자":9026,"▁여태":9027,"▁마음속에":9028,"▁보았을":9029,"▁어렵게":9030,"▁떠오르는":9031,"져야":9032,"▁후보":9033,"통한":9034,"▁돌아보":9035,"▁삶은":9036,"▁잃어버린":9037,"▁갔다가":9038,"▁보편":9039,"▁대위":9040,"라와":9041,"▁기분이었다.":9042,"▁저녁을":9043,"즈를":9044,"▁토끼":9045,"들한테":9046,"였다는":9047,"▁\"우리는":9048,"▁\"얘":9049,"▁존재하지":9050,"▁지친":9051,"▁귀신":9052,"▁맹세":9053,"▁거지?":9054,"▁있었으므로":9055,"▁2천":9056,"▁서랍":9057,"▁삶이":9058,"▁늦은":9059,"▁일반적으로":9060,"▁달고":9061,"▁하고는":9062,"▁군인":9063,"▁있을지":9064,"▁삶에":9065,"▁것만은":9066,"▁승리":9067,"하려면":9068,"환이":9069,"▁삼키":9070,"술이":9071,"▁구원":9072,"15":9073,"▁다닌":9074,"▁짓이":9075,"끝을":9076,"▁가자":9077,"▁한참을":9078,"열한":9079,"▁모금":9080,"▁당하고":9081,"▁쉬고":9082,"▁중인":9083,"▁못하면":9084,"세계":9085,"중히":9086,"▁사정이":9087,"▁자리가":9088,"▁조카":9089,"▁6.":9090,"▁보름":9091,"▁제게":9092,"▁세력":9093,"▁부끄":9094,"▁머물러":9095,"▁가기":9096,"▁주워":9097,"▁갖가지":9098,"▁터뜨렸다.":9099,"거요.":9100,"튼을":9101,"▁있지요.":9102,"▁바쁜":9103,"▁충돌":9104,"▁설명할":9105,"피아":9106,"하였던":9107,"▁마련이다.":9108,"▁나섰":9109,"▁상품":9110,"▁버린다.":9111,"▁눌렀다.":9112,"▁지저":9113,"▁의논":9114,"▁박사의":9115,"all":9116,"▁잊을":9117,"▁급한":9118,"▁들었던":9119,"▁중학교":9120,"해에":9121,"▁\"비":9122,"▁줄기":9123,"하긴":9124,"▁사회주의":9125,"▁부탁을":9126,"▁하필":9127,"▁메이":9128,"당은":9129,"▁방이":9130,"▁프레":9131,"▁잘못을":9132,"▁브리":9133,"▁국방":9134,"두를":9135,"산에서":9136,"▁기억을":9137,"▁그림자가":9138,"오게":9139,"▁같다는":9140,"▁모양으로":9141,"우지":9142,"▁내외":9143,"▁발로":9144,"▁넘치는":9145,"되고,":9146,"▁끝을":9147,"▁들려오는":9148,"슨이":9149,"▁수를":9150,"득이":9151,"▁여왕":9152,"▁형식":9153,"her":9154,"련한":9155,"▁지체":9156,"▁유도":9157,"코의":9158,"▁인디":9159,"▁모시":9160,"▁제조":9161,"▁만나지":9162,"▁지나간":9163,"▁마을을":9164,"▁이념":9165,"▁마셨":9166,"▁박혀":9167,"▁못했을":9168,"▁지시를":9169,"▁도중에":9170,"구나!":9171,"▁어두워":9172,"▁댁":9173,"스카":9174,"▁형님":9175,"▁학교를":9176,"▁\"그럼,":9177,"커녕":9178,"▁\"선생":9179,"▁상관이":9180,"▁변명":9181,"▁철저히":9182,"▁머리카락":9183,"▁하시는":9184,"▁우아":9185,"▁살게":9186,"▁28":9187,"▁얘기해":9188,"25":9189,"▁다르게":9190,"▁못마땅":9191,"▁대학에":9192,"▁직장":9193,"▁엄마의":9194,"▁손잡":9195,"▁\"아이":9196,"▁논의":9197,"▁싶다고":9198,"▁돌아간":9199,"▁꾸짖":9200,"▁대항":9201,"▁살기":9202,"▁눈빛으로":9203,"▁변호사":9204,"1)":9205,"▁했기":9206,"▁26":9207,"▁빛의":9208,"▁시청":9209,"▁정성":9210,"▁생각지":9211,"습니다\"":9212,"▁O":9213,"말은":9214,"▁양복":9215,"▁없어요.\"":9216,"▁가다듬":9217,"▁기사를":9218,"▁유대":9219,"▁예비":9220,"▁닥터":9221,"▁\"미안":9222,"▁도시의":9223,"립니다.":9224,"침에":9225,"타가":9226,"▁통합":9227,"건이":9228,"치도":9229,"▁저승":9230,"▁마당에":9231,"나이":9232,"▁\"넌":9233,"▁수영":9234,"▁지상":9235,"▁중년":9236,"▁크로":9237,"▁띠고":9238,"▁멀리서":9239,"을까?":9240,"클레":9241,"▁사소한":9242,"▁5년":9243,"▁투자":9244,"▁있나?":9245,"▁특유의":9246,"넣었다.":9247,"질의":9248,"▁태도가":9249,"됐다.":9250,"병에":9251,"▁부른다.":9252,"▁사이에는":9253,"▁l":9254,"걸음":9255,"▁이하":9256,"▁무기를":9257,"▁경찰에":9258,"▁아래에":9259,"▁걸음으로":9260,"▁가령":9261,"▁납치":9262,"▁우는":9263,"▁금속":9264,"민을":9265,"▁조그마한":9266,"▁'어":9267,"▁사실이었다.":9268,"랑을":9269,"▁생각합니다.":9270,"▁가로질러":9271,"팔을":9272,"▁하나,":9273,"▁20년":9274,"▁청년이":9275,"▁합리":9276,"▁\"아닙":9277,"부장":9278,"였다고":9279,"▁이제부터":9280,"▁훌쩍":9281,"렸고":9282,"▁사나이":9283,"▁\"안녕":9284,"운동":9285,"▁남에게":9286,"교가":9287,"족을":9288,"▁즉각":9289,"드와":9290,"▁오십":9291,"▁공연히":9292,"면의":9293,"▁하신":9294,"▁뒤의":9295,"▁살아갈":9296,"코를":9297,"▁후려":9298,"▁민족의":9299,"▁!\"":9300,"워하는":9301,"▁장악":9302,"▁개구":9303,"▁군중":9304,"▁달아나":9305,"격으로":9306,"둘이":9307,"▁하나하나":9308,"▁번역":9309,"▁오늘의":9310,"▁그림자":9311,"▁축복":9312,"▁붙잡고":9313,"▁설사":9314,"▁신을":9315,"▁포장":9316,"습니":9317,"▁벌을":9318,"▁사용할":9319,"거리면서":9320,"▁제도":9321,"▁그렇고":9322,"가요?\"":9323,"소리는":9324,"우기":9325,"▁\"또":9326,"▁\"야":9327,"▁잠에서":9328,"그리고":9329,"씨.":9330,"▁드문":9331,"▁어머니에게":9332,"▁철기는":9333,"▁1월":9334,"▁죽지":9335,"▁아무말":9336,"▁가지가":9337,"▁먹으면":9338,"▁종합":9339,"▁\"어서":9340,"▁거아":9341,"▁사랑과":9342,"▁떠들어":9343,"소서.":9344,"▁것인데":9345,"▁날려":9346,"▁행렬":9347,"▁풀이":9348,"신과":9349,"▁거든":9350,"▁새어나":9351,"▁건드":9352,"▁카운":9353,"▁렌":9354,"올라":9355,"▁서비":9356,"▁조선의":9357,"생각":9358,"▁달리는":9359,"▁흥미를":9360,"▁끝나자":9361,"▁장면을":9362,"▁원인이":9363,"▁최선을":9364,"▁두렵":9365,"▁시작하였다.":9366,"▁행동에":9367,"▁규정":9368,"▁도와주":9369,"▁문지":9370,"▁쉽지":9371,"론가":9372,"▁있네.":9373,"▁생길":9374,">을":9375,"가슴":9376,"니스":9377,"▁벌거":9378,"▁심지어는":9379,"▁움켜쥐":9380,"렬하게":9381,"▁이마":9382,"▁찍어":9383,"▁를":9384,"반이":9385,"세이":9386,"▁이중":9387,"▁호랑":9388,"노라고":9389,"▁영양":9390,"▁몸뚱":9391,"▁되었고":9392,"▁전문가":9393,"▁들으며":9394,"▁우유":9395,"▁먹었다.":9396,"▁나타내는":9397,"▁농부":9398,"어진다.":9399,"막이":9400,"▁입학":9401,"▁통하는":9402,"▁넘쳐":9403,"▁튼튼":9404,"▁상대를":9405,"▁이해하지":9406,"전화":9407,"▁자그":9408,"▁구입":9409,"▁c":9410,"▁때에도":9411,"▁같다고":9412,"▁눈초":9413,"▁\"어떤":9414,"▁구역":9415,"▁준비해":9416,"▁엄청나게":9417,"▁안간":9418,"▁안보":9419,"▁수정":9420,"▁생각하니":9421,"▁내려놓":9422,"▁남한":9423,"▁치솟":9424,"▁\"맞":9425,"▁하니까":9426,"▁앞뒤":9427,"▁역사의":9428,"▁쪽을":9429,"▁25,":9430,"!!\"":9431,"로도":9432,"▁원자":9433,"▁존중":9434,"잖아요.\"":9435,"▁묶어":9436,"'(":9437,"과학":9438,"▁깨닫게":9439,"▁남기고":9440,"▁그것들을":9441,"▁길고":9442,"▁밤은":9443,"시다":9444,"▁외교":9445,"만큼은":9446,"'에서":9447,"송이":9448,"▁사장은":9449,".\"이":9450,"▁돌리":9451,"▁생각이었다.":9452,"▁상당":9453,"▁입장에서":9454,"▁낮게":9455,"▁빛깔":9456,"▁있을까.":9457,"▁분노를":9458,"▁보았던":9459,"수에게":9460,"화한":9461,"▁말만":9462,"▁자란":9463,"▁허물":9464,"▁이용하여":9465,"머리가":9466,"▁거리에":9467,"▁돌을":9468,"▁명확":9469,"▁검토":9470,"▁숙이고":9471,"광이":9472,"▁동지":9473,"▁파라":9474,"여년":9475,"▁노인의":9476,"▁앞에는":9477,"▁다가오는":9478,"▁살던":9479,"▁패배":9480,"ation":9481,"하니까":9482,"▁싫은":9483,"▁열중":9484,"▁일일":9485,"▁진실을":9486,"▁내뿜":9487,"▁오줌":9488,"▁넣었다.":9489,"▁피해를":9490,"▁엘리자베":9491,"▁짖":9492,"▁해군":9493,"▁순간적으로":9494,"문화":9495,"▁날개":9496,"▁하늘로":9497,"▁결심을":9498,"▁꿈이":9499,"▁\"중":9500,"▁강렬한":9501,"▁주름":9502,"▁저쪽":9503,"▁가까스로":9504,"▁줄로":9505,"▁충실":9506,"찰을":9507,"▁하거나":9508,"▁느낌이었다.":9509,"미에":9510,"▁여성이":9511,"▁가리키는":9512,"시키지":9513,"▁불행한":9514,"▁홍콩":9515,"▁배려":9516,"하더니":9517,"▁갖춘":9518,"▁동요":9519,"▁세포":9520,"▁엇":9521,"▁근데":9522,"▁어딘가":9523,"▁일하고":9524,"▁아이들에게":9525,"▁루이":9526,"▁귀국":9527,"▁턱을":9528,"▁두번":9529,"20":9530,"▁아들은":9531,"▁사양":9532,"▁진보":9533,"▁상태였다.":9534,"▁록":9535,"았고":9536,"오기":9537,"▁아랍":9538,"드에":9539,"▁시기에":9540,"...'":9541,"▁보고를":9542,"▁누구의":9543,"습니다,":9544,"▁월급":9545,"▁시절의":9546,"▁작품을":9547,"사령":9548,"▁발견할":9549,"라며":9550,"▁사업을":9551,"▁남편과":9552,"▁못하도록":9553,"▁할까":9554,"▁시간의":9555,"▁걷는":9556,"패를":9557,"호와":9558,"▁따름":9559,"▁건지":9560,"▁-그":9561,"집에서":9562,"▁인한":9563,"▁감지":9564,"▁각자":9565,"▁갖추고":9566,"갑자기":9567,"질렀다.":9568,"▁어진":9569,"▁현실을":9570,"▁없어.\"":9571,"▁올리고":9572,"▁돈으로":9573,"▁신경쓰":9574,"ce":9575,"▁육군":9576,"▁내기":9577,"▁일시":9578,"▁경주":9579,"이었는데,":9580,"▁설명했다.":9581,"마저도":9582,"분간":9583,"▁대응":9584,"▁걸치고":9585,"의에":9586,"▁어디선가":9587,"돼.":9588,"▁때처럼":9589,"▁악마":9590,"▁하루에":9591,"▁저지른":9592,"▁뒤따라":9593,"편을":9594,"▁발길을":9595,"▁간주":9596,"▁꼬박":9597,"▁흐름":9598,"▁섞인":9599,"끄는":9600,"▁내에":9601,"▁아무렇":9602,"▁애인":9603,"▁읽은":9604,"▁초기":9605,"▁만나러":9606,"여기":9607,"적이며":9608,"▁하도":9609,"▁경고":9610,"▁스무":9611,"▁경우를":9612,"▁하루는":9613,"▁나중에는":9614,"▁복수":9615,"▁어울리지":9616,"기게":9617,"▁게임":9618,"▁행사":9619,"▁놀라는":9620,"▁터였다.":9621,"▁워싱턴":9622,"스라엘":9623,"슈타":9624,"▁70":9625,"▁회사의":9626,">를":9627,"▁정부가":9628,"▁놈을":9629,"▁이렇듯":9630,"천의":9631,"파이":9632,"졌고,":9633,"▁장관":9634,"인지를":9635,"▁아다.":9636,"▁선비":9637,"▁쓸어":9638,"▁아메":9639,"▁돌아섰다.":9640,"▁지나친":9641,"▁권력을":9642,"질로":9643,"▁이상으로":9644,"▁정부는":9645,"▁부인을":9646,"▁그래요.":9647,"▁얻는":9648,"▁아내에게":9649,"채로":9650,"▁시스":9651,"▁1천":9652,"상도":9653,"▁총알":9654,"ul":9655,"▁기쁜":9656,"▁스포":9657,"▁맞았다.":9658,"▁듣기":9659,"▁\"얼":9660,"▁한껏":9661,"▁민간":9662,"▁그때부터":9663,"▁텔레비전":9664,"▁껄":9665,"오리":9666,"족이":9667,"소와":9668,"졌고":9669,"▁요새":9670,"▁찾아와":9671,"▁덤벼":9672,"표가":9673,"▁2,":9674,"생은":9675,"▁메모":9676,"▁마을에":9677,"되었고,":9678,"▁있기는":9679,"▁여보":9680,"▁알기":9681,"▁백화":9682,"▁짐작할":9683,"돌프":9684,"▁화살":9685,"a.":9686,"▁델":9687,"▁남자에게":9688,"▁담고":9689,"밥을":9690,"야의":9691,"▁움직였다.":9692,"벽을":9693,"언이":9694,"▁수녀":9695,"▁거란":9696,"▁현상이":9697,"▁언론":9698,"▁토해":9699,"▁녀석은":9700,")에서":9701,"귀에":9702,"죠,":9703,"▁우러":9704,"▁아리":9705,"▁기차":9706,"▁연애":9707,")와":9708,"▁나가지":9709,"▁동궁":9710,"▁동안,":9711,"▁머리칼":9712,"ew":9713,"법의":9714,"집의":9715,"▁사회에":9716,"마리":9717,"범의":9718,"▁심상":9719,"▁관계는":9720,"▁강을":9721,"놈은":9722,"▁좋아.":9723,"▁결혼한":9724,"마마":9725,"▁의외로":9726,"데스":9727,"▁잔디":9728,"예요?":9729,"▁비켜":9730,"▁참지":9731,"▁대신에":9732,"▁같다":9733,"두에":9734,"▁하하하":9735,"▁곁에서":9736,"▁가리키며":9737,"▁놈들":9738,"▁맥주를":9739,"▁사례":9740,"▁보이며":9741,"▁소속":9742,"▁슬프":9743,"▁그녀도":9744,"▁막내":9745,"▁긋":9746,"자였다.":9747,"▁걸.":9748,"▁걸세.":9749,"▁피난":9750,"▁되었다고":9751,"▁사내를":9752,"▁세차게":9753,"▁미칠":9754,"▁돌아보며":9755,"▁놓치지":9756,"▁효과가":9757,"▁그처럼":9758,"▁불에":9759,"▁심정":9760,"▁곳이었다.":9761,"코가":9762,"▁바쁘":9763,"았다고":9764,"▁\"예.":9765,"어리":9766,"▁모퉁":9767,"▁들어와서":9768,"▁최후의":9769,"▁기운을":9770,"▁수학":9771,"▁공화":9772,"▁줄어":9773,"▁잡아당":9774,"존의":9775,"척이":9776,"▁않다고":9777,"▁들리":9778,")과":9779,"▁내려온":9780,"▁백인":9781,"식과":9782,"▁수집":9783,"▁한바":9784,"▁정원":9785,"시경":9786,"오자":9787,"▁고함을":9788,"▁스님이":9789,"▁여러분은":9790,"저는":9791,"▁빙그레":9792,"▁얼룩":9793,"▁2차":9794,"▁애원":9795,"▁겁을":9796,"▁곰곰":9797,"량은":9798,"▁부모가":9799,"▁떼어":9800,"▁간지":9801,"▁먹었":9802,"▁양의":9803,"▁흔들며":9804,"범을":9805,"으론":9806,"▁완벽하게":9807,"▁진흙":9808,"▁가지로":9809,"▁걱정을":9810,"▁보았지만":9811,"▁쳤":9812,"주며":9813,"▁자지":9814,"▁주어진":9815,"▁만나면":9816,"▁생겼다.":9817,"▁끝으로":9818,"▁어디에서":9819,"▁끊고":9820,"▁하면서도":9821,"▁헌병":9822,"▁받아들일":9823,"순이":9824,"▁의미하는":9825,"▁위에는":9826,"▁중대한":9827,"▁살며":9828,"▁아닙니까?":9829,"▁주머니에":9830,"경과":9831,"▁모양을":9832,"▁들었을":9833,"▁가락":9834,"▁일일이":9835,"▁열쇠를":9836,"▁그뿐":9837,"▁장을":9838,"꼬는":9839,"▁모인":9840,"▁마약":9841,"▁감격":9842,"▁\"리":9843,"▁지그":9844,"▁바지":9845,"▁구할":9846,"나에게":9847,"명하게":9848,"▁지금부터":9849,"▁서류를":9850,"날의":9851,"모와":9852,"▁즐기는":9853,"▁셔츠":9854,"▁백수웅":9855,"are":9856,"▁하실":9857,"▁불만":9858,"▁손에는":9859,"▁연기가":9860,"늦게":9861,"▁때만":9862,"▁태도는":9863,"▁하라고":9864,"▁애썼":9865,"▁둑":9866,"서와":9867,"터의":9868,"▁하숙":9869,"▁자제":9870,"▁시계":9871,"▁고전":9872,"▁옆구":9873,"▁낳은":9874,"▁흡사":9875,"▁최근에":9876,"내며":9877,"▁것들":9878,"▁개는":9879,"▁단말이":9880,"▁청년은":9881,"강의":9882,"▁한정":9883,"▁진정으로":9884,"미스":9885,"▁공작":9886,"▁선생님의":9887,"▁짓는":9888,"▁곁으로":9889,"▁어울려":9890,"오면":9891,"창이":9892,"▁지내는":9893,"는데.":9894,"▁형이":9895,"님!":9896,"아도":9897,"▁주십시오.\"":9898,"▁행동은":9899,"▁느낀다.":9900,")(":9901,"로이":9902,"▁목덜":9903,"▁11월":9904,"▁for":9905,"겨운":9906,"디의":9907,"트와":9908,"▁겁니다":9909,"▁발명":9910,"▁몬":9911,"호호":9912,"▁해준":9913,"▁평등":9914,"▁갈색":9915,"▁선뜻":9916,"▁열렸다.":9917,"이에요.\"":9918,"hat":9919,"▁죽었다.":9920,"서서":9921,"▁소설을":9922,"▁데려다":9923,"▁둥근":9924,"시하는":9925,"▁줄도":9926,"▁시절에":9927,"▁이익을":9928,"▁소주":9929,"▁아니에요.":9930,"르면":9931,"받지":9932,"줘.":9933,"▁남쪽":9934,"▁라고":9935,"달을":9936,"▁차지하고":9937,"결한":9938,"▁버리지":9939,"▁45":9940,"▁신경질":9941,"▁이로":9942,"▁뿐입니다.":9943,"▁막고":9944,"▁상대방의":9945,"▁보석":9946,"▁조사를":9947,"▁신랑":9948,"할아버":9949,"▁대처":9950,"▁유학":9951,"▁살림":9952,"▁그렇다":9953,"▁어디까지나":9954,"▁기다릴":9955,"▁폭풍":9956,"▁자유롭게":9957,"▁죽음에":9958,"▁배웠":9959,"'이란":9960,"▁힘에":9961,"▁거나":9962,"▁배는":9963,"▁교수가":9964,"▁질려":9965,"▁깨뜨":9966,"▁깜박":9967,"소이다.":9968,"▁안경을":9969,"▁넣은":9970,"▁드러난":9971,"▁다르다.":9972,"새가":9973,"▁일입니다.":9974,"▁올바른":9975,"거린다.":9976,"조각":9977,"▁대상으로":9978,"▁간부":9979,"▁섰다.":9980,"▁말없이":9981,"▁시다.":9982,"▁여관":9983,"▁떠올렸다.":9984,"▁공포에":9985,"▁\"'":9986,"▁식의":9987,"▁\"원":9988,"▁객관":9989,"매는":9990,"어버렸다.":9991,"▁스크":9992,"▁사회에서":9993,"▁미사일":9994,"'으로":9995,"히며":9996,"▁안은":9997,"▁미쳐":9998,"▁이상을":9999,"백만":10000,"▁수없이":10001,"▁지나면":10002,"ill":10003,"좋은":10004,"▁나은":10005,"▁겁니까?":10006,"▁80":10007,"▁끌어내":10008,"▁곤두":10009,"▁아랑곳":10010,"▁것인데,":10011,"▁\"누가":10012,"▁우리와":10013,"▁기분으로":10014,"▁지경이었다.":10015,"▁사촌":10016,"▁나라는":10017,"▁수레":10018,"▁의사를":10019,"▁만약에":10020,"랴.":10021,"▁피부":10022,"▁\"우리가":10023,"용은":10024,"▁입장을":10025,"▁지낸":10026,"▁운반":10027,"하였고,":10028,"기다":10029,"주면":10030,"창한":10031,"▁죽이는":10032,"▁떨쳐":10033,"▁누구보다도":10034,"▁나누는":10035,"성에서":10036,"▁위원":10037,"▁떨구":10038,"라지":10039,"시게":10040,"▁\"야,":10041,"▁좋아하지":10042,"자들에게":10043,"▁이스라엘":10044,"▁시위":10045,"▁두꺼":10046,"▁카이":10047,"이나,":10048,"▁작별":10049,"▁말아요.":10050,"▁떨어질":10051,"▁하도록":10052,"구와":10053,"▁확인해":10054,"왔던":10055,"▁군대를":10056,"▁남편에게":10057,"▁구속":10058,"돈을":10059,"즈가":10060,"▁일본은":10061,"▁악몽":10062,"▁봐서":10063,"▁그것들은":10064,"▁내게는":10065,"▁에너지를":10066,"내의":10067,"자로서":10068,"▁알리는":10069,"▁땅에서":10070,"▁바닥을":10071,"▁차례로":10072,"=-=-=-=-":10073,"▁그해":10074,"▁입가에":10075,"▁플라":10076,"천이":10077,"▁등과":10078,"▁올랐":10079,"▁묻은":10080,"▁가족이":10081,"▁확실하게":10082,"▁권총":10083,"▁이토록":10084,"▁물리학":10085,"▁보고,":10086,"▁인격":10087,"갔을":10088,"자네":10089,"▁가짜":10090,"▁수록":10091,"▁주택":10092,"▁주장하는":10093,"▁세월을":10094,"트릭":10095,"▁작동":10096,"후는":10097,"▁배고":10098,"▁업무":10099,"-3":10100,"집은":10101,"▁\"성":10102,"▁시선":10103,"▁때문이라고":10104,"▁진출":10105,"▁어찌할":10106,"▁밤,":10107,"▁서울에서":10108,"상,":10109,"▁성립":10110,"▁작성":10111,"이었다고":10112,"▁질린":10113,"▁무장":10114,"▁\"박":10115,"▁모친":10116,"▁조작":10117,"▁아니었다":10118,"▁건데":10119,"▁약혼":10120,"▁환자가":10121,"인지,":10122,"물고":10123,"질은":10124,"듯한":10125,"▁대왕":10126,"▁전형":10127,"▁때문일":10128,"▁올시다.":10129,"▁낮에":10130,"▁괜찮은":10131,"▁침대에서":10132,"▁걸릴":10133,"▁노골":10134,"▁1만":10135,"주의를":10136,"▁프란":10137,"▁치료를":10138,"프로":10139,"▁일본에":10140,"tr":10141,"▁여자였다.":10142,"▁명심":10143,"▁나라에서":10144,"▁모른다":10145,"▁도착했다.":10146,"▁아름답고":10147,"정에서":10148,"더라.":10149,"▁어울리는":10150,"계급":10151,"약이":10152,"▁하마":10153,"▁바라고":10154,"▁껴안":10155,"▁\"네.":10156,"▁수양":10157,"▁관해서":10158,"▁대답은":10159,"▁이곳은":10160,"▁무너져":10161,"었지만,":10162,"▁기억해":10163,".\"그녀는":10164,"▁철저하게":10165,"▁봐요.":10166,"▁뭔가를":10167,"▁세력을":10168,"▁저고":10169,"▁자네의":10170,"▁놀라게":10171,"음,":10172,"▁아울":10173,"▁안다.":10174,"▁스토":10175,"▁상황은":10176,"구요.\"":10177,"▁하기도":10178,"▁상의":10179,"이라니":10180,"▁이용해":10181,"▁되살아":10182,"건은":10183,"주어":10184,"▁사단":10185,"▁전하는":10186,"▁위엄":10187,"▁파트":10188,"▁않았어요.":10189,"락한":10190,"승은":10191,"죄송":10192,"▁신화":10193,"▁근심":10194,"전쟁":10195,"혁은":10196,"▁하지.":10197,"들이나":10198,"▁씨앗":10199,"▁자료를":10200,"스에서":10201,"▁방사":10202,"▁뭔지":10203,"류지":10204,"맛을":10205,"▁작곡":10206,"▁여성은":10207,"▁나뭇잎":10208,"▁방안으로":10209,"▁위태":10210,"▁현상을":10211,"▁\"너는":10212,"ht":10213,"▁원숭":10214,"▁처지":10215,"▁승려":10216,"▁꼭대":10217,"▁\"잠깐":10218,"▁의사는":10219,"▁배에":10220,"▁천재":10221,"▁과거에":10222,"▁무언가를":10223,"람을":10224,"역시":10225,"▁해치":10226,"▁비싼":10227,"▁집의":10228,"▁연관":10229,"▁후배":10230,"▁부드러":10231,"니와":10232,"합을":10233,"▁조절":10234,"▁배반":10235,"▁옷이":10236,"▁핵심":10237,"op":10238,"고에":10239,"군데":10240,"▁할거":10241,"▁초록":10242,"▁아직까지":10243,"끼를":10244,"술은":10245,"▁보수":10246,"▁소금":10247,"▁애무":10248,"▁3일":10249,"▁자연히":10250,"▁주장을":10251,"▁차분":10252,"▁진동":10253,"▁5천":10254,"쇠를":10255,"▁있었으며":10256,"▁\"이건":10257,"▁임호":10258,"▁꺼내어":10259,"나.\"":10260,"▁논리":10261,".”“":10262,"▁소문을":10263,"▁필요하다.":10264,"▁희미하게":10265,"▁전사":10266,"인가?\"":10267,"▁출생":10268,"▁끝나면":10269,"운의":10270,"함의":10271,"▁연구를":10272,"▁영혼이":10273,"▁카메라":10274,"▁뒷모습을":10275,"▁만지":10276,"▁떠돌":10277,"▁심심":10278,"▁애들":10279,"건만":10280,"머리에":10281,"▁남지":10282,"▁요구하는":10283,"▁나타난다.":10284,"▁것이라면":10285,"▁많지":10286,"▁키워":10287,"▁기지":10288,"▁주사":10289,"▁말이야":10290,"▁바다에":10291,"장인":10292,"▁같으니":10293,"▁좋다는":10294,"▁편의":10295,"▁집어들었다.":10296,"구?":10297,"▁있자":10298,"▁죽음이":10299,"▁음악이":10300,"▁한가운데":10301,"는지를":10302,"▁다듬":10303,"▁바란다.":10304,"▁중지":10305,"▁사실상":10306,"▁웃는다.":10307,"▁철수":10308,"▁거예요?":10309,"▁대학을":10310,"원에게":10311,"▁일방":10312,"▁바라보면서":10313,"남은":10314,"명에":10315,"운은":10316,"▁것이다.\"":10317,"▁적절한":10318,"▁꼬마":10319,"▁나고":10320,"▁영감":10321,"▁스카":10322,"▁강하":10323,"▁모양의":10324,"▁버티고":10325,"오니":10326,"▁반면에":10327,"()은":10328,"▁마을의":10329,"▁공사":10330,"▁얻게":10331,"▁아름답게":10332,"▁들으면":10333,"너의":10334,"손가락":10335,"▁구슬":10336,"▁이곳에서":10337,"▁사무실로":10338,"▁숲을":10339,"18":10340,"마.\"":10341,"▁아니오.":10342,"▁날을":10343,"남이":10344,"자이":10345,"▁35":10346,"▁온몸을":10347,"▁\"방":10348,"▁연출":10349,"▁설레":10350,"▁이루어":10351,"▁비스":10352,"▁넘기":10353,"▁김대":10354,"▁목소리에":10355,"▁풀고":10356,"▁사나이가":10357,"▁마땅히":10358,"주,":10359,"▁격려":10360,"교는":10361,"▁하림은":10362,"▁비는":10363,"▁몸짓":10364,"▁폐하":10365,"IA":10366,"그게":10367,"이었어.":10368,"▁괴로운":10369,"▁사고를":10370,"▁꼼짝도":10371,"▁붕괴":10372,"꾼이":10373,"주일":10374,"▁일행은":10375,"▁것임을":10376,"물과":10377,"보였다.":10378,"졌다는":10379,"추는":10380,"▁두는":10381,"▁설계":10382,"▁기능을":10383,">에":10384,"▁짧게":10385,"바람이":10386,"▁다물고":10387,"▁해변":10388,"▁비유":10389,"▁건다.":10390,"▁후퇴":10391,"▁군의":10392,"러져":10393,"빛으로":10394,"▁로버트":10395,"if":10396,"▁일과":10397,"▁저러":10398,"▁임무를":10399,"▁검정":10400,"▁잃지":10401,"▁굳은":10402,"▁영혼의":10403,"▁눈빛이":10404,"▁미래를":10405,"승이":10406,"▁사회를":10407,"▁클라":10408,"줄이":10409,"▁사서":10410,"▁제의":10411,"▁돌았다.":10412,"▁옆의":10413,"벨이":10414,"▁보기로":10415,"▁장한":10416,"▁연못":10417,"래?":10418,"▁점심을":10419,"해져서":10420,"▁깐":10421,"▁.......":10422,"나라는":10423,"하셨다.":10424,"▁날씨":10425,"▁전시":10426,"▁스님은":10427,"▁당황한":10428,"▁저장":10429,"▁있어,":10430,"▁\"이번":10431,"▁떨어지고":10432,"▁사회가":10433,"▁뿌리를":10434,"▁나눌":10435,"▁저마다":10436,"▁반란":10437,"▁원시":10438,"'하는":10439,"▁해서는":10440,"▁짜증":10441,"▁후에도":10442,"▁끝나는":10443,"▁아울러":10444,"12":10445,"건으로":10446,"▁바랍니다.":10447,"차고":10448,"▁비하면":10449,"▁관계에":10450,"▁북쪽":10451,"▁빠져나가":10452,"▁쪽에":10453,"용으로":10454,"▁계절":10455,"▁원인":10456,"▁싸우는":10457,"경찰":10458,"스피":10459,"▁병에":10460,"이라서":10461,"든지,":10462,"ave":10463,"▁헐떡":10464,"▁지점":10465,"▁정신적인":10466,"인들에게":10467,"▁\"선":10468,"처럼,":10469,"▁누이":10470,"▁써야":10471,"▁형사가":10472,"▁만났을":10473,"▁섹스를":10474,"관계":10475,"줄을":10476,"환을":10477,"▁불타":10478,"▁사마":10479,"▁위장":10480,"▁손에서":10481,"▁했는지":10482,"▁물건이":10483,"조에":10484,"▁적당히":10485,"▁통한":10486,"근한":10487,"▁\"후":10488,"▁피식":10489,"▁흘려":10490,"▁블라":10491,"였어.":10492,"키의":10493,"▁경호":10494,"▁정신과":10495,"▁늘어나":10496,"▁첫날":10497,"▁열흘":10498,"▁뜻밖의":10499,"부르":10500,"워진":10501,"▁주면":10502,"▁“이":10503,"▁높여":10504,"▁한발":10505,"▁우습":10506,"▁방황":10507,"▁달렸다.":10508,"▁구체적인":10509,"미와":10510,"▁않습니까?":10511,"▁해외":10512,"▁언뜻":10513,"하면서,":10514,"마도":10515,"▁가면서":10516,"▁동안은":10517,"▁뛰었다.":10518,"▁것보다는":10519,"▁주었다":10520,"▁습관":10521,"▁떠나고":10522,"가지고":10523,"▁어긋":10524,"▁지나는":10525,"▁건가?":10526,"후를":10527,"▁일만":10528,"▁대강":10529,"▁남았":10530,"▁파도":10531,"▁간섭":10532,"▁군.\"":10533,"▁가슴은":10534,"▁걱정하지":10535,"▁불길한":10536,"▁되게":10537,"하자,":10538,"▁기사가":10539,"▁되는데":10540,"▁연방":10541,"▁모습에":10542,"▁\"오빠":10543,"자라고":10544,"▁나서서":10545,"지요?\"":10546,"▁아이에게":10547,"브는":10548,"▁주변을":10549,"▁주변의":10550,"갔던":10551,"판으로":10552,"▁노는":10553,"▁달한":10554,"▁앞세":10555,"▁깨우":10556,"▁쩍":10557,"▁고스":10558,"▁알면서도":10559,"▁복종":10560,"▁가능성을":10561,"강한":10562,"들며":10563,"▁미국에":10564,"히게":10565,"▁나빠":10566,"▁벌어지고":10567,"▁푸르":10568,"▁부족한":10569,"양으로":10570,"우스가":10571,"통의":10572,"▁눈에서":10573,"▁이해하고":10574,"▁어쩌다":10575,"▁\"뭘":10576,"▁전적으로":10577,"▁합격":10578,"▁아래서":10579,"되었다고":10580,"십시오":10581,"▁랑":10582,"▁손끝":10583,"▁영은":10584,"▁차에서":10585,"▁외부":10586,"▁참아":10587,"▁압도":10588,"만하게":10589,"▁어린아이":10590,"▁곁을":10591,"▁\"도대체":10592,"16":10593,"▁없도록":10594,"▁한이":10595,"▁무대":10596,"▁쉬었다.":10597,"▁냉장":10598,"그머니":10599,"▁세계가":10600,"▁주춤":10601,"▁걸어서":10602,"▁옛날에":10603,"일지도":10604,"▁\"그녀는":10605,"▁싸울":10606,"▁뜨겁게":10607,"▁칼로":10608,"▁솜씨":10609,"직이":10610,"▁분류":10611,"▁잡힌":10612,"▁궁극":10613,"▁대표적인":10614,"마침":10615,"▁벌리고":10616,"▁민중":10617,"시간이":10618,"▁나에게는":10619,"▁눈과":10620,"▁네.":10621,"한은":10622,"▁\"애":10623,"▁내심":10624,"▁듯하다.":10625,"라야":10626,"▁저주":10627,"▁떠올랐":10628,"▁발걸음을":10629,"▁흐트":10630,"▁대통령은":10631,"▁자리로":10632,"▁시키는":10633,"▁체계":10634,"되었고":10635,"▁건강한":10636,"▁부수":10637,"▁의문":10638,"▁용기가":10639,"▁과거를":10640,"웃음을":10641,"▁선물을":10642,"▁이를테면":10643,"▁데려가":10644,"▁지나고":10645,"▁맛을":10646,"덕을":10647,"▁가격":10648,"▁사람에게는":10649,"▁쓰게":10650,"▁붙이고":10651,"-\"":10652,"▁이걸":10653,"▁보기에":10654,"▁들어서는":10655,"▁도리":10656,"▁진작":10657,"▁스케":10658,"▁에드":10659,"▁맡기":10660,"엄한":10661,"토는":10662,"▁보급":10663,"▁뒤쫓":10664,"▁요즈":10665,"▁다음은":10666,"▁협조":10667,"▁정상적인":10668,"▁고마워":10669,"릿한":10670,"▁수첩":10671,"물며":10672,"티는":10673,"▁없어진":10674,"▁가리지":10675,"▁안된다고":10676,"레스를":10677,"주기":10678,"▁한명이":10679,"▁여의":10680,"▁상대방":10681,"▁결정적인":10682,"▁쓰러졌다.":10683,"▁할아버지가":10684,"▁나눈":10685,"▁왕자":10686,"▁쌓인":10687,"▁인류의":10688,"▁힘은":10689,"▁총각":10690,"▁엎드":10691,"▁날카롭게":10692,"▁수수께":10693,"냐.\"":10694,"잠을":10695,"▁하더니":10696,"▁여지가":10697,"▁감은":10698,"▁부모의":10699,"▁오빠는":10700,"e.":10701,"▁무겁게":10702,"하므로":10703,"▁정열":10704,"내야":10705,"▁자부":10706,"▁오해":10707,"▁신경이":10708,"▁거기에서":10709,"▁아인":10710,"▁개입":10711,"▁날씨가":10712,"▁최대의":10713,"▁대답하지":10714,"▁도리어":10715,"▁선수":10716,"▁날개를":10717,"▁하루를":10718,"▁싫어하는":10719,"움의":10720,"▁수면":10721,"▁먹여":10722,"▁바이올":10723,"▁물음에":10724,"▁흔적":10725,"▁까닭에":10726,"시와":10727,"▁경기":10728,"이었어요.":10729,"▁무엇이든":10730,"린다":10731,"▁가스":10732,"▁알면":10733,"▁그리워":10734,"▁딸의":10735,"▁속도를":10736,"▁성의":10737,"▁보여주고":10738,"결이":10739,"네를":10740,"▁거라":10741,"승을":10742,"시,":10743,"클럽":10744,"▁이전의":10745,"▁모셔":10746,"▁단어":10747,"▁지방의":10748,"▁끝없이":10749,"▁대부분이":10750,"▁벗어날":10751,"▁많을":10752,"▁분명하게":10753,"▁입증":10754,"▁구멍을":10755,"'과":10756,"목으로":10757,"▁생일":10758,"▁동무":10759,"▁않았다면":10760,"로로":10761,"▁내무":10762,"▁시대를":10763,"▁요란한":10764,"▁좌절":10765,"▁니콜":10766,"▁품에":10767,"긋한":10768,"▁거죠.":10769,"▁안아":10770,"▁내려놓고":10771,"▁밖을":10772,"▁바이러":10773,"▁진지한":10774,"오라고":10775,"▁이불을":10776,"▁아돌프":10777,"▁위험을":10778,"르를":10779,"▁말라는":10780,"▁싶으면":10781,"▁취재":10782,"▁나이는":10783,"▁전과":10784,"▁무역":10785,"▁반영":10786,"▁정신병":10787,"▁클리":10788,"▁부분은":10789,"9.":10790,"들기":10791,"▁생각해서":10792,"▁두었":10793,"봐요.":10794,"▁유심히":10795,"▁장소를":10796,"▁맞게":10797,"▁창을":10798,"▁면에서":10799,"▁닫고":10800,"치고는":10801,"▁시작했":10802,"▁가지의":10803,"▁묘사":10804,"3.":10805,"][":10806,"궁을":10807,"배는":10808,"크리":10809,"▁이별":10810,"▁생각하기":10811,"들어가":10812,"▁미국에서":10813,"하자는":10814,"▁부부가":10815,"▁따스":10816,"▁기울였다.":10817,"▁그리스도":10818,"▁장차":10819,"모로":10820,"▁그렇기":10821,"▁평생을":10822,"▁대통령이":10823,"▁것인지도":10824,"지...":10825,"▁평온":10826,"▁암흑":10827,"▁끄덕이며":10828,"▁구체적으로":10829,"3)":10830,"▁어렴":10831,"▁오늘도":10832,"▁있은":10833,"▁시행":10834,"▁신발":10835,"▁박힌":10836,"이므로":10837,"▁소매":10838,"▁뒤틀":10839,"▁예민":10840,"▁22":10841,"▁뜻하는":10842,"▁지역의":10843,"▁정일휘":10844,"대문":10845,"락에":10846,"질렀":10847,"하세요.":10848,"▁호주머니":10849,"▁말씀해":10850,"▁의미에서":10851,"▁뻔했다.":10852,"벌써":10853,"▁그대를":10854,"▁대부분은":10855,"인간":10856,"▁이마를":10857,"▁안마":10858,"▁지나서":10859,"▁일반적인":10860,"라기":10861,"▁부동":10862,"▁착한":10863,"박이":10864,"▁싸움이":10865,"a)":10866,"골이":10867,"정도":10868,"▁공공":10869,"▁요소":10870,"▁팔에":10871,"▁you":10872,"▁음성으로":10873,"▁\"이거":10874,"▁나무가":10875,"▁걸리는":10876,"▁감수":10877,"▁울었다.":10878,"명으로":10879,"▁있는지도":10880,"▁않은가.":10881,"▁돌아서서":10882,"▁상을":10883,"▁하늘은":10884,"▁성공을":10885,"다리를":10886,"▁당하는":10887,"▁걸렸다.":10888,"▁될지도":10889,"▁걸까?":10890,"▁예전에":10891,"ith":10892,"죄를":10893,"편이":10894,"▁수고":10895,"▁없으니까":10896,"▁화장실":10897,"▁곱게":10898,"45":10899,"밀한":10900,"벗은":10901,"제,":10902,"▁하라.":10903,"▁옷차":10904,"▁역사적":10905,"그녀가":10906,"▁보조":10907,"▁'사":10908,"▁사고가":10909,"▁반응이":10910,"▁시나":10911,"▁붙였다.":10912,"▁몸부림":10913,"▁때보다":10914,"▁감상":10915,"▁\"너무":10916,"▁\"윤":10917,"▁낭비":10918,"업이":10919,"▁시어머니":10920,"▁오게":10921,"▁악수를":10922,"렸다는":10923,"렸지만":10924,"옵니다.\"":10925,"일보":10926,"직하게":10927,"▁사슴":10928,"▁되면서":10929,"▁자신들이":10930,"▁놓는":10931,"▁채찍":10932,"▁알아보":10933,"▁하늘에서":10934,"▁어려서":10935,"▁개선":10936,"▁교장":10937,"▁목소리였다.":10938,"▁물었":10939,"▁확인한":10940,"화,":10941,"▁머금":10942,"나라에":10943,"▁일거":10944,"▁상냥":10945,"▁동반":10946,"▁모르지만,":10947,"▁교수의":10948,"()으로":10949,"▁움직이기":10950,"▁암살":10951,"던데":10952,"▁시커":10953,"▁전후":10954,"▁연장":10955,"▁진지하게":10956,"터에서":10957,"▁여인을":10958,"▁전진":10959,"▁철민":10960,"▁뜻은":10961,"▁나타내":10962,"▁올라가는":10963,"▁훈련을":10964,"액을":10965,"▁목구멍":10966,"▁출현":10967,"▁일으키는":10968,"'와":10969,"배의":10970,"율이":10971,"▁소녀는":10972,"▁가득한":10973,"간지":10974,"▁이민":10975,"▁말려":10976,"▁누운":10977,"▁치명":10978,"▁투로":10979,"여행":10980,"▁공룡":10981,"▁허둥":10982,"▁줘":10983,"봐.\"":10984,"욱은":10985,"지!":10986,"▁문화를":10987,"▁길러":10988,"▁한국에":10989,"▁욕을":10990,"막한":10991,"든가,":10992,"였어요.":10993,"라고.":10994,"▁구축":10995,"▁사람이라면":10996,"▁아버지에게":10997,"삼촌":10998,"▁\"명":10999,"▁보니,":11000,"▁경향이":11001,"▁반면":11002,"▁피우고":11003,"▁질을":11004,"▁나오자":11005,"요.\"그녀는":11006,"들보다":11007,"리에게":11008,"▁보더니":11009,"▁여지":11010,"▁따져":11011,"▁종류":11012,"▁V":11013,"▁일,":11014,"▁허리에":11015,"▁수송":11016,"▁보세요.":11017,"▁같지는":11018,"▁여자도":11019,"▁화면":11020,"▁김종":11021,"▁각하":11022,"▁땅의":11023,"▁대학생":11024,"르자":11025,"▁\"백":11026,"▁'나":11027,"▁번만":11028,"▁있어요?":11029,"나라를":11030,"▁몰라요.":11031,"▁대궐":11032,"▁말씀드리":11033,"▁대통령의":11034,"종일":11035,"공은":11036,"능한":11037,"해준":11038,"▁두었던":11039,"▁중대":11040,"▁타고난":11041,"▁가져가":11042,"▁주변에":11043,"치와":11044,"▁죽기":11045,"▁이제야":11046,"▁필요할":11047,"▁쉬지":11048,"▁주머니에서":11049,"이지.":11050,"치자":11051,"하리":11052,"▁가은":11053,"이나마":11054,"▁하나님의":11055,"시킨다.":11056,"(이":11057,"모에":11058,"▁수습":11059,"▁모처럼":11060,"▁숙여":11061,"▁그럼,":11062,"▁얼굴도":11063,"으려면":11064,"▁\"응,":11065,"▁차림의":11066,"활한":11067,"▁계속되었다.":11068,"▁오,":11069,"▁미쳤":11070,"▁임시":11071,"▁마음껏":11072,"▁공산주의":11073,"란다":11074,"포의":11075,"▁실례":11076,"인가요?":11077,"▁농촌":11078,"▁해를":11079,"▁일이라":11080,"▁않았어.":11081,"김없이":11082,"▁\"죽":11083,"그때":11084,"▁소나":11085,"▁가운데서":11086,"되던":11087,"▁\"실":11088,"▁모욕":11089,"▁고함":11090,"▁성행":11091,"▁붙인":11092,"▁벽돌":11093,"▁햇살":11094,"▁알렉산":11095,"였는데,":11096,"▁달에":11097,"▁소녀의":11098,"▁필사":11099,"▁일기":11100,"▁고래":11101,"▁동행":11102,"▁줄이":11103,"▁회전":11104,"▁움직임을":11105,"▁몽땅":11106,"▁자본주의":11107,")로":11108,"식,":11109,"▁이길":11110,"▁도는":11111,"▁평균":11112,"▁그리곤":11113,"▁검을":11114,"▁육체를":11115,"▁\"임":11116,"▁인쇄":11117,"▁쳐서":11118,"놈을":11119,"비도":11120,"프트":11121,"▁시체가":11122,"▁짓밟":11123,"간다는":11124,"힘을":11125,"▁그렇습니다.":11126,"▁국민학교":11127,"▁듬":11128,"▁두뇌":11129,"▁못했다":11130,"▁놓을":11131,"벌레":11132,"▁필연":11133,"▁동일한":11134,"▁삼고":11135,"▁그때의":11136,"▁생활은":11137,"▁거주":11138,"▁형은":11139,"▁토론":11140,"▁그제야":11141,"\"이":11142,"▁정면으로":11143,"▁초래":11144,"▁여기고":11145,"▁일본이":11146,"▁이루는":11147,"▁두려운":11148,"▁비참한":11149,"▁창밖을":11150,"▁간혹":11151,"▁산책":11152,"▁학생이":11153,"▁들어오지":11154,"\"는":11155,"제와":11156,"▁단체":11157,"▁\"예.\"":11158,"▁오신":11159,"▁못된":11160,"▁작년":11161,"▁허무":11162,"워져":11163,"▁때문인지":11164,"▁모두를":11165,"▁적극적으로":11166,"순히":11167,"토가":11168,"▁대규":11169,"▁무더":11170,"▁공기를":11171,"▁몸과":11172,"▁직후":11173,"▁문화의":11174,"▁돌아와서":11175,"▁잠에":11176,"▁심부":11177,"▁온다.":11178,"▁앞으로도":11179,"▁손짓":11180,"▁장군이":11181,"▁열을":11182,"▁심리학":11183,"▁던지고":11184,"▁거예요":11185,"▁섭섭":11186,"▁류지오는":11187,"▁정착":11188,"▁1백":11189,"▁만들기":11190,"▁살펴보았다.":11191,"강이":11192,"부들":11193,"▁\"그냥":11194,"▁헤엄":11195,"▁지금이":11196,"▁어디를":11197,"▁노래가":11198,"▁잠자리에":11199,"네요.\"":11200,"더.":11201,"초로":11202,"▁아니라면":11203,"▁격렬한":11204,"▁내면서":11205,"▁신혼":11206,"▁정기":11207,"▁상대의":11208,"▁차단":11209,"▁축축":11210,"자면":11211,"▁배울":11212,"▁왔는데":11213,"▁경제적":11214,"▁모스크":11215,"▁행복하게":11216,"▁양이":11217,"▁나오면":11218,"▁끈질":11219,"▁고장":11220,"▁허공을":11221,"▁찍은":11222,"▁사태를":11223,"대요.":11224,"▁있더":11225,"▁신도":11226,"▁들어간다.":11227,"▁개울":11228,"▁현명한":11229,"▁양은":11230,"▁\"다른":11231,"▁필수":11232,"▁빼앗아":11233,"난을":11234,"목은":11235,"시스":11236,"해지기":11237,"▁의심을":11238,"▁따위를":11239,"▁통화":11240,"거라.":11241,"▁당사":11242,"▁무척이나":11243,"▁쿠데":11244,"▁바탕으로":11245,"차로":11246,"▁번에":11247,"▁겨누":11248,"▁바에":11249,"▁그리고,":11250,"▁복도를":11251,"▁191":11252,"기들이":11253,"▁없지만,":11254,"▁빠뜨":11255,"▁고통이":11256,"▁동쪽":11257,"▁얘길":11258,"▁겁에":11259,"▁부모님":11260,"들였다.":11261,"크로":11262,"▁글씨":11263,"들끼리":11264,"▁감촉":11265,"▁보험":11266,"▁손아":11267,"러의":11268,"▁이끄는":11269,"▁것과는":11270,"▁신청":11271,"▁사태가":11272,"대.":11273,"▁사람인":11274,"▁극단":11275,"▁대수":11276,"▁인용":11277,"▁자네를":11278,"▁마련해":11279,"▁뻔한":11280,"졌습니다.":11281,"▁가리고":11282,"▁친구들과":11283,"▁각오":11284,"▁미국은":11285,"▁\"황":11286,"▁생명이":11287,"▁열리고":11288,"▁변했다.":11289,"▁추정":11290,"하겠습니다.":11291,"두가":11292,"테이":11293,"▁시을":11294,"▁목표를":11295,"▁스포츠":11296,"중에서":11297,"▁\"계":11298,"▁조화":11299,"▁움직임":11300,"▁쓰러진":11301,"▁있는,":11302,"▁되니":11303,"▁곤충":11304,"시지":11305,"았지만":11306,"▁않았지만,":11307,"▁낮추":11308,"구먼":11309,"당으로":11310,"▁\"감":11311,"▁차리고":11312,"▁울리는":11313,"했다가":11314,"▁추가":11315,"▁뿌려":11316,"리다":11317,"문에서":11318,"이.":11319,"▁없었어요.":11320,"▁움츠":11321,"속에서":11322,"티가":11323,"▁았다.":11324,"좋게":11325,"▁본다면":11326,"▁여러분의":11327,"▁해당하는":11328,"석에서":11329,"토니":11330,"▁것의":11331,"▁말하면서":11332,"▁눈길로":11333,"▁미스터":11334,"▁마음도":11335,"이었으나":11336,"▁치우":11337,"▁필립":11338,"▁이해를":11339,"▁발견하고":11340,"밭에":11341,"질에":11342,"▁애들이":11343,"▁충족":11344,"▁그만한":11345,"▁더럽":11346,"▁들어가지":11347,"▁교사":11348,"▁와서는":11349,"군요":11350,"무니":11351,"▁대동":11352,"▁이어지는":11353,"▁실험을":11354,"인트":11355,"▁수련":11356,"▁비를":11357,"▁놀러":11358,"어버리고":11359,"술에":11360,"치듯":11361,"▁대조":11362,"▁역력":11363,"▁좋아서":11364,"당신":11365,"키지":11366,"▁만화":11367,"▁제각":11368,"들게":11369,"▁가정을":11370,"▁마취":11371,"▁입는":11372,"▁작전을":11373,"▁힘차게":11374,"▁클럽":11375,"▁나뭇가지":11376,"▁은하":11377,"▁슬픔을":11378,"▁바쁘게":11379,"▁\"그때":11380,"▁평소에":11381,"▁욕망을":11382,"▁쪽이":11383,"법으로":11384,"▁세련":11385,"▁리듬":11386,"▁깨닫고":11387,"▁얼굴이었다.":11388,"▁팽팽":11389,"저를":11390,"▁의자를":11391,"▁얼굴과":11392,"▁겁이":11393,"▁표현할":11394,"이었지만,":11395,"노는":11396,"분쯤":11397,"어요,":11398,"율을":11399,"지역":11400,"▁고운":11401,"혁이":11402,"▁잔잔":11403,"36":11404,"태의":11405,"▁한반":11406,"▁무려":11407,"▁가족을":11408,"▁\"언제":11409,"▁없이는":11410,"▁오페":11411,"이었다는":11412,"▁승리를":11413,"▁하사":11414,"▁마냥":11415,"▁떨어지지":11416,"담의":11417,"려던":11418,"마!":11419,"▁\"불":11420,"▁제품":11421,"▁슬그머니":11422,"ore":11423,"▁이불":11424,"▁목적이":11425,"▁뉴스":11426,"▁독일의":11427,"걱정":11428,"▁산에":11429,"▁풍요":11430,"▁부르르":11431,"▁둘러싸고":11432,"▁어리둥절":11433,"▁궐":11434,"미한":11435,"▁상륙":11436,"▁스스로의":11437,"▁꼴을":11438,"관,":11439,"봉을":11440,"증에":11441,"▁유감":11442,"▁귀여운":11443,"ly":11444,"▁공기가":11445,"▁추천":11446,"▁아침부터":11447,"▁확인하고":11448,"견을":11449,"다나":11450,"▁한복":11451,"▁동성":11452,"▁연신":11453,"▁받쳐":11454,"▁진화":11455,"▁시간과":11456,"느냐.":11457,"▁묶여":11458,"▁유기":11459,"▁점검":11460,"기기":11461,"▁\"...\"":11462,"▁남이":11463,"▁불쾌한":11464,"▁계획이":11465,"▁\"로":11466,"▁대하는":11467,"▁거리의":11468,"▁그렇게도":11469,"▁맞을":11470,"▁까닭이":11471,"▁)":11472,"나서":11473,"전,":11474,"▁자체를":11475,"▁되기를":11476,"▁난다.":11477,"▁회상":11478,"▁회사에":11479,"▁대답할":11480,"▁세자의":11481,"▁실감":11482,"▁요푸":11483,"▁음성이":11484,"▁좋아요.":11485,"탕을":11486,"▁조성":11487,"▁담은":11488,"습네":11489,"제.":11490,"▁편안한":11491,"금으로":11492,"발한":11493,"▁호수":11494,"▁내려오는":11495,"▁어디가":11496,"▁부끄러운":11497,"▁맞서":11498,"▁그런데,":11499,"▁항의":11500,"▁얻고":11501,"▁틈에":11502,"▁머리카락을":11503,"인인":11504,"▁기대를":11505,"▁전쟁의":11506,"비한":11507,"▁녹아":11508,"내에":11509,"색은":11510,"▁될지":11511,"▁잊혀":11512,"▁서울의":11513,"▁거기다가":11514,"▁이재":11515,"▁수술을":11516,"▁보라.":11517,"▁창피":11518,"▁갑작스런":11519,"▁엽":11520,"석으로":11521,"▁계셨":11522,"▁법이다.":11523,"▁서로가":11524,"▁결혼할":11525,"▁관련이":11526,"▁풍부한":11527,"▁주일":11528,"▁비닐":11529,"▁유일":11530,"▁사람이라고":11531,"▁자세한":11532,"자라는":11533,"판에서":11534,"▁스커":11535,"▁가늘게":11536,"▁보기에는":11537,"투성이":11538,"▁\"좀":11539,"▁처벌":11540,"▁떨며":11541,"▁한결같이":11542,"▁부지런히":11543,"▁거세":11544,"▁귀한":11545,"▁응답":11546,"▁아닐까.":11547,"▁포기하고":11548,"▁일어서서":11549,"▁율리":11550,"▁아무렇지도":11551,"르던":11552,"릇한":11553,"▁뛰어넘":11554,"▁어려워":11555,"▁그분은":11556,"▁거요?":11557,"▁않고는":11558,"▁들어가고":11559,"▁인민군":11560,"▁^":11561,"답지":11562,"반은":11563,"욕이":11564,"터로":11565,"▁헤르":11566,"▁빛나고":11567,"거리다가":11568,"▁4년":11569,"▁어렵다.":11570,"음악":11571,"주었":11572,"포로":11573,"▁지는":11574,"▁주신":11575,"▁동경":11576,"▁측정":11577,"▁의학":11578,"▁성적인":11579,"▁충동":11580,"▁멀지":11581,"▁죄가":11582,"▁무시무":11583,"▁내었다.":11584,"▁성실":11585,"구나,":11586,"▁꽤나":11587,"4.":11588,"다며":11589,"마자":11590,"▁부디":11591,"▁형태의":11592,"근이":11593,"▁\"은":11594,"▁머무":11595,"▁밤에는":11596,"▁옆을":11597,"▁나가야":11598,"▁이데":11599,"▁것이었습니다.":11600,"▁전파":11601,"▁의혹":11602,"▁손님을":11603,"오면서":11604,"포는":11605,"▁스피":11606,"▁억누":11607,"▁한편,":11608,"▁어른이":11609,"말고":11610,"▁그을":11611,"▁사장이":11612,"▁오스트":11613,"▁적절":11614,"▁투입":11615,"▁상관없":11616,"▁느닷없이":11617,"▁마리를":11618,"▁마무리":11619,"▁고아":11620,"▁데다가":11621,"▁출신의":11622,"▁알아들을":11623,"눈을":11624,"본을":11625,"▁안의":11626,"▁들어가면":11627,"▁아가씨가":11628,"▁\"연":11629,"▁마라.":11630,"앞으로":11631,"열의":11632,"▁놀고":11633,"잖아요?":11634,"사무":11635,"오나":11636,"▁남는":11637,"▁먹어야":11638,"▁울려퍼":11639,"!'":11640,"길래":11641,"▁장치":11642,"하면,":11643,"▁책의":11644,"▁띄지":11645,"다섯":11646,"앉아":11647,"▁내에서":11648,"▁불려":11649,"▁생각해도":11650,"ld":11651,"▁언제부터":11652,"▁레스토":11653,"▁지역에":11654,"록을":11655,"페이":11656,"▁인연":11657,"▁미행":11658,"▁향해서":11659,"▁신문에":11660,"▁외에도":11661,"▁어디론가":11662,"▁90":11663,"▁아빠가":11664,"올로":11665,"▁같애":11666,"▁손목":11667,"▁얼굴의":11668,"▁일대":11669,"▁무작":11670,"▁서슴":11671,"▁걸리":11672,"▁배우는":11673,"▁언니가":11674,"▁포르":11675,"▁한바탕":11676,"▁세계로":11677,"된다":11678,"▁\"결":11679,"▁가구":11680,"▁일세.":11681,"▁조명":11682,"▁째":11683,"관계를":11684,"▁공무":11685,"▁가수":11686,"▁보도록":11687,"▁기껏":11688,"▁조롱":11689,"▁환상":11690,"▁살아있는":11691,"▁나무에":11692,"▁기울여":11693,"▁싼":11694,"계에서":11695,"준을":11696,"편에서":11697,"▁불고":11698,"▁뒤에도":11699,"▁복도":11700,"▁\"그러자":11701,")-":11702,"▁나을":11703,"밭을":11704,"쓰고":11705,"우리는":11706,"▁소장":11707,"▁싶지는":11708,"▁경찰은":11709,"누가":11710,"병으로":11711,"▁가느":11712,"▁잠든":11713,"▁올리는":11714,"▁\"아저":11715,"▁겪은":11716,"▁겸손":11717,"▁않겠다고":11718,"▁전공":11719,"▁'자":11720,"▁처박":11721,"▁제목:":11722,"마이":11723,"▁일생":11724,"▁이것도":11725,"▁증언":11726,"▁승객":11727,"▁괜찮아":11728,"▁기대어":11729,"▁빙긋":11730,"▁주문을":11731,"▁인간에게":11732,"▁5백":11733,"▁얻기":11734,"▁유리창":11735,"겁고":11736,"루는":11737,"▁한없이":11738,"▁중에도":11739,"▁보다.":11740,"▁않았다고":11741,"▁테르":11742,"▁부끄러워":11743,"잡한":11744,"▁유인":11745,"▁귀중한":11746,"▁이유도":11747,"덕이":11748,"▁낭만":11749,"스도":11750,"▁지향":11751,"▁서늘":11752,"▁2층":11753,"▁아침,":11754,"▁\"의":11755,"▁일인":11756,"▁신호를":11757,"▁싶어요.":11758,"더는":11759,"부지":11760,"사나":11761,"샤는":11762,"▁대도":11763,"▁확인할":11764,"▁허허":11765,"▁뛰는":11766,"▁나이를":11767,"▁바쳐":11768,"▁인하여":11769,"▁남녀가":11770,"▁열리는":11771,"▁듣게":11772,"▁드러났다.":11773,"................":11774,"가도":11775,"문과":11776,"▁시는":11777,"▁성숙":11778,"▁추경":11779,"국과":11780,"케이":11781,"▁아나":11782,"▁비겁":11783,"▁이제까지":11784,"▁프랑스의":11785,"당하는":11786,"지듯":11787,"▁수의":11788,"▁무수한":11789,"▁세게":11790,"▁진리를":11791,"▁부분에":11792,"▁말라.":11793,"▁그런지":11794,"니까요.\"":11795,"▁애는":11796,"▁위해서였다.":11797,"▁들릴":11798,"▁해.\"":11799,"▁돌연":11800,"▁뒤섞":11801,"▁변한":11802,"▁그곳에는":11803,"▁낯설":11804,"▁일체":11805,"▁안경":11806,"▁입장이":11807,"▁싶습니다.":11808,"스틴":11809,"▁장갑":11810,"▁병사들이":11811,"▁사로잡혀":11812,"▁여기가":11813,"▁상승":11814,"▁장의":11815,"▁최대":11816,"▁\"고맙":11817,"ain":11818,"마누":11819,"슨의":11820,"▁같고":11821,"▁비비":11822,"시켜야":11823,"▁덮고":11824,"▁상처가":11825,"▁구석구":11826,"꽃이":11827,"▁어처":11828,"▁소년이":11829,"▁학생들은":11830,"▁\"피":11831,"▁적합":11832,"▁넘게":11833,"▁만든다.":11834,"▁몰아쉬":11835,"▁주먹으로":11836,"린다는":11837,"▁일인지":11838,"▁거침":11839,"▁조조":11840,"▁구름이":11841,"▁풍경":11842,"▁감옥에":11843,"▁주기를":11844,"▁새가":11845,"▁얼굴에서":11846,"▁배낭":11847,"▁입술에":11848,"세요!":11849,"지던":11850,"▁싸게":11851,"▁꺼져":11852,"▁움직이":11853,"값을":11854,"▁거실":11855,"▁실어":11856,"▁섬뜩":11857,"▁소년의":11858,"▁어색한":11859,"송을":11860,"▁사람이나":11861,"▁정인은":11862,"▁병원으로":11863,"▁흘렸다.":11864,"▁물론,":11865,"▁있지?":11866,"하시고":11867,"▁마이클":11868,"▁잔인한":11869,"▁\"반":11870,"▁현장":11871,"▁떨리고":11872,"이야?":11873,"▁지켜보았다.":11874,"▁\"그러니까":11875,"▁조직의":11876,"▁말이오.":11877,"▁인생은":11878,"▁요즘은":11879,"루의":11880,"들과는":11881,"▁남짓":11882,"▁무엇인가?":11883,"▁이번에도":11884,"▁집안을":11885,"▁말미":11886,"▁아무렇게":11887,"▁파멸":11888,"▁믿음":11889,"황을":11890,"황이":11891,"▁소외":11892,"▁듯,":11893,"▁둘러보":11894,"으리라는":11895,"▁말처럼":11896,"▁여불":11897,"▁밤낮":11898,"로서,":11899,"▁탓에":11900,"▁\"카":11901,"▁말하기":11902,"▁왔다고":11903,"▁깊고":11904,"▁해도,":11905,"번이":11906,"▁생각만":11907,"▁달리고":11908,"▁짓은":11909,"▁위치에":11910,"선에서":11911,"▁바빠":11912,"▁급속":11913,"▁살았다.":11914,"▁종이를":11915,"이라.":11916,"▁짐짓":11917,"▁형태를":11918,"퍼센트":11919,"▁거들":11920,"▁그런대로":11921,"▁엄격":11922,"▁합쳐":11923,"▁미래의":11924,"(?)":11925,"▁있긴":11926,"▁생각하게":11927,"▁감돌":11928,"▁싸워":11929,"▁베트":11930,"▁혜린":11931,"▁오후에":11932,"▁\"모르":11933,"▁정화":11934,"▁대변":11935,"▁부릅":11936,"▁되기도":11937,"▁받는다.":11938,"▁놀라지":11939,"▁퍼붓":11940,"▁웬일":11941,"미나":11942,"이에서":11943,"츠는":11944,"▁190":11945,"▁일으켰":11946,"▁동생이":11947,"▁시원한":11948,"▁나설":11949,"▁소름이":11950,"▁이루어져":11951,"▁그르":11952,"▁기를":11953,"▁안도의":11954,"▁못하였다.":11955,"▁읽었다.":11956,"습니다만,":11957,"하였고":11958,"▁알아?":11959,"먹었다.":11960,"손에":11961,"죽이":11962,"▁\"처":11963,"▁어림":11964,"▁끝났다.":11965,"▁일본인":11966,"▁간단하게":11967,"운드":11968,"편의":11969,"후가":11970,"▁하기로":11971,"▁대담":11972,"▁사제":11973,"▁단한":11974,"▁처형":11975,"▁식은":11976,"▁내려놓았다.":11977,"▁깔고":11978,"▁지내고":11979,"▁5^":11980,"▁묻자":11981,"▁도착할":11982,"학에":11983,"▁바꿀":11984,"▁피고":11985,"▁판단을":11986,"놈들이":11987,"▁햇살이":11988,"교육":11989,"하구":11990,"했지.":11991,"▁비친":11992,"▁불만을":11993,"▁싶었지만":11994,"▁운이":11995,"▁미소지":11996,"▁사령관":11997,"▁함으로써":11998,"▁앉았":11999,"▁풍기는":12000,",,,,,,":12001,"▁똑똑히":12002,"▁아냐.":12003,"▁나니":12004,"▁시끄러":12005,"▁컨":12006,"버는":12007,"▁없음을":12008,"▁따지고":12009,"▁좋아했다.":12010,"천에":12011,"▁내린다.":12012,"▁위를":12013,"▁잔에":12014,"▁일관":12015,"▁설령":12016,"▁집안으로":12017,"▁죽으면":12018,"▁이야기해":12019,"▁이곳으로":12020,"이트는":12021,"으리라":12022,"▁하겠습니다.":12023,"가지를":12024,"미로":12025,"▁부활":12026,"▁우리집":12027,"▁긴장을":12028,"으므로,":12029,"▁플레이":12030,"▁여러분이":12031,"▁철저한":12032,"형사":12033,"▁\"차":12034,"▁전까지":12035,"만이라도":12036,"▁쏟아지는":12037,"거야":12038,"내를":12039,"▁\"더":12040,"▁가며":12041,"▁김영":12042,"표는":12043,"▁이쪽":12044,"▁주관":12045,"▁중간에":12046,"▁뒤져":12047,"▁배워":12048,"▁추운":12049,"▁컴퓨터를":12050,"▁맞았":12051,"▁그쪽":12052,"▁아스":12053,"▁의사의":12054,"e,":12055,"▁조지":12056,"▁앞에서는":12057,"▁돈도":12058,"▁범인이":12059,"당에서":12060,"▁사랑할":12061,"▁테러":12062,"um":12063,"친구":12064,"▁지독한":12065,"▁고생을":12066,"▁도시를":12067,"▁정신의":12068,"▁놀라며":12069,"▁때까지는":12070,"▁물러서":12071,"11":12072,"권에":12073,"우.":12074,"우와":12075,"호도":12076,"▁\"그만":12077,"▁폭탄":12078,".\"그가":12079,"▁맑고":12080,"▁이태":12081,"▁제국의":12082,"▁29":12083,"▁심장이":12084,"다!\"":12085,"▁할까?":12086,"▁아이디어":12087,"▁옆에는":12088,"▁사라지는":12089,"▁끊었다.":12090,"▁할머니의":12091,"▁증거가":12092,"(S":12093,"뜨고":12094,"부,":12095,"▁나보다":12096,"▁진영":12097,"▁배우고":12098,"더라":12099,"망한":12100,"밤에":12101,"▁수색":12102,"▁모임":12103,"▁병사들은":12104,"▁미루어":12105,"규가":12106,"론에":12107,"필을":12108,"▁있었는지":12109,"▁\"그것":12110,"▁흘렀":12111,"▁밝히":12112,"졌다고":12113,"▁특이한":12114,"▁삼각":12115,"금의":12116,"마르":12117,"우면":12118,"▁다그":12119,"▁멀어져":12120,"한의":12121,"▁해본":12122,"▁재빠":12123,"▁치러":12124,"▁옛날의":12125,"ep":12126,"씩씩":12127,"짓는":12128,"호흡":12129,"▁\"병":12130,"▁차량":12131,"▁강제로":12132,"▁찾아야":12133,"▁조직을":12134,"했다면":12135,"▁이도":12136,"▁말하기를":12137,"님.\"":12138,"리스트":12139,"현을":12140,"▁부부는":12141,"하느라":12142,"▁두세":12143,"▁차별":12144,"▁교과":12145,"▁김호":12146,"()로":12147,"▁됐다.":12148,"▁두들겨":12149,"거릴":12150,"맞춤":12151,"▁2백":12152,"▁시간도":12153,"▁절벽":12154,"▁구멍이":12155,"not":12156,"암은":12157,"▁한,":12158,"▁두려움을":12159,"▁봄이":12160,"▁요시다":12161,"▁보기도":12162,"▁3천":12163,"▁기본적인":12164,"▁말투로":12165,"스탄":12166,"▁바다가":12167,"▁피살":12168,"▁벌어졌다.":12169,"카의":12170,"▁아래에서":12171,"▁사진이":12172,"▁나누었다.":12173,"▁뜻밖에도":12174,"▁주인의":12175,"▁호위":12176,"▁체념":12177,"그래서":12178,"▁괴로워":12179,"맛이":12180,"▁수호":12181,"▁오라":12182,"ant":12183,"력도":12184,"유는":12185,"▁때쯤":12186,"▁제출":12187,"▁서쪽":12188,"▁순순히":12189,"▁벗은":12190,"나무가":12191,"예를":12192,"▁신중":12193,"▁어떻게든":12194,"▁밤중에":12195,"▁거리로":12196,"▁생각하면서":12197,"▁역사가":12198,"▁창작":12199,"▁미국이":12200,"ri":12201,"▁맙":12202,"겹게":12203,"▁\"죄송":12204,"▁참된":12205,"▁표현을":12206,"▁거슬러":12207,"▁켰다.":12208,"▁향하는":12209,"▁얘긴":12210,"▁부르며":12211,"▁붉게":12212,"토의":12213,"▁흘리고":12214,"▁꾸미":12215,"▁그랬더니":12216,"거든요.\"":12217,"▁'고":12218,"▁\"이게":12219,"▁까마":12220,"▁불의":12221,"▁스님의":12222,"▁초상":12223,"▁위험이":12224,"▁내려가는":12225,"▁순간을":12226,"▁언제든지":12227,"▁것처럼,":12228,"▁어렵지":12229,"어가는":12230,"▁소릴":12231,"▁단편":12232,"▁바라볼":12233,"▁나서야":12234,"▁다니엘":12235,"바라":12236,"▁사십":12237,"▁않자":12238,"▁감정의":12239,"▁팔이":12240,"▁가져온":12241,"▁동철은":12242,"▁환하게":12243,"▁자기네":12244,"▁빼고":12245,"▁잇는":12246,"밖에서":12247,"속은":12248,"정,":12249,"▁가방":12250,"▁동맹":12251,"▁명랑":12252,"채가":12253,"▁끌어안고":12254,"아시아":12255,"▁하지는":12256,"달라는":12257,"루에":12258,"▁부패":12259,"▁여자들의":12260,"자.\"":12261,"집니다.":12262,"▁스웨":12263,"50":12264,"피가":12265,"▁아서":12266,"▁보라":12267,"▁전제":12268,"▁방식을":12269,"▁했지.":12270,"▁뭐야?":12271,"▁낙엽":12272,"보의":12273,"▁대낮":12274,"▁방은":12275,"▁좋습니다.":12276,"▁향기":12277,"주의적":12278,"▁하루가":12279,"▁부르짖":12280,"선과":12281,"섭이":12282,"혼을":12283,"한다면,":12284,"▁잠긴":12285,"▁자리잡":12286,"여!":12287,"▁먹이를":12288,"▁집행":12289,"▁다가오고":12290,"▁아름다움을":12291,"▁뛰쳐나":12292,"원들의":12293,"▁소녀가":12294,"▁여자들을":12295,"▁보여준":12296,"오며":12297,"▁대략":12298,"▁언니는":12299,"▁보이기":12300,"▁신속":12301,"▁빨게":12302,"▁흡수":12303,"▁이외의":12304,"어오르는":12305,"개는":12306,"만.":12307,"▁부어":12308,"▁선전":12309,"▁언제까지":12310,"▁10여":12311,"▁\"과":12312,"▁이상하게도":12313,"▁정보가":12314,"▁균형을":12315,"감하게":12316,"▁세력이":12317,"▁손목을":12318,"▁베어":12319,"선다.":12320,"▁'한":12321,"▁붙들고":12322,"▁대학의":12323,"▁덮여":12324,"▁어딘지":12325,"▁\"아닙니다.":12326,"▁전염":12327,"▁개척":12328,"▁이름의":12329,"▁하라는":12330,"▁안주":12331,"▁갔던":12332,"▁이듬":12333,"들과의":12334,"▁청소년":12335,"▁뚜렷한":12336,"함으로":12337,"▁편지가":12338,"원들을":12339,"저런":12340,"판의":12341,"한이":12342,"혜는":12343,"▁아아,":12344,"▁사상을":12345,"▁모리":12346,"▁진입":12347,"▁야단":12348,"▁누군지":12349,"▁호랑이":12350,"▁이해하는":12351,"기야":12352,"▁전하의":12353,"▁터질":12354,"▁태양이":12355,"▁비스듬":12356,"겠다.\"":12357,"▁이시":12358,"▁\"설":12359,"▁마법":12360,"▁이름도":12361,"▁일본군":12362,"▁이루지":12363,"▁으며":12364,"▁분주":12365,"▁강변":12366,"▁았":12367,"▁가량":12368,"▁진우는":12369,"▁박영":12370,"▁궁궐":12371,"▁겉으로":12372,"▁무한한":12373,"격에":12374,"근은":12375,"사들은":12376,"▁인구":12377,"▁있었다면":12378,"▁혼인":12379,"▁엄지":12380,"▁“그":12381,"옥을":12382,"하이":12383,"▁거처":12384,"▁소화":12385,"▁고등":12386,"▁남쪽으로":12387,"▁분별":12388,"▁과정이":12389,"▁벌어졌":12390,"▁거야,":12391,"▁원형":12392,"▁길에서":12393,"▁회사를":12394,"▁웅크리고":12395,"▁강인":12396,"▁자위":12397,"▁강경":12398,"▁하나만":12399,"▁찾았":12400,"▁조사해":12401,"▁/":12402,"▁시시":12403,"▁안톤":12404,"▁주장했다.":12405,"▁죠나":12406,"브라":12407,"▁자궁":12408,"▁기쁘":12409,"▁당혹":12410,"▁어려웠다.":12411,"▁대의":12412,"▁파출":12413,"▁봉투":12414,"갔습니다.":12415,"광을":12416,"▁더군":12417,"▁들었습니다.":12418,"▁눈빛을":12419,"데도":12420,"▁오락":12421,"▁우연":12422,"▁찾아갔다.":12423,"▁마르크":12424,"래는":12425,"▁그들도":12426,"▁일깨":12427,"▁고,":12428,"▁아니란":12429,"▁충동을":12430,"▁이야기하는":12431,"▁용납":12432,"▁미국으로":12433,"▁만들었":12434,"▁가르치는":12435,"▁돌려보":12436,"테르":12437,"풍을":12438,"▁마비":12439,"▁살면서":12440,"▁넣는":12441,"구요?":12442,"혜가":12443,"▁나비":12444,"▁바다.":12445,"▁상감":12446,"▁존재의":12447,"▁뚫어지게":12448,"'이라":12449,"▁우석":12450,"▁성을":12451,"▁많아서":12452,"▁반갑":12453,"▁빠졌다.":12454,"▁즐기고":12455,"▁더듬어":12456,"▁한계":12457,"▁것이지":12458,"▁고위":12459,"▁건물을":12460,"달은":12461,"▁절로":12462,"▁g":12463,"숙을":12464,"젊은":12465,"진과":12466,"해!":12467,"▁소란":12468,"▁생각된다.":12469,"▁않았으나":12470,"▁국회":12471,"저것":12472,"종범은":12473,"▁일정":12474,"▁반문":12475,"▁그때,":12476,"▁권리를":12477,"▁봉투를":12478,"▁암시":12479,"▁내려다보고":12480,"▁있는지를":12481,"▁비쳐":12482,"▁열지":12483,"인가를":12484,"스러울":12485,"▁투명한":12486,"마일":12487,"부대":12488,"카를":12489,"▁소대":12490,"▁진주":12491,"▁지나자":12492,"▁복사":12493,"▁경찰의":12494,"▁절대적인":12495,"▁웨이터":12496,"▁에서":12497,"▁말입니다.\"":12498,"▁금방이라도":12499,"퍼를":12500,"▁전쟁에":12501,"겁지":12502,"끈한":12503,"▁마십시오.":12504,"▁불태":12505,"▁평안":12506,"변이":12507,"▁도리가":12508,"▁충고":12509,"▁겁니까?\"":12510,"▁쓸모":12511,"▁건강을":12512,"▁것인가를":12513,"하더라도":12514,"▁미치는":12515,"▁욕심":12516,"▁익은":12517,"▁증거를":12518,"4)":12519,"병들이":12520,"전과":12521,"▁성냥":12522,"▁날이었다.":12523,"▁요구를":12524,"▁막대한":12525,"▁터무니":12526,"▁쓸데없는":12527,"▁들어보":12528,"이지.\"":12529,"▁암호":12530,"▁탄식":12531,"▁닥쳐":12532,"산과":12533,"일까":12534,"▁고뇌":12535,"▁돌아가셨":12536,"환은":12537,"▁안을":12538,"▁있었지.":12539,"▁분은":12540,"▁있거나":12541,"▁못해서":12542,"▁관습":12543,"▁힘없이":12544,"▁그리며":12545,"▁달려들어":12546,"▁죄책":12547,"▁사람들로":12548,"쳤을":12549,"▁\"혹시":12550,"▁다정":12551,"▁멈춘":12552,"▁고향에":12553,"'\"":12554,"▁기획":12555,"▁무명":12556,"▁뭐라":12557,"스트라":12558,"▁목적은":12559,"▁자를":12560,"▁않았는데":12561,"▁우울한":12562,"로와":12563,"▁잠겼다.":12564,"▁세계는":12565,"▁깨달은":12566,"▁오늘날의":12567,"과에":12568,"놓을":12569,"▁오드":12570,"▁총독":12571,"▁봐.":12572,"▁거두어":12573,"참,":12574,"▁공연":12575,"▁목적으로":12576,"▁밝게":12577,"▁바다로":12578,"▁유사":12579,"▁개방":12580,"▁끝낸":12581,"소리와":12582,"끼는":12583,"지니":12584,"했었":12585,"▁일의":12586,"▁곳에는":12587,"▁흔적이":12588,"습니다!":12589,"▁자유로운":12590,")으로":12591,"말의":12592,"▁때나":12593,"▁위스키":12594,"▁드리는":12595,"▁랜":12596,"▁마차":12597,"▁상업":12598,"수리":12599,"▁벌게":12600,"▁없이,":12601,"▁농담을":12602,"▁불꽃이":12603,"겠소.\"":12604,"▁소망":12605,"▁생각했다":12606,"▁안토니":12607,"▁명은":12608,"▁소리였다.":12609,"▁잃게":12610,"▁가르침을":12611,"▁옥수":12612,"▁사무실에":12613,"▁훼릭스는":12614,"놓는":12615,"자한":12616,"▁아기가":12617,"▁보상":12618,"▁전생":12619,"▁바둑":12620,"▁동생을":12621,"▁속에서는":12622,"▁전화로":12623,"▁경찰서":12624,"되기도":12625,"▁하데":12626,"▁전체의":12627,"들이는":12628,"▁성인":12629,"▁쉽사리":12630,"▁흔들리는":12631,"씩이나":12632,"▁않다":12633,"▁것이지요.":12634,"▁연예":12635,"▁놓으면":12636,"▁천연":12637,"▁쓰기":12638,"▁걷기":12639,"감히":12640,"치고,":12641,"▁주셨":12642,"▁미치지":12643,"다니며":12644,"▁불과한":12645,"▁사나이는":12646,"▁이글":12647,"▁지킬":12648,"▁정체":12649,"겠는데":12650,"뿐이":12651,"▁전에도":12652,"▁박지":12653,"out":12654,"▁거리에서":12655,"▁신선한":12656,"▁어뢰":12657,"▁1)":12658,"▁구실을":12659,"▁분을":12660,"▁차갑게":12661,"▁네,":12662,"외의":12663,"▁지르":12664,"▁건조":12665,"▁향하고":12666,"▁임무":12667,"▁빨라":12668,"이트가":12669,"▁의식의":12670,"거니와":12671,"▁있으면서도":12672,"▁위대":12673,"▁공간을":12674,"▁500":12675,"▁숙였다.":12676,"▁착륙":12677,"다녔":12678,"▁밤마다":12679,"▁왕비":12680,"▁독재":12681,"▁헌신":12682,"▁근처의":12683,"▁다루는":12684,"▁포옹":12685,"걸이":12686,"앉은":12687,"▁말로는":12688,"▁거였다.":12689,"▁눈길이":12690,"▁온다는":12691,"▁국민의":12692,"▁눈치였다.":12693,"▁셨":12694,"회사":12695,"흐흐":12696,"▁그분의":12697,"▁신성한":12698,"▁별이":12699,"합이":12700,"▁자라고":12701,"▁방위":12702,"▁입구에":12703,"▁달성":12704,"▁산다는":12705,"▁각자의":12706,"▁나머지는":12707,"▁K는":12708,"겠네.":12709,"일수록":12710,"▁보십시오.":12711,"▁소멸":12712,"▁배어":12713,"▁타일":12714,"께서도":12715,"곡이":12716,"▁확장":12717,"▁에워":12718,"▁올라와":12719,"하였습니다.":12720,"▁크리스틴":12721,"내어":12722,"할까":12723,"▁지낼":12724,"▁모두에게":12725,"▁침투":12726,"▁실제로는":12727,"▁일시에":12728,"▁방아":12729,"▁빠지는":12730,"▁출연":12731,"▁인디언":12732,"피스":12733,"▁바지를":12734,"▁들어서자":12735,"산한":12736,"▁보람":12737,"▁일생을":12738,"▁기색이":12739,"▁이론을":12740,"▁연결되어":12741,"파에":12742,"▁#1":12743,"산,":12744,"▁살지":12745,"▁병원에서":12746,"▁띄었다.":12747,"장.":12748,"▁받기":12749,"▁밑바닥":12750,"▁편안하게":12751,"▁창백한":12752,"취한":12753,"▁지날":12754,"▁'나는":12755,"▁속하는":12756,"▁천하의":12757,"▁싱싱":12758,"치,":12759,"▁싫었다.":12760,"대전":12761,"▁시리":12762,"▁물론이고":12763,"▁꿈에":12764,"▁A�":12765,"디다.":12766,"▁있습니까?\"":12767,"▁진압":12768,"다가도":12769,"▁못한다는":12770,"▁몰라서":12771,"그릇":12772,"랬다.":12773,"▁시의":12774,"▁간이":12775,"▁받아서":12776,"▁옷은":12777,"▁브래":12778,"▁모르겠지만":12779,"▁제외하고는":12780,"호에":12781,"▁주세요.\"":12782,"▁해안":12783,"▁설립":12784,"▁이야기하고":12785,"▁좌우로":12786,"▁퉁명":12787,"▁\"크":12788,"▁말야.\"":12789,"▁누나가":12790,"▁가르침":12791,"▁누워서":12792,"his":12793,"림에":12794,"▁정통":12795,"▁오를":12796,"▁스파":12797,"▁이종":12798,"▁대문을":12799,"▁분열":12800,"▁하나님":12801,"▁과일":12802,"▁떨렸다.":12803,"▁친정":12804,"▁찬성":12805,"s.":12806,"▁....":12807,"꾼들이":12808,"페르":12809,"▁것까지":12810,"▁대량":12811,"▁정권을":12812,"▁막힌":12813,"▁볼을":12814,"설은":12815,"▁않으며":12816,"▁정교":12817,"▁움직임이":12818,"▁부엌으로":12819,"27":12820,"▁문명의":12821,"▁변하지":12822,"▁팔로":12823,"▁승낙":12824,"라에":12825,"▁들어섰":12826,"▁잘해":12827,"▁강도":12828,"▁평상":12829,"▁털썩":12830,"▁달라진":12831,"▁위치한":12832,"▁반짝이는":12833,"▁=":12834,"천으로":12835,"▁더더":12836,"▁포착":12837,"▁심정을":12838,"▁믿어지지":12839,"▁리포":12840,"▁릴":12841,"렌은":12842,"세기에":12843,"평은":12844,"▁많다는":12845,"▁밤하늘":12846,"▁뿐이야.":12847,">는":12848,"oc":12849,"구에서":12850,"▁다는":12851,"▁내렸":12852,"▁매혹":12853,"티의":12854,"▁부추":12855,"▁안았다.":12856,"▁서야":12857,"▁찾아서":12858,"▁믿어":12859,"▁다니고":12860,"▁십자가":12861,"▁떠오른":12862,"▁하셨다.":12863,"▁정체를":12864,"▁바그":12865,"▁5분":12866,"아버지":12867,"빈의":12868,"▁\"태":12869,"▁일이라도":12870,"▁운명이":12871,"▁숨기고":12872,"▁잊어":12873,"▁브로":12874,"▁협력":12875,"▁무작정":12876,"겼다":12877,"▁있더라도":12878,"▁번의":12879,"▁가지게":12880,"▁악을":12881,"▁없네.":12882,"▁지을":12883,"▁무릅":12884,"▁조니는":12885,"▁더운":12886,"▁살아서":12887,"▁꽃잎":12888,"▁쪽에서":12889,"▁아르바":12890,"▁실종":12891,"▁애매":12892,"▁약탈":12893,"▁빈정":12894,"▁그릇을":12895,"▁고스란히":12896,"였지만,":12897,"쳤던":12898,"했으니":12899,"▁원주":12900,"()는":12901,"▁추방":12902,"▁거울을":12903,"▁버릇이":12904,"▁이행":12905,"▁남았다.":12906,"▁그림이":12907,"▁성공한":12908,"귀가":12909,"뜨리고":12910,"료가":12911,"▁모은":12912,"▁원인을":12913,"▁표면":12914,"▁황제의":12915,"▁펴고":12916,"역에서":12917,"화로":12918,"▁무리가":12919,"▁처참":12920,"회장":12921,"▁아지":12922,"▁주제":12923,"▁목욕을":12924,"▁경우에도":12925,"▁놈들은":12926,"▁엄마를":12927,"▁죽음은":12928,"다(":12929,"▁상자":12930,"▁당도":12931,"▁여기서는":12932,"▁어찌나":12933,"▁미안한":12934,"▁감추고":12935,"방울이":12936,"▁속셈":12937,"▁내려왔다.":12938,"▁전형적인":12939,"무라":12940,"▁말았다":12941,"▁안된":12942,"▁음성":12943,"▁용의":12944,"▁글이":12945,"▁바람은":12946,"▁끌어올":12947,"▁니가":12948,"▁눈앞에서":12949,"게,":12950,"▁강제":12951,"▁현명":12952,"▁여길":12953,"▁저곳":12954,"▁베를":12955,"▁즐길":12956,"저었다.":12957,"카가":12958,"▁수출":12959,"▁비누":12960,"▁뒤늦게":12961,"▁친구들은":12962,"▁깨닫지":12963,"질적인":12964,"------------":12965,"어지기":12966,"▁아무렇게나":12967,"허,":12968,"▁한의":12969,"▁애국":12970,"▁그때였다.":12971,"다니.":12972,"양에":12973,"▁말끔":12974,"▁아저씨가":12975,"▁미끄러져":12976,"▁싸늘한":12977,"▁무심코":12978,"▁이브":12979,"▁놀랍게도":12980,"):":12981,"▁나지막":12982,"▁기적":12983,"▁던지":12984,"시오.\"":12985,"▁거미":12986,"▁당분간":12987,"▁성에":12988,"▁군은":12989,"▁버리면":12990,"▁보지도":12991,"▁조조는":12992,"▁남성의":12993,"▁도중":12994,"▁특정한":12995,"▁모르겠어요.":12996,"▁여유를":12997,"▁솔직하게":12998,"관들이":12999,"이드":13000,"▁태도에":13001,"▁초청":13002,"▁운명의":13003,"형,":13004,"▁\"흥":13005,"▁누굴":13006,"▁찾은":13007,"▁회의를":13008,"▁끼워":13009,"▁끄집어":13010,"▁그네":13011,"▁세자는":13012,"▁마시며":13013,"▁머릿속에":13014,"▁눈부신":13015,"▁발행":13016,"▁시작하고":13017,"▁끌어당":13018,"호,":13019,"▁있지는":13020,"▁허고":13021,"▁사회는":13022,"▁집안이":13023,"▁\"너희":13024,"감,":13025,"묘하게":13026,"였으나":13027,"▁의문이":13028,"▁여자들":13029,"▁넘은":13030,"▁젖을":13031,"반으로":13032,"벽에":13033,"병과":13034,"▁하찮은":13035,"▁분홍":13036,"▁벌이고":13037,"▁막았다.":13038,"▁빠져나와":13039,"석과":13040,"함.":13041,"후,":13042,"▁거는":13043,"▁상공":13044,"▁범인":13045,"▁까다":13046,"레의":13047,"움도":13048,"해?":13049,"▁시선으로":13050,"▁이야기할":13051,"▁거야!":13052,"▁이어졌다.":13053,"▁옵니다.\"":13054,"▁프로그램을":13055,"마와":13056,"▁거지요.":13057,"▁등록":13058,"▁적대":13059,"▁매춘":13060,"스럽게도":13061,"▁그날은":13062,"▁맛있는":13063,"▁중얼거":13064,"자락을":13065,"▁보던":13066,"▁거렸다.":13067,"()과":13068,"▁반가운":13069,"너스":13070,"▁어딜":13071,"▁지성":13072,"냈다":13073,"사상":13074,"▁이룩":13075,"▁이것저것":13076,"▁꿈은":13077,"겠소?":13078,"마나":13079,"▁조화를":13080,"▁데에는":13081,"▁천주":13082,"거리던":13083,"베이":13084,"▁세대":13085,"▁살았던":13086,"▁예감이":13087,"▁\"아까":13088,"▁특수한":13089,"▁환자를":13090,"▁심상치":13091,"에까지":13092,"을까":13093,"▁일었다.":13094,"▁대만":13095,"▁않겠다는":13096,"▁김정":13097,"▁소리,":13098,"▁평화를":13099,"어버릴":13100,"▁여기저기서":13101,"▁레스토랑":13102,"이건":13103,"▁거죠?":13104,"▁같습니다.\"":13105,"▁안기":13106,"▁인내":13107,"▁말씀하셨":13108,"▁돌아가신":13109,"▁어찌된":13110,"▁임금이":13111,"장군":13112,"죽은":13113,"▁내민":13114,"▁것이므로":13115,"▁특정":13116,"▁없었어.":13117,"▁리더":13118,"▁살인사건":13119,"맞는":13120,"빈이":13121,"▁명상":13122,"▁타협":13123,"▁문제였다.":13124,"▁바라보던":13125,"(A":13126,"용한":13127,"▁자취를":13128,"▁다물었다.":13129,"▁커튼":13130,"▁아틀":13131,"▁하구":13132,"▁생각하였다.":13133,"▁의료":13134,"▁살의":13135,"▁호출":13136,"▁딸은":13137,"검은":13138,"트,":13139,"▁이주":13140,"▁대를":13141,"▁유의":13142,"▁준다는":13143,"녀석이":13144,"▁그랬던":13145,"▁그치지":13146,"▁\"근":13147,"▁해달라고":13148,"▁뜻대로":13149,"▁호텔에":13150,"▁벼슬을":13151,"티를":13152,"▁되는데,":13153,"▁사랑으로":13154,"▁하듯이":13155,"▁지가":13156,".\"나는":13157,"▁'정":13158,"▁입지":13159,"▁죽어도":13160,"art":13161,"▁뻐":13162,"해하고":13163,"▁부리":13164,"▁차차":13165,"▁버스를":13166,"▁양보":13167,"▁짚고":13168,"어머니는":13169,"▁자전거":13170,"▁자라는":13171,"▁거닐":13172,"▁고리":13173,"▁서술":13174,"실히":13175,"▁하오.":13176,"▁해리":13177,"▁김에":13178,"▁괴물":13179,"이트의":13180,"▁집안에서":13181,"▁낳고":13182,"▁수평":13183,"▁오만":13184,"▁받들어":13185,"▁청춘":13186,"▁영혼은":13187,"▁족한":13188,"▁계승":13189,"▁곳이다.":13190,"▁어둠을":13191,"▁온몸에":13192,"하오.":13193,"▁아니하고":13194,"어서,":13195,"▁없었다는":13196,"▁이해하기":13197,"▁봉사":13198,"▁이루어지는":13199,"▁획득":13200,"▁모스크바":13201,"파트":13202,"▁되면,":13203,"▁도착했을":13204,"▁아들에게":13205,"▁비춰":13206,"▁동기":13207,"▁신분을":13208,"▁긴장이":13209,"▁문화적":13210,"▁마리사는":13211,"그래,":13212,"시아가":13213,"▁지정":13214,"인가,":13215,"▁얻지":13216,"시까지":13217,"시간에":13218,"▁윤곽":13219,"받았다.":13220,"▁생각되는":13221,"▁최초로":13222,"▁병력을":13223,"▁내밀고":13224,"▁정서":13225,"▁장소에":13226,"▁30년":13227,"▁숭배":13228,"▁즈음":13229,"▁부들":13230,"▁인근":13231,"▁집에는":13232,"▁양성":13233,"▁걸어가는":13234,"시쯤":13235,"점의":13236,"▁이어져":13237,"▁다다":13238,"▁지각":13239,"느냐,":13240,"요를":13241,"▁천하":13242,"▁싸우고":13243,"▁만나기":13244,"▁달려와":13245,"▁그에게서":13246,"식한":13247,"요가":13248,"▁지르고":13249,"▁내쫓":13250,"▁놀라고":13251,"▁토벌":13252,"▁7.":13253,"▁캐나":13254,"가!":13255,"▁\"재":13256,"▁상식":13257,"▁당해":13258,"▁산이":13259,"▁그만두고":13260,"▁의미한다.":13261,"▁닿는":13262,"▁단단한":13263,"궁의":13264,"다게":13265,"둥이를":13266,"률이":13267,"▁바래":13268,"▁걸렸":13269,"▁여자로":13270,"▁지나쳐":13271,"▁벗어난":13272,"▁무시무시한":13273,"22":13274,"▁그이":13275,"▁하였다":13276,"온이":13277,"장이나":13278,"▁전,":13279,"▁불길이":13280,"▁저리":13281,"▁걸요.":13282,"▁친한":13283,"▁합시다.":13284,"▁\"새":13285,"▁생태":13286,"▁들으면서":13287,"▁무료":13288,"▁흐른":13289,"▁칼이":13290,"▁탐욕":13291,"여자":13292,"집고":13293,"▁의지를":13294,"▁감당":13295,"▁마술":13296,"▁부리는":13297,"▁비벼":13298,"▁아니었던":13299,"▁장사를":13300,"▁흐려":13301,"▁건물의":13302,"▁아폴":13303,"▁시작되는":13304,"▁대답해":13305,"▁틀린":13306,"▁즐거움을":13307,"▁킨":13308,"오르":13309,"▁무표":13310,"▁계시는":13311,"▁힘들어":13312,"▁제임스":13313,"▁두꺼운":13314,"능을":13315,"▁가다가":13316,"▁비치는":13317,"▁경향":13318,"▁접어들":13319,"▁앞으로는":13320,"▁범인은":13321,"▁지켜야":13322,"▁닥치는":13323,"오르고":13324,"잡이":13325,"▁\"구":13326,"▁지명":13327,"▁금강":13328,"BC":13329,"승의":13330,"▁무전":13331,"▁아이들과":13332,"▁발견된":13333,"▁노동자":13334,"▁이데올로":13335,"5.":13336,"치던":13337,"▁있나요?":13338,"▁이후에":13339,"궁이":13340,"부인이":13341,"위,":13342,"▁수리":13343,"▁상세":13344,"▁명나라":13345,"▁팔고":13346,"▁글로":13347,"라구요.":13348,"월한":13349,"▁이사를":13350,"▁기사는":13351,"▁감정은":13352,"▁헤치고":13353,"채는":13354,"▁몽고":13355,"▁발생한":13356,"▁전통적인":13357,"▁생각났다.":13358,"...,":13359,"▁초등학교":13360,"▁직면":13361,"▁패러":13362,"▁살피고":13363,"▁마루에":13364,"형으로":13365,"▁보따":13366,"▁세명의":13367,"▁노리는":13368,"▁따를":13369,"▁있겠는가?":13370,"▁아니었지만":13371,"▁혈액":13372,"가루":13373,"센티":13374,"윤은":13375,"▁\"....":13376,"▁자격이":13377,"▁의문을":13378,"▁명칭":13379,"▁직전":13380,"▁밝히고":13381,"▁자네도":13382,"터리":13383,"▁말고,":13384,"▁대령":13385,"▁주자":13386,"▁비싸":13387,"▁친구들":13388,"스러웠":13389,"▁10분":13390,"▁궁녀":13391,"▁자유의":13392,"▁지역을":13393,"▁기울이고":13394,"▁호기심":13395,"6,":13396,"▁큼":13397,"래에":13398,"로워":13399,"▁이라":13400,"▁오미":13401,"▁만주":13402,"▁너에게":13403,"▁타서":13404,"▁포함한":13405,"▁제각기":13406,"증은":13407,"▁이천":13408,"▁한강":13409,"▁남들이":13410,"▁'신":13411,"▁나가기":13412,"▁바랄":13413,"▁동작을":13414,"▁하늘과":13415,"▁식민지":13416,"▁위기":13417,"▁연산":13418,"▁38":13419,"▁추리":13420,"▁이야기에":13421,"주의자":13422,"▁명령에":13423,"▁무시하고":13424,"▁흘러내렸다.":13425,"디를":13426,"족은":13427,"▁한손으로":13428,"▁일할":13429,"▁고수":13430,"▁처녀가":13431,"▁\"그래?":13432,"▁거역":13433,"▁그러더니":13434,"▁크레":13435,"▁널려":13436,"ak":13437,"▁영업":13438,"▁일으킬":13439,"▁마을에서":13440,"▁너희들은":13441,"대왕":13442,"▁할말이":13443,"▁버럭":13444,"▁다니며":13445,"노의":13446,"▁생애":13447,"▁초인":13448,"▁먼지":13449,"▁터득":13450,"▁목욕탕":13451,"두리":13452,"▁\"양":13453,"▁정해":13454,"▁날로":13455,"▁가능성은":13456,"▁깔깔":13457,"▁나왔다":13458,"▁잠수함":13459,"멋대로":13460,"▁못하여":13461,"▁개나":13462,"▁실력":13463,"▁고향으로":13464,"▁지혜를":13465,"▁우수":13466,"▁데로":13467,"▁심찬":13468,"▁생기면":13469,"▁?":13470,"▁정책을":13471,"▁제안을":13472,"▁들어오고":13473,"▁자기들의":13474,"▁커니":13475,"▁휘둘러":13476,"▁무렵에":13477,"겠죠.":13478,"무의":13479,"▁\"싫":13480,"▁나르":13481,"▁일련의":13482,"▁주제에":13483,"▁기록을":13484,"▁수확":13485,"▁말인지":13486,"▁마흔":13487,"▁상대방을":13488,"▁\"무엇":13489,"념을":13490,"▁노여":13491,"▁왔다가":13492,"▁삼국":13493,"▁\"그렇지만":13494,"(C":13495,"▁관점에서":13496,"▁해야만":13497,"▁\"저도":13498,"사회":13499,"피는":13500,"▁뿐더러":13501,"li":13502,"아!\"":13503,"▁있음":13504,"▁한테":13505,"▁기쁘게":13506,"▁순진":13507,"▁천사":13508,"▁흐뭇":13509,"▁있겠지.":13510,"▁드러내고":13511,"▁엉망":13512,"▁가족의":13513,"▁시절을":13514,"렌이":13515,"역이":13516,"제도":13517,"▁자취":13518,"▁담임":13519,"▁인생이":13520,"▁무렵,":13521,"▁책임이":13522,"▁짝을":13523,"-그":13524,"▁정류":13525,"▁말이에요.":13526,"▁있겠습니까?":13527,"▁기회에":13528,"▁의견이":13529,"se":13530,"듣고":13531,"▁백성들은":13532,"순은":13533,"으라는":13534,"▁주가":13535,"▁주인을":13536,"▁비평":13537,"▁연습을":13538,"▁인생에":13539,"▁호흡을":13540,"▁지금쯤":13541,"▁보았습니다.":13542,"▁것만으로도":13543,"▁임금의":13544,"▁보셨":13545,"▁기막":13546,"▁바와":13547,"▁받아들이는":13548,"▁단호하게":13549,"명이나":13550,"혈을":13551,"▁다나":13552,"▁않기로":13553,"▁내부의":13554,"▁고발":13555,"▁인종":13556,"▁울먹":13557,"42":13558,"위도":13559,"▁대다":13560,"▁그곳으로":13561,"렁한":13562,"▁저질렀":13563,"객이":13564,"뜨린":13565,"우,":13566,"▁정식으로":13567,"▁느끼면서":13568,"▁느꼈던":13569,"▁태어날":13570,"est":13571,"▁굽혀":13572,"▁구두를":13573,"▁주저앉았다.":13574,"벌이":13575,"▁\"호":13576,"▁화장을":13577,"▁따라서는":13578,"한테도":13579,"▁관계로":13580,"▁계획은":13581,"▁용서해":13582,"청에":13583,"▁내말을":13584,"▁동정을":13585,"▁열이":13586,"▁육체의":13587,"▁빈틈":13588,"▁부드럽고":13589,"업의":13590,"일본":13591,"▁누군가를":13592,"▁수염을":13593,"구한":13594,"▁뛰어내":13595,"▁여옥은":13596,"▁호화":13597,"▁어깨가":13598,"▁손바닥으로":13599,"레가":13600,"부모":13601,"▁이은":13602,"▁수은":13603,"▁깨끗하게":13604,"다이":13605,"듯,":13606,"▁소홀":13607,"▁따위의":13608,"▁메고":13609,"▁없어도":13610,",,,":13611,"▁감싸고":13612,"▁클레시아":13613,"40":13614,"▁퀴":13615,"놓았":13616,"봐!":13617,"실과":13618,"▁남부":13619,"▁영어를":13620,"▁인정하지":13621,"▁어쨌거나":13622,"▁바뀌었다.":13623,"▁밤새도록":13624,"리네":13625,"▁있기를":13626,"▁말들이":13627,"▁어미":13628,"▁안개가":13629,"▁인연이":13630,"▁입었다.":13631,"▁왔어요.":13632,"▁믿었다.":13633,"▁응접":13634,"▁씻어":13635,"교에":13636,"▁오렌":13637,"▁예컨대":13638,"▁\"그래요.":13639,"냄새가":13640,"근을":13641,"▁어우":13642,"▁기웃":13643,"▁돌린":13644,"▁했더니":13645,"▁충성":13646,"▁카드":13647,"▁떠나야":13648,"ight":13649,"간에서":13650,"▁헤어져":13651,"라면,":13652,"▁정치가":13653,"▁언덕을":13654,"================":13655,"는가를":13656,"▁이성을":13657,"▁생각되었다.":13658,"▁민주주의":13659,"▁것을.":13660,"▁회장이":13661,"▁인도의":13662,"▁서기":13663,"▁저자":13664,"▁화제를":13665,"▁술잔":13666,"▁조각을":13667,"시대의":13668,"▁중위는":13669,"▁질서를":13670,"▁대답도":13671,"▁옮긴":13672,"▁조건이":13673,"겁을":13674,"게요.":13675,"▁\"철":13676,"▁기존의":13677,"해서,":13678,"▁시작하여":13679,"▁곳에서는":13680,"▁던진":13681,"▁사무실을":13682,"비,":13683,"역의":13684,"척을":13685,"▁끓여":13686,"▁사냥을":13687,"'t":13688,"▁자원":13689,"▁해소":13690,"▁불법":13691,"▁발라":13692,"▁휘파":13693,"▁뚫어":13694,"▁닫혀":13695,"▁할아버지의":13696,"▁유럽의":13697,"념이":13698,"▁그분":13699,"▁전세":13700,"▁구하는":13701,"▁형상":13702,"▁존재는":13703,"▁안타까운":13704,"7.":13705,"군!":13706,"▁고르":13707,"▁신발을":13708,"▁슈퍼":13709,"복의":13710,"▁역사는":13711,"▁떨면서":13712,"▁점잖":13713,"들에게도":13714,"▁직전에":13715,"▁젊고":13716,"▁죄수":13717,"▁약속한":13718,"▁으레":13719,"▁치밀어":13720,"▁백성들이":13721,"▁시대가":13722,"▁벌려":13723,"▁확신을":13724,"▁못하고,":13725,"고로":13726,"기술":13727,"▁이리로":13728,"▁'미":13729,"▁선발":13730,"▁원장":13731,"▁치마":13732,"들었다":13733,"▁들렀":13734,"▁'가":13735,"이지?":13736,"▁사람들에":13737,"▁트레이":13738,"▁둘러싼":13739,"▁\"조금":13740,"(T":13741,"봉이":13742,"▁나로서는":13743,"▁시에":13744,"▁해요.\"":13745,"▁상대는":13746,"▁놓지":13747,"▁찬찬":13748,"▁꾸려":13749,"▁흡족":13750,"▁적극적인":13751,"라에게":13752,"맞게":13753,"바이":13754,"예.":13755,"터면":13756,"▁여편":13757,"▁허탈":13758,"▁애정":13759,"▁떠나기":13760,"▁찬란한":13761,"▁싶은데":13762,"▁심각하게":13763,"했으면":13764,"▁자금":13765,"▁세종":13766,"▁일으키며":13767,"▁\"날":13768,"▁모르지.":13769,"▁직업을":13770,"▁힐끔":13771,"자리가":13772,"▁그래요?":13773,"▁희망이":13774,"up":13775,"행의":13776,"▁정한":13777,"▁동화":13778,"▁더해":13779,"▁단번에":13780,"▁질질":13781,"▁뛰고":13782,"▁떼지":13783,"▁크리스마스":13784,"6.":13785,"▁정권":13786,"▁공주는":13787,"▁대한민":13788,"▁맡기고":13789,"▁지난날":13790,"▁마찬가지다.":13791,"▁궁금한":13792,"▁사뭇":13793,"▁지도를":13794,"▁무수":13795,"▁신세를":13796,"▁의뢰":13797,"▁큰일":13798,")라는":13799,"적이라고":13800,"▁아일":13801,"▁시트":13802,"▁구조를":13803,"▁돌아가서":13804,"▁뻔뻔":13805,"겠지?":13806,"사였다.":13807,"함,":13808,"▁사방으로":13809,"▁누웠다.":13810,"▁그때마다":13811,"▁동물의":13812,"▁신기한":13813,"늙은":13814,"어!\"":13815,"프랑":13816,"▁있소?":13817,"▁이왕":13818,"▁오랑":13819,"▁진실로":13820,"하여야":13821,"▁헤어진":13822,"▁굴복":13823,"▁손가락이":13824,"건,":13825,"▁대공":13826,"▁시선은":13827,"▁기색":13828,"▁공군":13829,"▁'마":13830,"▁\"그랬":13831,"▁행위는":13832,"▁왜곡":13833,"▁편이었다.":13834,"▁젠":13835,"가리":13836,"라고?":13837,"▁당당하게":13838,"▁후로":13839,"되었습니다.":13840,"▁올려다보":13841,"▁\"모두":13842,"숙하게":13843,"유하고":13844,"▁사방을":13845,"▁일이야.":13846,"▁일어난다.":13847,"림과":13848,"▁불끈":13849,"▁감아":13850,"▁애인이":13851,"▁에어":13852,"▁말씀하시":13853,"▁명령했다.":13854,"클로":13855,"▁\"별":13856,"▁좋다":13857,"▁번져":13858,"▁죄의":13859,"▁탓인지":13860,"▁36^":13861,"관들은":13862,"▁\"빨리":13863,"▁기여":13864,"▁비탈":13865,"▁움찔":13866,"▁석방":13867,"감도":13868,"수염":13869,"▁\"그것은":13870,"▁반찬":13871,"▁김일":13872,"▁모습도":13873,"▁없었지만,":13874,"▁순간이":13875,"▁거기다":13876,"어디":13877,"▁가꾸":13878,"▁당부":13879,"▁방지":13880,"▁기대고":13881,"▁맺고":13882,"▁#2":13883,"듯하게":13884,"▁아!":13885,"▁사장님":13886,"▁무리를":13887,"▁단골":13888,"▁갈망":13889,"▁울어":13890,"▁이야기했다.":13891,"▁휴가":13892,"▁분노가":13893,"▁테이프를":13894,"▁개미들이":13895,"▁아픔을":13896,"▁파트너":13897,"지인":13898,"▁했었":13899,"▁사랑하지":13900,"▁곧잘":13901,"▁빼어":13902,"이야,":13903,"-이":13904,"▁보려":13905,"▁주막":13906,"▁두터":13907,"는데...":13908,"▁다음의":13909,"▁잃었다.":13910,"드,":13911,"발에":13912,"풍의":13913,"▁문은":13914,"▁안돼요.":13915,"는다":13916,"둘렀다.":13917,"▁남게":13918,"▁찾아낼":13919,"▁펼쳐져":13920,"▁은혜를":13921,"리아가":13922,"▁것이지만":13923,"▁당나라":13924,"▁당겼다.":13925,"▁저에게":13926,"▁곳도":13927,"▁질렀":13928,"▁한국인":13929,"▁시험을":13930,"크라테":13931,"▁스페인":13932,"▁네덜":13933,"▁떠올라":13934,"▁해결할":13935,"▁뿜어":13936,"▁거실로":13937,"▁사람이라는":13938,"▁대해선":13939,"▁던지는":13940,"▁\"안돼":13941,"▁줌":13942,"을까.":13943,"하더":13944,"▁말들을":13945,"▁보잘":13946,"▁우뚱":13947,"▁선정":13948,"▁조건을":13949,"▁돋아":13950,"울한":13951,"▁우거":13952,"니다,":13953,"▁가슴으로":13954,"달리":13955,"절에":13956,"▁가던":13957,"▁상담":13958,"▁김민":13959,"▁직감":13960,"하자.":13961,"▁그애":13962,"▁하자는":13963,"▁나폴":13964,"▁죽였":13965,"▁열등":13966,"▁게다.":13967,"▁끝에서":13968,"▁어지러":13969,"지다":13970,"▁서운":13971,"▁의원이":13972,"▁장면이":13973,"▁예방":13974,"▁먹기":13975,"▁친구에게":13976,"▁침착하게":13977,"▁\"어머,":13978,"▁간직하고":13979,"련은":13980,"성이가":13981,"장수":13982,"▁제사":13983,"▁들어주":13984,"▁속옷":13985,"▁처지가":13986,"▁각각의":13987,"▁은밀한":13988,"삼아":13989,"▁지원을":13990,"▁시설":13991,"▁유언":13992,"▁차이를":13993,"▁건네주었다.":13994,"명과":13995,"▁여는":13996,"▁친구와":13997,"▁상상할":13998,"▁부들부들":13999,"가면":14000,"리.":14001,"어와":14002,"▁가축":14003,"▁'오":14004,"▁계실":14005,"▁잘하는":14006,"하기까지":14007,"▁빨려":14008,"▁권리가":14009,"▁나가면":14010,"▁이용할":14011,"▁녀석의":14012,"▁포함되어":14013,"▁흘러나왔다.":14014,"nd":14015,"▁자리는":14016,"▁현상은":14017,"▁일본에서":14018,"▁아침이":14019,"▁램":14020,"렬히":14021,"르몬":14022,"차례":14023,"▁그리는":14024,"▁사물":14025,"▁한밤":14026,"▁달을":14027,"▁싶어.":14028,"▁애기":14029,"▁대접을":14030,"▁비스듬히":14031,"혁의":14032,"희와":14033,"▁않으니":14034,"▁더할":14035,"▁속도":14036,"▁떠밀":14037,"▁양을":14038,"▁찾아온":14039,"▁삼년":14040,"▁슬슬":14041,"라비":14042,"청이":14043,"▁대위가":14044,"▁토지":14045,"▁전쟁은":14046,"▁있기도":14047,"▁나간다.":14048,"▁것이요,":14049,"▁생각에서":14050,"▁신부는":14051,"▁취할":14052,"아버지가":14053,"▁내일은":14054,"▁아빠는":14055,"▁뚜을":14056,"발은":14057,"부인의":14058,"▁줄어들":14059,"▁보이게":14060,"▁기절":14061,"▁단념":14062,"▁늘어서":14063,"▁릭":14064,"문,":14065,"프레":14066,"▁없으며,":14067,"▁지급":14068,"▁'무":14069,"▁영어로":14070,"▁참,":14071,"▁세상에는":14072,"▁찌푸렸다.":14073,"▁기숙":14074,"▁걸리지":14075,"하기에는":14076,"▁야구":14077,"거든.\"":14078,"이야!":14079,"▁가느다란":14080,"▁이듬해":14081,")라고":14082,"보다가":14083,"형에":14084,"힌다.":14085,"▁말에서":14086,"▁돌진":14087,"▁중국에":14088,"▁사용한":14089,"견이":14090,"맥을":14091,"잠시":14092,"▁자이":14093,"▁왜?":14094,"▁이야기도":14095,"▁승무":14096,"▁그림자를":14097,"▁들여다보고":14098,"뿐인":14099,"▁소형":14100,"▁현대의":14101,"▁믿는다.":14102,"▁작품은":14103,">라는":14104,"▁년이":14105,"거의":14106,"기보다":14107,"▁주둔":14108,"▁면도":14109,"▁도망을":14110,"▁씻고":14111,"▁나갔다":14112,"그런데":14113,"시오":14114,"여명의":14115,"직에":14116,"▁공간이":14117,"▁출렁":14118,"▁뜨거워":14119,"▁오른쪽으로":14120,"▁빙글":14121,"▁비롯된":14122,"▁신성":14123,"▁구겨":14124,"▁강물":14125,"▁잡았":14126,"▁얘기할":14127,"리아를":14128,"▁익히":14129,"▁제외한":14130,"님에게":14131,"▁\"없":14132,"▁세웠":14133,"▁강간":14134,"▁빠질":14135,"▁체크":14136,"▁글자":14137,"▁높고":14138,"▁땅으로":14139,"▁표현이":14140,"▁장난을":14141,"짐이":14142,"쩍은":14143,"▁그나":14144,"ist":14145,"▁흥분을":14146,"▁CIA":14147,"▁빠져나왔다.":14148,"▁다이아":14149,"▁노골적으로":14150,"\"라는":14151,"▁제멋대로":14152,"▁세균":14153,"...그":14154,"▁김이":14155,"▁분명하다.":14156,"▁넓고":14157,"▁지역에서":14158,"▁기다려야":14159,"▁쇼팽":14160,"성적인":14161,"처가":14162,"▁가담":14163,"▁자매":14164,"▁동서":14165,"▁3,":14166,"▁내용의":14167,"▁기술이":14168,"▁쾌락":14169,"프리":14170,"▁안전한":14171,"▁유익":14172,"▁질서":14173,"▁올라온":14174,"▁끄는":14175,"으리라고":14176,"남을":14177,"▁지냈다.":14178,"▁알을":14179,"▁장군은":14180,"▁감동을":14181,"▁자기와":14182,"▁요란하게":14183,"▁는다.":14184,"▁하겠다는":14185,"▁않으려":14186,"▁전송":14187,"▁차이는":14188,"▁몸매":14189,"▁엄격한":14190,"▁-이":14191,"▁풍수":14192,"▁바뀌어":14193,"▁부정적인":14194,"느는":14195,"들까지":14196,"보려고":14197,"아.\"":14198,"었으니":14199,"'이다.":14200,">에서":14201,"▁소원":14202,"▁스치고":14203,"▁태우고":14204,"▁용기":14205,"▁취하고":14206,"▁이해해":14207,"하였으나":14208,"▁의하면,":14209,"에요?":14210,"▁\"바로":14211,"▁마마":14212,"▁못했습니다.":14213,"▁이르자":14214,"골을":14215,"▁생각보다":14216,"▁막기":14217,"▁플라스":14218,"▁\"손":14219,"▁시끄":14220,"▁소작":14221,"▁동창":14222,"▁'지":14223,"▁받았던":14224,"▁단추를":14225,"▁인간과":14226,"▁레코":14227,"▁에너지가":14228,"궁에":14229,"키를":14230,"▁인물을":14231,"▁물의":14232,"▁재정":14233,"▁중요하다.":14234,"▁전화기를":14235,"▁휘둥":14236,"이다,":14237,"▁벗어나지":14238,"복은":14239,"사인":14240,"▁인지":14241,"▁속임":14242,"▁죽어서":14243,"▁정도를":14244,"▁10.":14245,"ard":14246,"▁일행이":14247,"▁전까지는":14248,"▁불현":14249,"▁구제":14250,"▁뒤흔":14251,"▁시작했습니다.":14252,"▁설명이":14253,"하자면":14254,"▁잘못이":14255,"어지면":14256,"▁젖가슴":14257,"17":14258,"섭의":14259,"째서":14260,"품에":14261,"▁한탄":14262,"▁시집을":14263,"▁정성을":14264,"▁유쾌":14265,"▁어려움을":14266,"▁영화의":14267,"▁상상도":14268,"▁답답한":14269,"▁요즈음":14270,"받침":14271,"▁인수":14272,"기는커녕":14273,"▁변함":14274,"▁책에서":14275,"▁북쪽으로":14276,"▁쳐다보는":14277,"▁압박":14278,"ro":14279,"시30":14280,"▁고조":14281,"▁선을":14282,"▁일이지만":14283,"▁부모를":14284,"니에":14285,"영과":14286,"천은":14287,"타이":14288,"▁\"해":14289,"▁노랫":14290,"▁진을":14291,"▁합의":14292,"▁안간힘을":14293,"상하게":14294,"운다.":14295,"▁단둘이":14296,"▁이용해서":14297,"▁비행기를":14298,"▁받아들였다.":14299,"▁둥글":14300,"▁백성들의":14301,"▁전화번호를":14302,"▁나그":14303,"▁공은":14304,"▁공이":14305,"▁실린":14306,"▁형의":14307,"감치":14308,"▁빠지게":14309,"▁욕구를":14310,"▁깔린":14311,"▁\"글쎄,":14312,"▁다리에":14313,"▁발전을":14314,"▁정도면":14315,"▁회장님":14316,"▁추구하는":14317,"백이":14318,"왔을":14319,"토벤":14320,"▁\"걱정":14321,"▁장치를":14322,"▁속도가":14323,"▁감정에":14324,"▁야릇한":14325,"▁결혼식":14326,"▁알았던":14327,"▁만났던":14328,"장하고":14329,"▁오오":14330,"▁발산":14331,"▁아침을":14332,"▁편하게":14333,"▁홍진":14334,"one":14335,"▁한편으로":14336,"▁도로를":14337,"▁웅성":14338,"▁밟고":14339,"아니,":14340,"▁한다면,":14341,"하는지":14342,"▁그것이다.":14343,"▁원하지":14344,"▁질문이":14345,"▁확립":14346,"▁순간이었다.":14347,"▁\"파":14348,"▁하겠다고":14349,"▁대목":14350,"▁처음이었다.":14351,"셔도":14352,"▁호칭":14353,"▁편히":14354,"▁막대":14355,"▁약속이":14356,"▁뚱뚱한":14357,"▁초라한":14358,"▁부끄럽":14359,"▁찬찬히":14360,"겠지.\"":14361,"판은":14362,"▁그렸다.":14363,"▁이진":14364,"▁여우":14365,"...?":14366,"▁떨어졌":14367,"▁살아있":14368,"▁있겠지만":14369,"▁189":14370,"▁업고":14371,"병원":14372,"줘요.":14373,"▁수립":14374,"▁명훈은":14375,"▁놀이":14376,"▁책에":14377,"▁선생을":14378,"▁닿을":14379,"냐!":14380,"노라":14381,"▁노리고":14382,"▁감소":14383,"▁등등":14384,"▁난이":14385,"▁꿈에도":14386,"▁자극을":14387,"번을":14388,"킨다.":14389,"▁철이":14390,"▁꾸준":14391,"▁숲이":14392,"년,":14393,"▁하야":14394,"▁대치":14395,"▁정반":14396,"▁들게":14397,"▁고집을":14398,"▁돌리며":14399,"기로는":14400,"▁19세기":14401,"▁드러누":14402,"▁말미암":14403,"시기":14404,"▁내리지":14405,"▁관중":14406,"▁예로":14407,"▁계속되는":14408,"▁까만":14409,"대학교":14410,"카르":14411,"프에":14412,"▁책상에":14413,"▁버려야":14414,">은":14415,"부도":14416,"하진":14417,"▁지폐":14418,"▁해마다":14419,"▁음료":14420,"▁있어서도":14421,"디아":14422,"장에는":14423,"장님,":14424,"▁사도":14425,"▁없단":14426,"▁여겼":14427,"▁정치를":14428,"▁전갈":14429,"▁통곡":14430,"▁외로운":14431,"▁올라갈":14432,"▁라이터":14433,"▁활발":14434,"▁젊은이가":14435,"ind":14436,"▁측은":14437,"▁어처구니":14438,"\"을":14439,"알을":14440,"▁있나?\"":14441,"▁제지":14442,"▁누나는":14443,"▁추격":14444,"▁향기가":14445,"으루":14446,"▁있듯이":14447,"▁소중":14448,"▁폐쇄":14449,"▁곳곳에":14450,"단과":14451,"바퀴":14452,"칼을":14453,"클리":14454,"▁무거":14455,"▁내려서":14456,"▁(이":14457,"▁카드를":14458,"▁좋아하고":14459,"▁나서,":14460,"▁전화벨이":14461,"▁첫째,":14462,"▁새삼스럽게":14463,"▁사치":14464,"▁나에":14465,"▁한잔":14466,"▁주게":14467,"▁피우는":14468,"▁심어":14469,"▁않을까?":14470,"▁끌었다.":14471,"▁말씀은":14472,"▁휴대":14473,"▁비롯하여":14474,"▁\"오늘은":14475,"가면서":14476,"습이":14477,"▁지섭은":14478,"▁순전히":14479,"▁청했다.":14480,"▁않아요.\"":14481,"▁선생님을":14482,"▁어린애":14483,"▁신경쓰지":14484,"학,":14485,"▁사대":14486,"▁국경":14487,"▁겨냥":14488,"▁서울을":14489,"▁다니던":14490,"해할":14491,"▁보고서":14492,"▁염두에":14493,"▁모르겠습니다.":14494,"건한":14495,"▁습격":14496,"▁불편한":14497,"▁간절히":14498,"겠습니까?\"":14499,"▁일부는":14500,"▁상류":14501,"▁미인":14502,"▁\"그녀가":14503,"▁치워":14504,"▁빠지":14505,"▁명령이":14506,"ell":14507,"겨울":14508,"레옹":14509,"▁사다":14510,"▁일찌":14511,"▁네게":14512,"▁나라로":14513,"▁물고기":14514,"놀이를":14515,"프와":14516,"호로":14517,"▁신음을":14518,"▁발기":14519,"▁데미":14520,"▁\"내일":14521,"▁껄껄":14522,"▁하자고":14523,"▁보충":14524,"▁건물이":14525,"▁싶다":14526,"▁채우고":14527,"▁낯익은":14528,"상태":14529,"▁다름이":14530,"▁내놓고":14531,"▁현기":14532,"▁\"이것":14533,"▁농업":14534,"▁나무의":14535,"▁마을로":14536,"기자는":14537,"름은":14538,"▁끝없는":14539,"▁담을":14540,"▁토마":14541,"▁사람들,":14542,"▁져":14543,"례가":14544,"택을":14545,"▁안도":14546,"▁눈길":14547,"▁매년":14548,"▁순간부터":14549,"▁긴급":14550,"▁종교적":14551,"▁왼쪽으로":14552,"▁어김없이":14553,"▁도깨":14554,"▁성질":14555,"시키려고":14556,"▁가득히":14557,"▁너희들이":14558,"▁손님들이":14559,"▁껴안고":14560,"▁거침없이":14561,"▁딜":14562,"자들과":14563,"프스키":14564,"▁그녀에":14565,"...?\"":14566,"▁일이었다":14567,"▁머지":14568,"▁약이":14569,"▁산골":14570,"▁국립":14571,"▁침대로":14572,"이지,":14573,"▁호기심을":14574,"▁잊어버리고":14575,"▁샤워를":14576,"▁가려고":14577,"▁정을":14578,"▁무당":14579,"▁교양":14580,"▁과시":14581,"▁것일까":14582,"▁어딘가에":14583,"▁부채":14584,"▁돌리는":14585,"▁황제는":14586,"▁사용하고":14587,"▁까게":14588,"▁이용하는":14589,"▁묵고":14590,"▁유머":14591,"▁군주":14592,"▁외계":14593,"▁웃을":14594,"▁권위":14595,"▁공포를":14596,"▁이정":14597,"▁수군":14598,"▁자갈":14599,"▁전신":14600,"▁부자가":14601,"▁안되었다.":14602,"▁이후의":14603,"▁불빛을":14604,"▁손수건을":14605,"▁재능을":14606,"▁애썼다.":14607,"▁더군다나":14608,"개로":14609,"여?":14610,"▁숨쉬":14611,"▁권했다.":14612,"▁바다의":14613,"보아":14614,"▁주리의":14615,"▁생각과":14616,"▁'여":14617,"▁메어":14618,"▁페니":14619,"▁직접적인":14620,"리안":14621,"▁그레이":14622,"▁지경에":14623,"▁화살을":14624,"하자마자":14625,"▁겪고":14626,"통은":14627,"▁하려면":14628,"▁시황":14629,"▁두면":14630,"▁위해,":14631,"▁욕설을":14632,"▁닫았다.":14633,"▁곰곰이":14634,"디,":14635,"정보":14636,"▁대리는":14637,"▁시종":14638,"▁세탁":14639,"▁유배":14640,"▁선진":14641,"▁반박":14642,"▁타락":14643,"▁백성을":14644,"▁이리하여":14645,"▁작용을":14646,"당신은":14647,"▁허겁지":14648,"▁벌어":14649,"▁돌아가야":14650,"▁랍":14651,"거리로":14652,"덩이를":14653,"▁박물":14654,"▁지하철":14655,"▁떠오르지":14656,"\"의":14657,"▁머슴":14658,"▁앉으며":14659,"▁본래의":14660,"▁존재로":14661,"▁\"여러":14662,"▁두드렸다.":14663,"세기의":14664,"▁있느냐":14665,"▁수잔":14666,"▁안나":14667,"▁300":14668,"▁막연한":14669,"어야만":14670,"아가씨":14671,"아버지는":14672,"▁대기하고":14673,"-5":14674,"be":14675,"왕에게":14676,"▁하라":14677,"▁대화가":14678,"▁조만":14679,"▁상상을":14680,"▁들어야":14681,"▁걸을":14682,"▁하나인":14683,"▁오래도록":14684,"▁학생들의":14685,"▁쓴다.":14686,"데?":14687,"타고":14688,"형과":14689,"▁\"살":14690,"▁사물을":14691,"▁않소.":14692,"▁여성을":14693,"▁생선":14694,"▁눈도":14695,"▁누르고":14696,"▁원인은":14697,"▁교차":14698,"▁엄습":14699,"▁망쳐":14700,"▁웬지":14701,"▁흙을":14702,"▁자초":14703,"▁고향을":14704,"▁떠서":14705,"▁빨래":14706,"▁\"어느":14707,"들에겐":14708,"▁\"만약":14709,"▁강철":14710,"▁물건들을":14711,"▁11.":14712,"ess":14713,"따.":14714,"버둥":14715,"▁이기지":14716,"▁지났다.":14717,"▁대면":14718,"▁바치":14719,"▁감염":14720,"구니를":14721,"넓은":14722,"목의":14723,"뭐.":14724,"▁주식":14725,"▁오이":14726,"▁죽었다는":14727,"▁심정으로":14728,"▁난폭":14729,"▁이루어졌":14730,"▁\"나를":14731,"▁익숙한":14732,"▁위기를":14733,"▁순찰":14734,"▁아카":14735,"▁남녀의":14736,"▁진리":14737,"()에서":14738,"▁바라보다가":14739,"▁나오게":14740,"▁급하게":14741,"겠어요?\"":14742,"▁나타나고":14743,"▁팽창":14744,"▁햇빛이":14745,"▁데이빗은":14746,"입은":14747,"▁장군의":14748,"▁알아.":14749,"▁정신은":14750,"(M":14751,"▁\"몰":14752,"▁가마":14753,"▁지위를":14754,"▁안됩니다.":14755,"▁도모":14756,"▁도피":14757,"▁문의":14758,"▁뒤통":14759,"▁외침":14760,"▁귀엽":14761,"▁청산":14762,"▁답을":14763,"▁휴식을":14764,"▁녹색":14765,"▁동생은":14766,"기자":14767,"서울":14768,"역으로":14769,"▁다정한":14770,"▁철수는":14771,"▁어찌하여":14772,"▁주저앉아":14773,"▁돌아왔을":14774,"▁무례":14775,"▁제어":14776,"▁제사를":14777,"▁합류":14778,"▁주부":14779,"▁알코":14780,"▁뒤였다.":14781,"▁받으면":14782,"▁갈래":14783,"▁되었는데":14784,"ould":14785,"▁상상해":14786,"붙였다.":14787,"▁전한":14788,"?\"하고":14789,"▁감행":14790,"▁임진":14791,"▁냉정":14792,"▁호텔로":14793,"▁붙잡아":14794,"▁헬리":14795,"겠는가.":14796,"만으로는":14797,"들이고":14798,"▁외치는":14799,"▁식량":14800,"▁선택한":14801,"▁혹시나":14802,"▁이로써":14803,"▁지윤":14804,"▁본격적으로":14805,"월의":14806,"쨌든":14807,"▁바바":14808,"▁그러기":14809,"▁조치를":14810,"▁비워":14811,"▁상체를":14812,"▁살다":14813,"▁입력":14814,"▁배경":14815,"▁역도":14816,"▁환자는":14817,"하시오.":14818,"▁되돌려":14819,"앞에":14820,"▁당시에":14821,"▁영문":14822,"▁재수":14823,"▁일본을":14824,"▁잊은":14825,"어버리":14826,"▁찔렀다.":14827,"림으로":14828,"▁광대":14829,"▁8.":14830,"▁펼쳐진":14831,"▁결심했다.":14832,"께.":14833,"▁올해":14834,"▁처지에":14835,"▁볼까":14836,"▁팔꿈":14837,"▁올라간":14838,"▁두려움이":14839,"▁하필이면":14840,"규의":14841,"아직":14842,"▁하세요.":14843,"▁무용":14844,"▁영희는":14845,"▁등에서":14846,"▁일이라면":14847,"▁파도가":14848,"▁독서":14849,"▁헤라":14850,"▁걱정은":14851,"▁늦추":14852,"거주":14853,"관에게":14854,"바지":14855,"▁취소":14856,"▁밖에는":14857,"▁혀가":14858,"▁구석이":14859,"▁들어갔다":14860,"▁오자":14861,"▁해주고":14862,"▁제갈":14863,"▁의지가":14864,"▁살림을":14865,"▁빛났다.":14866,"▁춤추":14867,"형사의":14868,"▁사교":14869,"▁하하":14870,"▁대자":14871,"▁전수":14872,"▁다음으로":14873,"하자고":14874,"▁지게":14875,"▁작가의":14876,"▁놀아":14877,"▁환한":14878,"▁나무는":14879,"▁닦고":14880,"▁햇빛을":14881,"마른":14882,"▁국가를":14883,"▁개미들은":14884,"▁만지작":14885,"▁무자":14886,"▁소요":14887,"▁따르고":14888,"▁데까지":14889,"▁최악의":14890,"▁갖은":14891,"▁친구들을":14892,"▁자동차를":14893,"▁근처에서":14894,"▁개념을":14895,"거리에":14896,"다만":14897,"▁사장의":14898,"▁지를":14899,"▁대는":14900,"▁우수한":14901,"▁날의":14902,"▁재앙":14903,"▁사랑해":14904,"▁빛으로":14905,"시에서":14906,"▁것이란":14907,"▁영토":14908,"▁양식":14909,"▁대답한다.":14910,"나무를":14911,"▁사과를":14912,"▁기원전":14913,"대도":14914,"뜻을":14915,"라?":14916,"즈에":14917,"▁한계를":14918,"▁부질":14919,"▁안됐":14920,"▁처해":14921,"▁상대방이":14922,"르렁":14923,"▁해라.":14924,"▁제도를":14925,"▁영을":14926,"▁차서":14927,"▁뭐니":14928,"▁휘청":14929,"스.":14930,"프게":14931,"▁\"화":14932,"▁전라도":14933,"▁오라고":14934,"▁잠그":14935,"이라고도":14936,"▁무엇에":14937,"▁울리고":14938,"▁아가씨는":14939,"▁빵을":14940,"▁필사적으로":14941,"▁\"약":14942,"▁하인":14943,"▁가도":14944,"▁불량":14945,"▁그것의":14946,"▁원고":14947,"▁원리":14948,"▁밝고":14949,"▁군사들이":14950,"예,":14951,"▁당당한":14952,"▁관료":14953,"▁태수":14954,"▁애정을":14955,"▁필요했다.":14956,"▁(그":14957,"▁터라":14958,"▁떼어놓":14959,"▁다스리는":14960,"▁이다.":14961,"▁\"......":14962,"▁잠들":14963,"▁번호를":14964,"▁원치":14965,"▁천하를":14966,"▁얻었다.":14967,"▁돼.":14968,"거야.\"":14969,"▁사시":14970,"▁정돈":14971,"▁번개":14972,"▁용이":14973,"▁아닌지":14974,"▁십년":14975,"▁도덕적":14976,"랑은":14977,"력,":14978,"명,":14979,"배우":14980,"▁벌이":14981,"▁차림으로":14982,"랑의":14983,"분,":14984,"책은":14985,"품은":14986,"할지도":14987,"▁있소.\"":14988,"▁두드려":14989,"▁선명하게":14990,"▁성기":14991,"▁성은":14992,"▁진열":14993,"▁스탈":14994,"▁느릿":14995,"▁날라":14996,"▁참이었다.":14997,"▁밀착":14998,"▁농사를":14999,"▁이혼을":15000,"▁이인":15001,"▁후손":15002,"▁원로":15003,"▁쓰이는":15004,"▁변경":15005,"▁창녀":15006,"▁환호":15007,"▁사라질":15008,"▁면이":15009,"갔고,":15010,"심도":15011,"업은":15012,"정부":15013,"▁일인데":15014,"▁지경이":15015,"▁떠는":15016,"▁여러가지":15017,"▁멋대로":15018,"▁전투를":15019,"▁즐거워":15020,"▁없으며":15021,"▁시신을":15022,"▁부려":15023,"▁감이":15024,"▁양자":15025,"▁병은":15026,"▁보여준다.":15027,"▁싸움은":15028,"▁요동":15029,"▁허우":15030,"▁박억":15031,"▁로스":15032,"▁올라오는":15033,"▁멈다.":15034,"▁휴가를":15035,"▁흔들리고":15036,"▁작품이":15037,"▁이외에는":15038,"▁지연":15039,"▁부장":15040,"▁구려":15041,"▁베토벤":15042,"▁탐구":15043,"나온":15044,"▁어이가":15045,"▁기침을":15046,"▁정해진":15047,"▁안에서는":15048,"▁우리들을":15049,"▁성과":15050,"▁산산":15051,"▁궁리":15052,"▁컴컴":15053,"▁하마터면":15054,"ake":15055,"번의":15056,"▁'저":15057,"▁허락을":15058,"▁야간":15059,"▁한국에서":15060,"res":15061,"'란":15062,"슬렁":15063,"▁정식":15064,"▁소지":15065,"▁손해":15066,"▁박수":15067,"▁음식이":15068,"▁풀었다.":15069,"▁보내어":15070,"하겠다.":15071,"▁노래는":15072,"▁브레이":15073,"▁클로":15074,"▁어렴이":15075,"▁도시에":15076,"▁했으니":15077,"▁대답하였다.":15078,"▁달려들었다.":15079,"▁키우":15080,"▁누군가의":15081,"▁집어넣었다.":15082,"▁\"국":15083,"▁기묘한":15084,"▁선두":15085,"▁반갑게":15086,"▁날이면":15087,"▁너희들":15088,"▁회사에서":15089,"▁텐데,":15090,"▁자그마한":15091,"거는":15092,"되어서":15093,"중으로":15094,"▁신부가":15095,"▁반발":15096,"▁걱정할":15097,"▁오르내":15098,"-7":15099,"군으로":15100,"▁것이지.":15101,"▁성경":15102,"▁흔한":15103,"▁의심할":15104,"▁감추지":15105,"시시":15106,"▁흐름을":15107,"▁고통스러운":15108,"ity":15109,"▁미래에":15110,"▁수단을":15111,"▁주재":15112,"▁파게":15113,"▁알아내":15114,"▁취직":15115,"▁같아요.\"":15116,"▁깔끔":15117,"서방":15118,"▁통증이":15119,"▁빠졌":15120,"▁불구하고,":15121,"(18":15122,"레는":15123,"접한":15124,"▁차린":15125,"▁피에":15126,"▁군대가":15127,"▁어디에도":15128,"▁기다리며":15129,"▁굳어":15130,"▁머리카락이":15131,"▁재촉했다.":15132,"어요\"":15133,"▁고소":15134,"▁세라":15135,"▁내려앉":15136,"▁용맹":15137,"미,":15138,"방송":15139,"월이":15140,"▁아아":15141,"▁기세":15142,"▁상자를":15143,"▁에스":15144,"▁부탁했다.":15145,"ok":15146,"밀하게":15147,"▁그렉":15148,"▁\"그야":15149,"▁노트":15150,"▁노력이":15151,"▁예전의":15152,"▁축제":15153,"▁교회에":15154,"▁생생하게":15155,"덕은":15156,"▁목사는":15157,"▁마음과":15158,"▁버튼을":15159,"▁산으로":15160,"▁나오기":15161,"▁되돌아가":15162,"예요":15163,"▁\"개":15164,"▁정색을":15165,"▁1시간":15166,"▁올림":15167,"▁문제도":15168,"▁덕분":15169,"▁전반":15170,"▁우편":15171,"하지요.":15172,"▁변하는":15173,"이라면,":15174,"▁인간적인":15175,"▁야만":15176,"▁응급":15177,"▁방안의":15178,"께요.":15179,"렸다고":15180,"▁주방":15181,"▁무모":15182,"▁무성":15183,"▁할까.":15184,"▁예배":15185,"▁3백":15186,"▁존재할":15187,"▁있겠는가.":15188,"▁받아들이지":15189,"품으로":15190,"▁우체":15191,"▁도구":15192,"▁손짓을":15193,"▁예,":15194,"▁현장을":15195,"▁벌이는":15196,"▁지금까지의":15197,"(B":15198,"겠는가?":15199,"익을":15200,"▁이보다":15201,"▁사르":15202,"▁나하고":15203,"▁일이나":15204,"▁영구":15205,"▁파헤":15206,"▁팔자":15207,"▁체질":15208,"▁싸인":15209,"▁복수를":15210,"▁가까이에":15211,"▁쉬는":15212,"▁스스로가":15213,"▁전체에":15214,"▁돋보":15215,"열은":15216,"▁\"종":15217,"▁여동생":15218,"▁삼켰다.":15219,"리니":15220,"마음":15221,"▁다급하게":15222,"▁고난":15223,"▁의도를":15224,"▁방한":15225,"▁성가":15226,"▁침실로":15227,"▁악화":15228,"▁틀림없는":15229,"▁뚝뚝":15230,"▁벌거벗은":15231,"하십시오.":15232,"▁가락을":15233,"▁자격":15234,"▁마틴":15235,"▁거론":15236,"▁권유":15237,"▁풍겨":15238,"▁현실에":15239,"▁보답":15240,"▁생기고":15241,"▁고립":15242,"▁간청":15243,"▁허리가":15244,"▁은은":15245,"▁테레":15246,"▁술은":15247,"▁얘기하는":15248,"▁아파트를":15249,"▁겨울이":15250,"▁끌어안았다.":15251,"▁시커먼":15252,"각의":15253,"어떤":15254,"▁하더군요.":15255,"▁시작했고,":15256,"▁벌어지는":15257,"▁병력":15258,"▁창의":15259,"▁되었으니":15260,"▁있으니,":15261,"▁나름대로의":15262,"미널":15263,"입에":15264,"▁무뚝":15265,"▁\"이봐,":15266,"▁자네에게":15267,"겠어요":15268,"▁바닥이":15269,"▁졸라":15270,"▁\"지난":15271,"▁인정하고":15272,"엔가":15273,"일도":15274,"▁이득":15275,"▁매력을":15276,"▁박수를":15277,"▁32":15278,"▁아래를":15279,"▁있어서,":15280,"▁테니까.\"":15281,"신,":15282,"▁한심":15283,"▁만류":15284,"▁간다":15285,"▁기억할":15286,"▁의미는":15287,"▁소설의":15288,"뿐만이":15289,"사실":15290,"습니까.\"":15291,"시대에":15292,"원한":15293,"▁문장":15294,"▁연설":15295,"▁관여":15296,"▁건달":15297,"▁송수":15298,"▁나왔을":15299,"▁뼈가":15300,"▁더더욱":15301,">이":15302,"▁못살":15303,"▁'대":15304,"▁\"그의":15305,"▁예사":15306,"▁완강":15307,"▁\"알고":15308,"▁교회의":15309,"▁일으키고":15310,"리라고는":15311,"the":15312,"▁으면":15313,"꾸러":15314,"▁시코":15315,"▁생성":15316,"▁설정":15317,"로서도":15318,"▁과학의":15319,"바닥을":15320,"▁아줌마":15321,"궁으로":15322,"생긴":15323,"▁비정":15324,"▁저만치":15325,"▁결혼은":15326,"▁꼼꼼":15327,"▁말일세.":15328,"▁자물":15329,"▁들린다.":15330,"▁안정을":15331,"▁날에":15332,"▁곳까지":15333,"▁학문을":15334,"▁저녁식":15335,"나기":15336,"바다":15337,"순한":15338,"어에":15339,"▁\"문":15340,"▁하십시오.":15341,"▁마담":15342,"▁반성":15343,"▁통에":15344,"▁10만":15345,"▁것으로,":15346,"▁기분은":15347,"▁묵은":15348,"▁썩은":15349,"▁시기를":15350,"▁기습":15351,"▁소스라":15352,"▁그런가":15353,"▁차원에서":15354,"▁곳의":15355,"▁크림":15356,"▁담뱃":15357,"▁각별":15358,"▁불과했다.":15359,"▁불현듯":15360,"me":15361,"년간":15362,"▁사우":15363,"▁하곤":15364,"▁2만":15365,"▁행위가":15366,"▁다음엔":15367,"스럽다는":15368,"▁계획에":15369,"▁도망쳐":15370,"▁틈이":15371,"▁유지하고":15372,"▁숫자가":15373,"사진":15374,"▁해봤":15375,"▁편지는":15376,"▁흔적을":15377,"▁착수":15378,"▁분위기는":15379,"▁섞어":15380,"▁찢어":15381,"느니라.":15382,"▁당선":15383,"▁저술":15384,"▁\"그걸":15385,"▁달은":15386,"▁\"아!":15387,"수처럼":15388,"▁오.\"":15389,"▁유독":15390,"▁역설":15391,"하였을":15392,"▁테이블에":15393,"각에":15394,"데.\"":15395,"오와":15396,"환의":15397,"▁노크":15398,"▁후반":15399,"▁말이다":15400,"▁땅은":15401,"▁만들어낸":15402,"녀석은":15403,"▁자욱":15404,"▁바리":15405,"▁여자에":15406,"▁사실도":15407,"▁육체적":15408,"▁응시했다.":15409,"바의":15410,"어떻게":15411,"화하는":15412,"▁내달":15413,"▁돌아가지":15414,"▁순진한":15415,"▁난데":15416,"▁사실,":15417,"▁\"오,":15418,"▁상관없이":15419,"▁부딪쳐":15420,"▁감각을":15421,"꾸라":15422,"레한":15423,"여겨":15424,"조와":15425,"▁가지만":15426,"▁않더라도":15427,"▁주면서":15428,"▁봐라.":15429,"▁견해를":15430,"▁부인과":15431,"▁측면":15432,"▁몰아넣":15433,"▁받아들이고":15434,"▁사전에":15435,"▁전보다":15436,"▁무르":15437,"▁팔뚝":15438,"▁그리로":15439,"▁꼬리":15440,"▁등장하는":15441,"▁본능적으로":15442,"▁자존심이":15443,"▁떠들썩":15444,"'라":15445,"▁사전":15446,"▁상반":15447,"▁동물이":15448,"는데.\"":15449,"▁화폐":15450,"▁왕위에":15451,"end":15452,"▁\",":15453,"▁아담":15454,"▁고도":15455,"▁작아":15456,"장이라도":15457,"어지면서":15458,"▁눈동자가":15459,"노를":15460,"비에게":15461,"주신":15462,"▁발버둥":15463,"▁번이고":15464,"▁왔어.":15465,"▁독점":15466,"▁숨은":15467,"▁물러가":15468,"색한":15469,"올랐":15470,"▁가닥":15471,"▁그것들이":15472,"▁잠잠":15473,"▁임광":15474,"▁쥐었다.":15475,"▁반대하는":15476,"▁겹쳐":15477,"어요!":15478,"책에":15479,"▁가두":15480,"▁마라":15481,"▁의심이":15482,"▁먹이":15483,"▁들어가기":15484,"▁얘기하고":15485,"ive":15486,"열에":15487,"왕과":15488,"티스":15489,"▁상점":15490,"▁구먼":15491,"▁사용하지":15492,"▁”하고":15493,"▁쇼핑":15494,"름에":15495,"이번":15496,"▁\"뭔":15497,"▁말예요.":15498,"▁더는":15499,"▁개시":15500,"▁실업":15501,"▁현장에":15502,"▁힘의":15503,"▁숨어서":15504,"▁로마의":15505,"▁사무실에서":15506,"▁지배하는":15507,"▁영향력을":15508,"▁제2의":15509,"▁----":15510,"간으로":15511,"그들은":15512,"있지":15513,"▁대치는":15514,"▁쓰던":15515,"▁탐지":15516,"▁\"미스":15517,"데요.":15518,"미르":15519,"▁\"몇":15520,"▁해체":15521,"▁분해":15522,"▁31":15523,"▁골목을":15524,"▁플래":15525,"▁힘들게":15526,"▁슬픔이":15527,"▁기다렸다는":15528,"곡의":15529,"평을":15530,"품의":15531,"▁가사":15532,"▁전망":15533,"▁학습":15534,"▁곧이어":15535,"▁누구인지":15536,"(P":15537,"보라고":15538,"세와":15539,"혜의":15540,"▁이놈":15541,"▁기억에":15542,"▁다행이":15543,"▁않으셨":15544,"▁허공에":15545,"내로":15546,"옆에":15547,"청의":15548,"▁시고":15549,"▁주리가":15550,"▁눈의":15551,"▁미묘한":15552,"▁발굴":15553,"▁후미":15554,"▁멈추지":15555,"▁헤아릴":15556,"▁안절":15557,"▁두근":15558,"▁하나였다.":15559,"▁화면에":15560,"▁비밀이":15561,"르고,":15562,"빠진":15563,"씨!":15564,"▁달랐":15565,"▁피터":15566,"▁통찰":15567,"▁여기에는":15568,"▁않은가?":15569,"▁가져야":15570,"▁러시아의":15571,"위원회":15572,"▁알코올":15573,"끝이":15574,"쳐다보":15575,"층에서":15576,"▁하든":15577,"▁말해야":15578,"▁서재":15579,"▁공원":15580,"▁힘과":15581,"▁\"하하하":15582,"▁\"음,":15583,"나갔다.":15584,"다니,":15585,"브리":15586,"▁일에는":15587,"▁안하고":15588,"▁방식이":15589,"▁앞이":15590,"▁종족":15591,"▁갈고":15592,"▁왔습니다.\"":15593,"▁터진":15594,"▁마시오.":15595,"▁깨어난":15596,"▁제이크는":15597,"▁대여섯":15598,"▁유성":15599,"▁선천":15600,"▁관해서는":15601,"▁광범":15602,"▁세워져":15603,"▁레이더":15604,"▁형편이":15605,"▁돌아다녔":15606,"▁심부름":15607,"단한":15608,"언제":15609,"▁\"니":15610,"▁바란":15611,"▁발에":15612,"▁사나운":15613,"▁잠자리를":15614,"구만.":15615,"▁유일하게":15616,"쉽게":15617,"▁살금":15618,"▁있었으나,":15619,"▁성질이":15620,"▁찾으러":15621,"▁만나기로":15622,"▁코가":15623,"▁그대에게":15624,"▁아테네":15625,"했습니다.\"":15626,"▁뒤이어":15627,"▁교향":15628,"▁박대":15629,"거리기":15630,"▁호텔에서":15631,"▁치명적인":15632,"능이":15633,"주에서":15634,"▁서명":15635,"▁추락":15636,"▁팔려":15637,"소리도":15638,"▁진행되고":15639,"▁말미암아":15640,"aw":15641,"간다고":15642,"으로만":15643,"▁거행":15644,"▁도박":15645,"▁연인":15646,"▁관객":15647,"▁반은":15648,"▁있어요":15649,"▁간접":15650,"▁화면을":15651,"▁술과":15652,"▁먼지가":15653,"▁누구에게도":15654,"▁욕망이":15655,"▁\"우린":15656,"▁\"그렇습니다.":15657,"▁건너편":15658,"▁짐작이":15659,"▁좋겠다.":15660,"야가":15661,"추경":15662,"▁들기":15663,"▁전면":15664,"--.":15665,"▁성직":15666,"▁명성을":15667,"▁박차고":15668,"▁남자들의":15669,"▁만나야":15670,"▁꺼낸":15671,"하였으며,":15672,"▁비틀거리며":15673,"▁있는가를":15674,"▁피는":15675,"▁원한":15676,"▁백만":15677,"▁새끼를":15678,"▁덩어리":15679,"」「":15680,"▁여진":15681,"▁'우":15682,"▁날고":15683,"▁황폐":15684,"▁검찰":15685,"▁존재하고":15686,"▁아주머니가":15687,"▁튀어나온":15688,"모도":15689,"▁자손":15690,"▁개별":15691,"▁스키":15692,"▁일이었":15693,"▁기록이":15694,"▁호기심이":15695,"sh":15696,"▁어슬렁":15697,"▁자들이":15698,"▁그녀에게는":15699,"▁있을까요?":15700,"▁매장":15701,"▁인물이었다.":15702,"▁기다리던":15703,"먼저":15704,"▁\"다시":15705,"▁가해":15706,"▁알아요.":15707,"▁끝나지":15708,"벅이":15709,"새는":15710,"▁당장에":15711,"▁1차":15712,"▁군사들은":15713,"▁밟아":15714,"닥터":15715,"단으로":15716,"할지":15717,"▁\"와":15718,"▁차의":15719,"▁근원":15720,"▁이용한":15721,"ust":15722,"류는":15723,"살이를":15724,"▁이방":15725,"▁대구":15726,"▁아니지":15727,"▁김성":15728,"▁아버지도":15729,"▁토르는":15730,"▁납작":15731,"▁둘째,":15732,"▁근본적으로":15733,"▁명예를":15734,"건대":15735,"전하는":15736,"침한":15737,"테는":15738,"▁있니?":15739,"▁두어야":15740,"▁원하고":15741,"▁재료":15742,"▁루스터":15743,"▁가이":15744,"▁동남":15745,"▁살인을":15746,"▁때문이었다":15747,"▁차창":15748,"▁배경으로":15749,"▁채지":15750,"▁망원":15751,"▁만큼의":15752,"▁r":15753,"령에":15754,"울을":15755,"▁바르게":15756,"▁물질을":15757,"▁저것":15758,"▁영의":15759,"▁사람이라":15760,"▁폭격":15761,"▁의미로":15762,"▁준비하고":15763,"▁표현하는":15764,"▁멋지게":15765,"살에":15766,"▁불타는":15767,"▁몸집이":15768,"▁게으":15769,"▁심문":15770,"▁뿐이었다":15771,"▁창가에":15772,"▁까닭은":15773,"▁근본적인":15774,"▁매력적인":15775,"러를":15776,"쯤에":15777,"▁\"배":15778,"▁하네.":15779,"▁수비":15780,"▁중세":15781,"▁집요":15782,"▁단어를":15783,"▁지금껏":15784,"▁매를":15785,"▁급기야":15786,"▁찬양":15787,"▁가져오":15788,"▁쉽다.":15789,"▁연구에":15790,"▁양반이":15791,"▁난처한":15792,"ie":15793,"음으로써":15794,"좌는":15795,"▁있소":15796,"▁\"돈":15797,"▁말한다":15798,"▁보스":15799,"▁내주":15800,"▁연주를":15801,"▁간다는":15802,"▁길가에":15803,"▁치우고":15804,"▁채우":15805,"▁질주":15806,"▁삶과":15807,"▁\"그렇지":15808,"▁흰색":15809,"▁백성들을":15810,"▁감각이":15811,"▁주위에서":15812,"급을":15813,"났다":15814,"력한":15815,"정신":15816,"크에":15817,"▁\"할":15818,"▁시작하자":15819,"▁자기들이":15820,"▁길래":15821,"▁회피":15822,"▁믿음을":15823,"▁쳐들어":15824,"▁낮에는":15825,"▁불과하다.":15826,"▁값이":15827,"▁딱딱한":15828,"글라":15829,"▁부스":15830,"▁발가":15831,"▁강무":15832,"▁매번":15833,"▁숙인":15834,"웨이":15835,"팔이":15836,"▁\".....\"":15837,"▁나나":15838,"▁생식":15839,"▁들먹":15840,"▁되물었다.":15841,"▁아니기":15842,"▁외삼촌":15843,"▁시간이었다.":15844,"▁갈매":15845,"▁휘감":15846,"▁바닥으로":15847,"▁대수롭지":15848,"세포":15849,"저의":15850,"▁아니지만,":15851,"▁작정이":15852,"▁애처":15853,"▁담담":15854,"▁행동으로":15855,"▁\"네?\"":15856,"▁걷잡을":15857,"8.":15858,"나!":15859,"이긴":15860,"중은":15861,"▁손상":15862,"▁구리":15863,"▁감사의":15864,"▁올릴":15865,"▁까닭을":15866,"지기도":15867,"▁없습니다":15868,"▁다리는":15869,"▁들어가게":15870,"하겠습니다.\"":15871,"▁석유":15872,"our":15873,"들에서":15874,"취가":15875,"▁\"테":15876,"▁말했던":15877,"▁여하":15878,"▁정중하게":15879,"▁불만이":15880,"▁물로":15881,"▁세울":15882,"▁있었으면":15883,"▁살피며":15884,"NA":15885,"단말이":15886,"댄다.":15887,"희에게":15888,"▁사납":15889,"▁제압":15890,"▁깃털":15891,"병들은":15892,"▁나만":15893,"▁오던":15894,"▁경계를":15895,"▁'인":15896,"▁종사":15897,"▁국무":15898,"▁침실":15899,"▁집어들고":15900,"▁이외에":15901,"반장은":15902,"▁아사":15903,"▁다급한":15904,"▁오가는":15905,"▁고추":15906,"▁2)":15907,"▁밤이면":15908,"▁헤쳐":15909,"▁하느님의":15910,"▁수양대":15911,"이요,":15912,"▁오르고":15913,"▁불은":15914,"▁집도":15915,"▁데리":15916,"▁처한":15917,"▁치면서":15918,"▁벌여":15919,"▁이름과":15920,"▁다가서":15921,"▁켜고":15922,"▁불평을":15923,"▁내부에":15924,"▁사람만":15925,"▁조민":15926,"▁중심을":15927,"▁그렇지.":15928,"▁비교해":15929,"▁덧붙여":15930,"og":15931,"려다":15932,"▁돌봐":15933,"▁피하고":15934,"▁예감":15935,"▁사실대로":15936,"▁맞장":15937,"▁이것으로":15938,"▁불러서":15939,"▁후에야":15940,"적일":15941,"층을":15942,"하느냐":15943,"▁두려워하는":15944,"▁것인지,":15945,"??":15946,"는가?\"":15947,"▁발밑":15948,"▁열매":15949,"▁백제":15950,"▁알아낼":15951,"거리에서":15952,"▁곤란한":15953,"▁식탁에":15954,"경,":15955,"번은":15956,"복으로":15957,"수인":15958,"어...":15959,"▁\"용":15960,"▁느긋":15961,"▁깨물었다.":15962,"▁얘기도":15963,"▁커서":15964,"▁아저씨는":15965,"건의":15966,"보로":15967,"▁다비":15968,"▁발언":15969,"▁받으면서":15970,"▁가르치":15971,"▁몽롱":15972,"▁있으니까.":15973,"▁스위치를":15974,"아와":15975,"연합":15976,"▁\"관":15977,"▁오기를":15978,"▁서민":15979,"▁입에서는":15980,"고는,":15981,"▁여성들이":15982,"▁엉거주":15983,"드리고":15984,"루스":15985,"브를":15986,"▁이쪽을":15987,"▁수경":15988,"▁바꾼":15989,"▁조치":15990,"▁선조":15991,"▁\"아주":15992,"▁밝힌":15993,"▁담배에":15994,"▁싱글":15995,"빛을":15996,"▁\"목":15997,"▁발길":15998,"▁진한":15999,"▁죽이지":16000,"▁했으면":16001,"▁그렇고,":16002,"▁농장":16003,"▁나무로":16004,"▁아파트에":16005,"▁앤드":16006,"업에":16007,"▁그밖에":16008,"▁아담은":16009,"▁유사한":16010,"▁선교":16011,"▁있다.\"":16012,"▁번이":16013,"▁빼내":16014,"▁뒷받침":16015,"▁입구에서":16016,"▁의자에서":16017,"▁아인슈타":16018,"만.\"":16019,"액이":16020,"▁있느냐고":16021,"▁가속":16022,"▁가히":16023,"▁가졌다.":16024,"▁노인을":16025,"▁새는":16026,"▁쓰면":16027,"▁점도":16028,"▁음모를":16029,"되었기":16030,"▁넣을":16031,"▁지켜보는":16032,"▁부엌에서":16033,"▁메시지를":16034,"▁눈초리로":16035,"▁아랑곳하지":16036,"날에":16037,"전자":16038,"▁것없는":16039,"▁도울":16040,"▁간곡":16041,"▁화염":16042,"▁얼어붙은":16043,"-6":16044,"사장이":16045,"▁사살":16046,"▁자살을":16047,"▁신세가":16048,"▁몸도":16049,"▁이상적인":16050,"▁놀려":16051,"어져서":16052,"▁빌어먹을":16053,"�a.":16054,"▁없지요.":16055,"▁비명이":16056,"▁제아":16057,"▁신용":16058,"▁적힌":16059,"▁그래.\"":16060,"▁채택":16061,"▁인간들이":16062,"▁취했다.":16063,"▁납득":16064,"기면서":16065,"▁대가로":16066,"▁미련":16067,"▁드러낸":16068,"▁부모는":16069,"라구.\"":16070,"▁하시오.":16071,"▁앗":16072,"극을":16073,"리려고":16074,"항을":16075,"▁인해서":16076,"▁누런":16077,"▁처치":16078,"▁야생":16079,"▁젊은이는":16080,"▁마주쳤다.":16081,"▁낳는":16082,"▁낳아":16083,"▁생겨난":16084,"▁싱긋":16085,"▁얀":16086,"길에서":16087,"따라":16088,"▁자진":16089,"▁장인":16090,"▁드라이":16091,"▁삼가":16092,"▁돼서":16093,"▁쓸쓸한":16094,"▁\"위":16095,"▁말이나":16096,"▁일부를":16097,"▁우르르":16098,"▁상하":16099,"▁동쪽으로":16100,"▁진술":16101,"▁역사에":16102,"▁사이은":16103,"▁어머니도":16104,"▁붙들":16105,"▁기분에":16106,"▁대학에서":16107,"▁소설은":16108,"네?":16109,"댁의":16110,"▁어고":16111,"▁대우":16112,"▁통화를":16113,"14":16114,"절의":16115,"하든":16116,"▁무도":16117,"▁위기에":16118,"▁'시":16119,"▁장소가":16120,"▁스코":16121,"▁강의를":16122,"▁후원":16123,"▁버스가":16124,"적으로도":16125,"▁잡으며":16126,"▁태상":16127,"▁천문학":16128,"▁회원":16129,"▁트렁":16130,"▁옳지":16131,"▁지키기":16132,"▁받았을":16133,"룡은":16134,"▁\"토":16135,"▁고인":16136,"▁보고도":16137,"▁합창":16138,"▁밀었다.":16139,"▁터펜":16140,"▁들려주":16141,"▁따르면,":16142,"▁웬만한":16143,"cm":16144,"자처럼":16145,"지마":16146,"파와":16147,"혀서":16148,"▁일삼":16149,"▁'제":16150,"▁영영":16151,"▁형을":16152,"▁외쳐":16153,"▁혁명의":16154,"▁낸다.":16155,"▁고마운":16156,"▁려":16157,"쳤습니다.":16158,"칠을":16159,"▁여겼다.":16160,"▁위안":16161,"▁남성이":16162,"▁경이":16163,"▁줄리는":16164,"▁군사가":16165,"▁잡히":16166,"▁빠르":16167,"▁베란다":16168,"▁극도로":16169,"▁굴뚝":16170,"▁집안은":16171,"▁시절부터":16172,"▁목숨이":16173,"다면서":16174,"천만":16175,"▁일자리를":16176,"▁동해":16177,"▁유복":16178,"▁계기가":16179,"▁배웅":16180,"▁흘리는":16181,"▁씨를":16182,"▁전투기":16183,"▁청년의":16184,"된다면":16185,"부장이":16186,"했소.":16187,"▁그치":16188,"▁대가를":16189,"이라든가":16190,"▁임수":16191,"ER":16192,"렁이":16193,"우드":16194,"초는":16195,"▁구경을":16196,"▁참조":16197,"▁백년":16198,"▁먼지를":16199,"▁언제까지나":16200,"▁이러는":16201,"▁그곳의":16202,"▁엉덩이":16203,"▁견디기":16204,"▁비추어":16205,"▁아득한":16206,"그럼":16207,"답니다.\"":16208,"사.":16209,"신문":16210,"줘.\"":16211,"합니까?":16212,"▁지방에":16213,"▁추고":16214,"▁찾아왔":16215,"▁올라가서":16216,"▁따뜻하게":16217,"귀는":16218,"온은":16219,"하도":16220,"행은":16221,"▁나는,":16222,"▁예기":16223,"▁처녀의":16224,"▁넘긴":16225,"▁소용돌이":16226,"av":16227,"동에서":16228,"이렇게":16229,"▁사투":16230,"▁오너":16231,"▁건장한":16232,"▁편을":16233,"▁삼켜":16234,"▁달려온":16235,"0년대에":16236,"▁휴식":16237,"소리,":16238,"▁어지간":16239,"▁마땅한":16240,"\"(":16241,"신도":16242,"▁정부를":16243,"▁세진":16244,"▁버림":16245,"▁박살":16246,"▁\"아마":16247,"▁찾아낸":16248,"▁별의":16249,"▁나가자":16250,"▁아끼지":16251,"▁신경질적으로":16252,"▁대규모":16253,"버릇":16254,"▁그루":16255,"▁수사를":16256,"▁지독":16257,"▁주린":16258,"리고는":16259,"▁경상":16260,"▁호의":16261,"▁쓰라":16262,"▁베네":16263,"▁없어져":16264,"▁내밀어":16265,"▁입술은":16266,"▁겉으로는":16267,"▁엄지손가락":16268,"직하고":16269,"탄의":16270,"▁소생":16271,"▁데이터":16272,"▁매스":16273,"▁모두의":16274,"▁김옥":16275,"▁축구":16276,"▁설명하는":16277,"▁십여":16278,"▁be":16279,"s,":16280,"▁낄":16281,"빛의":16282,"오빠":16283,"▁지구를":16284,"▁시기가":16285,"▁마리아":16286,"▁거려":16287,"▁소령은":16288,"▁눈여겨":16289,"▁치유":16290,"▁변화는":16291,"▁150":16292,"▁언니의":16293,"▁아쉬운":16294,"어느":16295,"웠을":16296,"체와":16297,"▁\"교":16298,"▁아기의":16299,"▁시킨":16300,"▁박은":16301,"▁지나가고":16302,"▁야기":16303,"▁자연스러운":16304,"▁벌써부터":16305,"▁탓으로":16306,"▁샤를":16307,"변에":16308,"패가":16309,"▁보좌":16310,"▁무가":16311,"▁손과":16312,"▁받았다":16313,"▁깊어":16314,"▁사라졌":16315,"▁봉건":16316,"▁FO":16317,"▁재빠르게":16318,"▁다이아몬":16319,"그렇게":16320,"▁자비":16321,"▁바다는":16322,"▁장정":16323,"▁중얼거리며":16324,"▁목표로":16325,"ure":16326,"질하는":16327,"효가":16328,"▁향기를":16329,"▁출동":16330,"▁서로에게":16331,"▁\"어제":16332,"▁잃을":16333,"▁마시지":16334,"▁공부하는":16335,"ome":16336,"23":16337,"거려":16338,"독을":16339,"▁해낼":16340,"▁손등":16341,"▁좋겠다고":16342,"▁행운":16343,"▁변화에":16344,"▁어때?":16345,"네이":16346,"수선":16347,"▁중한":16348,"▁서글":16349,"▁때문이었":16350,"▁치르고":16351,"▁법은":16352,"ang":16353,"노가":16354,"▁일부분":16355,"▁물과":16356,"▁더미":16357,"▁입장에":16358,"▁영상":16359,"▁열정":16360,"▁형제가":16361,"▁귀신이":16362,"▁막강한":16363,"▁이르게":16364,"▁오빠의":16365,"어머니가":16366,"▁한때는":16367,"▁승용차":16368,"기둥":16369,"려니":16370,"브가":16371,"살의":16372,"야지.":16373,"언니":16374,"▁다고":16375,"▁대서":16376,"▁주말":16377,"▁부대를":16378,"▁제니":16379,"▁영문을":16380,"▁강남":16381,"▁배의":16382,"▁처녀는":16383,"▁잡히지":16384,"▁천지":16385,"▁짓눌":16386,"▁엉뚱":16387,"▁탐험":16388,"▁188":16389,"▁\"군":16390,"▁\"옛":16391,"▁수시로":16392,"▁않으면서":16393,"▁인자":16394,"▁입김":16395,"▁매듭":16396,"▁벌어질":16397,"▁스스로에게":16398,"▁늦었":16399,"▁며느리":16400,"동사":16401,"모니":16402,"▁유쾌한":16403,"▁장만":16404,"▁성당":16405,"▁진나라":16406,"▁반도":16407,"▁반란을":16408,"▁병력이":16409,"▁인간에":16410,"▁죄악":16411,"▁전해져":16412,"▁원래의":16413,"균은":16414,"글쎄":16415,"밀리":16416,"▁소중히":16417,"▁발각":16418,"▁채고":16419,"▁변형":16420,"▁깊숙":16421,"▁머리의":16422,"해지면":16423,"▁긴장된":16424,"가기":16425,"대하고":16426,"세웠다.":16427,"▁기차를":16428,"당해":16429,"더군.":16430,"서운":16431,"탄에":16432,"▁아들과":16433,"▁사위":16434,"▁지주":16435,"▁소모":16436,"▁경지에":16437,"()와":16438,"▁34":16439,"▁풀을":16440,"▁조직이":16441,"▁두리번":16442,"▁사람.":16443,"▁번씩이나":16444,"▁오렌지":16445,"▁않으며,":16446,"▁인연을":16447,"▁등산":16448,"▁나타나서":16449,"▁멍한":16450,"▁아프게":16451,"셨습니다.":16452,"소나":16453,"▁수동":16454,"▁손길이":16455,"▁막는":16456,"▁오늘이":16457,"▁슬며":16458,"▁월요일":16459,"▁자랑스럽게":16460,"단말":16461,"보에":16462,"출한":16463,"▁사춘":16464,"▁나이로":16465,"▁연행":16466,"▁강박":16467,"▁모습과":16468,"▁직장을":16469,"▁없었으나":16470,"▁이곳의":16471,"▁솔직한":16472,"기서":16473,"들일":16474,"아까":16475,"으실":16476,"▁\"혜":16477,"▁거리고":16478,"▁주며":16479,"▁소음":16480,"▁악의":16481,"▁예술가":16482,"▁가졌던":16483,"신에게":16484,"울이":16485,"▁\"큰":16486,"▁시켰":16487,"▁번뜩":16488,"▁심사":16489,"▁심리적":16490,"▁초점을":16491,"▁음미":16492,"▁돈의":16493,"▁아름다움":16494,"▁멍청한":16495,"▁기상":16496,"▁오싹":16497,"▁노을":16498,"▁따위가":16499,"▁건가요?":16500,"▁여자,":16501,"▁왕성":16502,"▁황제가":16503,"▁빙빙":16504,"▁숫자":16505,"▁고민을":16506,"▁일방적으로":16507,"러지게":16508,"입니":16509,"▁수월":16510,"▁있는가.":16511,"▁세자를":16512,"▁방치":16513,"▁회장의":16514,"▁왕을":16515,"▁사람들에게는":16516,"▁어지럽게":16517,"▁나폴레옹":16518,"모든":16519,"이에게":16520,"▁그까":16521,"▁사사":16522,"▁가서는":16523,"▁보란은":16524,"▁기색을":16525,"▁생전":16526,"▁제비":16527,"▁유교":16528,"▁속속":16529,"▁발가락":16530,"▁양주":16531,"▁태양의":16532,"▁아틀란":16533,"▁무뚝뚝":16534,"uc":16535,"러스":16536,"▁부임":16537,"▁인기가":16538,"▁도움":16539,"▁현실로":16540,"▁천막":16541,"▁체육":16542,"▁봉지":16543,"▁물러났다.":16544,"▁군사들을":16545,"▁태어났다.":16546,"▁사업에":16547,"걸이를":16548,"끼가":16549,"단지":16550,"더라고":16551,"▁마감":16552,"▁정비":16553,"▁주기로":16554,"▁무명의":16555,"▁죽었을":16556,"▁일이라는":16557,"▁옮길":16558,"▁번째로":16559,"▁인물은":16560,"▁위협을":16561,"▁두려움에":16562,"임에도":16563,"하에서":16564,"황의":16565,"▁모로":16566,"▁정적인":16567,"▁직원이":16568,"▁골드":16569,"▁느낌은":16570,"▁못했지만":16571,"▁뭇":16572,"린다고":16573,"였으며,":16574,"▁우릴":16575,"▁허전":16576,"▁33":16577,"▁극동":16578,"▁모르겠어.":16579,"▁멈추어":16580,"▁판단이":16581,"▁더러는":16582,"▁\"안녕하":16583,"▁블라디":16584,"군요\"":16585,"설에":16586,"션을":16587,"▁\"역시":16588,"▁소린":16589,"▁생각해야":16590,"▁남성은":16591,"▁장담":16592,"▁자신만":16593,"▁또,":16594,"▁현장에서":16595,"▁힘겹게":16596,"▁리차":16597,"▁전화는":16598,"▁섬에":16599,"▁그려져":16600,"▁\"좋아":16601,"▁가자고":16602,"▁지긋":16603,"▁주었던":16604,"▁우산을":16605,"▁고문을":16606,"▁영적":16607,"▁분비":16608,"▁요약":16609,"▁치열한":16610,"▁크나":16611,"▁둘을":16612,"▁활을":16613,"▁루카":16614,"▁현실의":16615,"▁머물고":16616,"▁손바닥을":16617,"con":16618,"굴을":16619,"라든가":16620,"요...\"":16621,"저녁":16622,"▁인기를":16623,"▁우리들에게":16624,"▁열차":16625,"▁게임을":16626,"▁넘겼다.":16627,"▁보기에도":16628,"▁미사일을":16629,"▁칭찬을":16630,"일.":16631,"임의":16632,"▁안해":16633,"▁유유":16634,"▁설교":16635,"▁백두":16636,"▁글씨를":16637,"▁물러섰다.":16638,"▁밀어넣":16639,"▁\"제발":16640,"▁사냥꾼":16641,"▁카메라를":16642,"구도":16643,"인들과":16644,"▁'내":16645,"▁돌아갔":16646,"어나는":16647,"▁계속되고":16648,"▁결과로":16649,"▁넘어갈":16650,"▁유리한":16651,"▁눈빛은":16652,"곡은":16653,"님께서는":16654,"마루":16655,"여사는":16656,"▁시인의":16657,"▁인간으로":16658,"▁붙이":16659,"▁흔들고":16660,"▁골치":16661,"▁뜨거":16662,"▁데이비":16663,"분도":16664,"진에":16665,"▁어마":16666,"▁관측":16667,"▁넓게":16668,"▁과학적":16669,"▁말하고는":16670,"▁육체적인":16671,"▁안전하게":16672,"▁\"경찰":16673,"신한":16674,"▁사각":16675,"▁나른":16676,"▁일부가":16677,"▁비둘":16678,"▁새까":16679,"▁배제":16680,"▁효율":16681,"▁초조한":16682,"▁릿":16683,"▁혔":16684,"그래도":16685,"▁말에는":16686,"▁않다면":16687,"▁같군요.":16688,"▁들어온다.":16689,"▁재주":16690,"▁힘들었다.":16691,"▁병원을":16692,"▁없었다고":16693,"▁에이다":16694,"▁뛰어들었다.":16695,"▁당시에는":16696,"호흡을":16697,"IN":16698,"오른":16699,"우스를":16700,"▁아찔":16701,"▁바랍":16702,"▁발동":16703,"▁시작하면":16704,"▁왔지만":16705,"▁벗기":16706,"▁것이라고는":16707,"서에서":16708,"천한":16709,"▁것만이":16710,"▁사유":16711,"▁말했을":16712,"▁주리":16713,"▁완료":16714,"▁살아가고":16715,"▁극장":16716,"▁가족들이":16717,"iv":16718,"아이의":16719,"▁사샤":16720,"▁자랐":16721,"이라기보다는":16722,"▁것도,":16723,"▁체제":16724,"스럽다.":16725,"▁지난번":16726,"▁하지도":16727,"▁속한":16728,"▁누그러":16729,"▁몸소":16730,"▁배로":16731,"▁편한":16732,"▁지나갈":16733,"▁뛰어들":16734,"▁움켜쥐고":16735,"▁따스한":16736,"▁어려서부터":16737,"군요?":16738,"▁아슬":16739,"▁바실":16740,"▁천둥":16741,"▁초가":16742,"▁보내지":16743,"▁벼락":16744,"▁오페라":16745,"드니":16746,"변의":16747,"손은":16748,"▁대장이":16749,"▁때렸다.":16750,"▁고을":16751,"▁알겠습니다.":16752,"▁불교의":16753,"▁손자":16754,"▁차근":16755,"▁돌아보지":16756,"▁순경":16757,"▁삼는":16758,"▁휘말":16759,"▁칙":16760,"▁요.":16761,"거지":16762,"다'는":16763,"순의":16764,"좌를":16765,"▁대청":16766,"▁시인이":16767,"▁서지":16768,"▁작게":16769,"▁만들지":16770,"▁사내들이":16771,"▁아닙니다":16772,"▁됩니다.\"":16773,"▁갈등을":16774,"▁욱":16775,"겠소":16776,"보지도":16777,"▁하자,":16778,"▁대결":16779,"▁대상을":16780,"▁내키지":16781,"▁생각하여":16782,"▁원리를":16783,"▁허는":16784,"▁틈도":16785,"▁따르지":16786,"▁.\"":16787,"나가는":16788,"려다가":16789,"짜고":16790,"▁아기는":16791,"▁예약":16792,"▁교실":16793,"▁뒤에야":16794,"▁쾌감을":16795,"▁남겨두고":16796,"말할":16797,"일과":16798,"▁하소":16799,"▁지녔":16800,"▁대성":16801,"▁않지만,":16802,"▁것이,":16803,"하는데,":16804,"▁오죽":16805,"▁조합":16806,"▁도취":16807,"▁속해":16808,"▁발짝":16809,"▁하나같이":16810,"▁면회":16811,"▁흥분한":16812,"▁아파트로":16813,"▁은밀히":16814,"작가":16815,"▁수업을":16816,"▁앉을":16817,"▁뭐든지":16818,"▁머리와":16819,"▁덮쳐":16820,"어놓은":16821,"▁이끌려":16822,"▁연결된":16823,"비서":16824,"유럽":16825,"장이었다.":16826,"▁대나무":16827,"▁안가":16828,"▁연대":16829,"▁금요일":16830,"▁숨기":16831,"▁되었는지":16832,"▁집어던":16833,"▁떼고":16834,"▁람세스는":16835,"▁의무를":16836,"▁입맞춤":16837,"▁듣던":16838,"▁임금을":16839,"시키려는":16840,"▁공격해":16841,"▁떠올리며":16842,"▁20세기":16843,"▁우아한":16844,"선,":16845,"▁\"꼭":16846,"▁마차를":16847,"▁실비":16848,"▁어머니,":16849,"▁망가":16850,"▁이렇다":16851,"되며":16852,"이어서":16853,"진,":16854,"츠의":16855,"▁주소를":16856,"▁눈짓을":16857,"▁시체는":16858,"▁거기가":16859,"▁우월":16860,"▁도를":16861,"▁내려오":16862,"▁황소":16863,"▁끄고":16864,"▁비행기가":16865,"▁베트남":16866,"온을":16867,"▁이광":16868,"▁지갑":16869,"▁모범":16870,"▁선물로":16871,"▁응용":16872,"▁분위기에":16873,"▁기록되어":16874,"▁버렸다":16875,"▁돌이켜":16876,"▁본격적인":16877,"-4":16878,"▁다정하게":16879,"▁구사":16880,"▁\"그들은":16881,"▁용서를":16882,"▁모양인데":16883,"▁가족과":16884,"▁새겨져":16885,"당신이":16886,"보자.":16887,"▁한가지":16888,"▁때마침":16889,"▁오?":16890,"▁오솔":16891,"▁아니야":16892,"▁경례를":16893,"▁유령":16894,"▁것을,":16895,"▁하지요.":16896,"▁접시":16897,"▁하기야":16898,"부인과":16899,"출을":16900,"▁이윤":16901,"▁내야":16902,"▁여직":16903,"▁오디":16904,"▁신통":16905,"▁허나":16906,"▁에로":16907,"▁행동하는":16908,"▁휴게":16909,"▁여겨졌다.":16910,"▁터무니없는":16911,"BS":16912,"▁소크라테":16913,"▁조수":16914,"▁두번째":16915,"▁뒤로는":16916,"▁태운":16917,"▁든든":16918,"▁소년을":16919,"ne":16920,"알이":16921,"▁전까지만":16922,"▁관하여":16923,"▁진격":16924,"▁추상":16925,"▁이야기로":16926,"▁크기의":16927,"이지요.\"":16928,"▁급격":16929,"▁가운데는":16930,"0년에":16931,"▁혼란을":16932,"▁안녕히":16933,"▁제정신이":16934,"▁이화":16935,"▁아껴":16936,"▁남학생":16937,"▁발음":16938,"▁뒤적":16939,"▁실력을":16940,"▁간다고":16941,"▁천만":16942,"▁깊숙한":16943,"▁북한의":16944,"(D":16945,"당했다.":16946,"▁사주를":16947,"▁일개":16948,"▁조준":16949,"▁건져":16950,"▁라틴":16951,"▁쪽의":16952,"▁번째의":16953,"▁하더라도,":16954,"▁자존심을":16955,"▁안절부":16956,"\"에":16957,"▁as":16958,"▁마다":16959,"▁아니야.\"":16960,"▁백작":16961,"▁이미지를":16962,"▁그날의":16963,"▁여성들은":16964,"▁새끼가":16965,"▁매달린":16966,"적이라는":16967,"▁수작":16968,"▁아니었을":16969,"▁세가지":16970,"▁유부":16971,"▁열매를":16972,"▁처분":16973,"▁왔었다.":16974,"▁되어버린":16975,"▁\"이젠":16976,"▁사건으로":16977,"▁싫어서":16978,"▁실패한":16979,"'s":16980,"'도":16981,"야를":16982,"했으므로":16983,"▁대할":16984,"▁고모가":16985,"▁손도":16986,"▁영신은":16987,"▁감춰":16988,"▁깨고":16989,"주의에":16990,"▁검사를":16991,"▁발견하게":16992,"▁작업이":16993,"▁물질이":16994,"시니":16995,"씩을":16996,"었으며,":16997,"철학":16998,"카이":16999,"▁보물":17000,"▁그녀들은":17001,"▁손길을":17002,"▁적게":17003,"▁김주":17004,"▁친히":17005,"▁아닌,":17006,"▁좋아할":17007,"▁견해":17008,"▁털이":17009,"▁떠오른다.":17010,"▁것조차":17011,"▁사격":17012,"▁내서":17013,"▁방바닥에":17014,"▁본부":17015,"▁최성":17016,"▁운전을":17017,"▁탁월한":17018,":이":17019,"▁자각":17020,"▁유발":17021,"▁3개월":17022,"▁짐이":17023,"▁드러내는":17024,"▁고통에":17025,"▁그려진":17026,"▁눈물로":17027,"▁달러를":17028,"네시아":17029,"주인이":17030,"초부터":17031,"▁대책":17032,"▁하나밖에":17033,"▁왔고,":17034,"▁격렬하게":17035,"▁늙어":17036,"입니다\"":17037,"\"를":17038,"▁에게":17039,"요..":17040,"▁\"매":17041,"▁모방":17042,"▁전락":17043,"▁상한":17044,"▁입맛을":17045,"▁성난":17046,"▁벌린":17047,"▁김희":17048,"▁특성을":17049,"▁코스":17050,"▁끄덕거렸다.":17051,"▁딱한":17052,"▁기쁨이":17053,"▁망설이":17054,"▁아님을":17055,"▁중위가":17056,"▁들어왔":17057,"▁통하지":17058,"▁빠져나갔다.":17059,"▁\"여기서":17060,"너무":17061,"담에":17062,"▁수건을":17063,"▁드러나는":17064,"▁패턴":17065,"랑한":17066,"일곱":17067,"▁생략":17068,"▁앉는":17069,"▁친구인":17070,"▁취향":17071,"▁코트를":17072,"▁흔들렸다.":17073,"▁장소로":17074,"▁무덤을":17075,"▁말인가?\"":17076,"나에":17077,"▁바야":17078,"▁부부의":17079,"▁방법에":17080,"▁띄는":17081,"▁어지럽":17082,"겨를":17083,"시험":17084,"했으나,":17085,"▁있죠.":17086,"▁하품을":17087,"▁같지가":17088,"▁안쪽":17089,"▁조약":17090,"▁의원은":17091,"...”":17092,"▁몇십":17093,"▁바라본":17094,"▁알고는":17095,"▁뒷걸음":17096,"▁개인적으로":17097,"되,":17098,"박혀":17099,"▁수보":17100,"▁무명은":17101,"▁제의를":17102,"▁원정":17103,"▁회장은":17104,"들어가는":17105,"▁충청":17106,"▁풀리지":17107,"▁약간은":17108,"▁아닙니까?\"":17109,"▁동생의":17110,"단에서":17111,"▁않나":17112,"▁선사":17113,"▁후계":17114,"▁모으고":17115,"▁라는":17116,"▁댔다.":17117,"기사":17118,"놓지":17119,"로몬":17120,"▁바친":17121,"▁분간":17122,"▁호박":17123,"▁충고를":17124,"▁술한":17125,"▁투명":17126,"▁읽기":17127,"▁현실이":17128,"▁종교의":17129,"▁옳다고":17130,"▁공포의":17131,"소서.\"":17132,"ud":17133,"▁닷":17134,"몸을":17135,"하네.":17136,"▁이어진":17137,"▁한계가":17138,"▁알렸다.":17139,"▁차갑":17140,"▁벌렁":17141,"▁찾아왔다.":17142,"▁누구든":17143,"▁걱정하는":17144,"▁그들에게는":17145,"▁서양의":17146,"동도":17147,"혁명":17148,"▁대책을":17149,"▁기자가":17150,"▁생기지":17151,"▁소집":17152,"▁되던":17153,"▁세우는":17154,"▁저쪽에서":17155,"▁도사":17156,"▁없는,":17157,"▁누구라도":17158,"▁거기까지":17159,"▁어둠에":17160,"▁조심스레":17161,"▁쌀을":17162,"▁노릇이었다.":17163,"▁노려보았다.":17164,"▁자전거를":17165,"▁혔다.":17166,"▁지식이":17167,"▁과정에":17168,"▁왕세":17169,"▁로렌":17170,"▁미국과":17171,"▁육체가":17172,"▁북부":17173,"▁\"사실":17174,"▁태어나서":17175,"▁내쉬며":17176,"▁털어놓았다.":17177,"▁황홀한":17178,"▁잔잔한":17179,"보자":17180,"▁이산":17181,"▁대장은":17182,"▁하나?":17183,"▁드리고":17184,"▁울면서":17185,"▁되었는데,":17186,"▁일본으로":17187,"▁달려왔다.":17188,"▁재미있게":17189,"▁이긴":17190,"▁한글":17191,"▁일상적인":17192,"▁거둔":17193,"▁빠지고":17194,"▁에리카":17195,"▁칼라":17196,"▁가져와":17197,"▁가족은":17198,"▁불빛에":17199,"▁지시했다.":17200,"▁조나단은":17201,"르와":17202,"인이었다.":17203,"▁소식은":17204,"▁영화가":17205,"▁아이와":17206,"▁회사가":17207,"▁사람들이었다.":17208,"▁알았어.":17209,"▁못했다는":17210,"▁무릎에":17211,"▁하였습니다.":17212,"▁무수히":17213,"래.":17214,"수사":17215,"지마는":17216,"▁동북":17217,"▁'내가":17218,"▁속마":17219,"▁따돌":17220,"▁단백":17221,"▁매고":17222,"▁김지":17223,"▁자연을":17224,"ine":17225,"▁인물로":17226,"▁무엇이든지":17227,"바가":17228,"▁아부":17229,"▁않습니다.\"":17230,"▁거고":17231,"▁생각나는":17232,"▁그것과":17233,"▁강동":17234,"▁김씨":17235,"▁확고":17236,"▁옷에":17237,"▁아닙니다.\"":17238,"▁싸움에":17239,")도":17240,"강은":17241,"▁전용":17242,"▁상속":17243,"▁코트":17244,"▁20여":17245,"▁내리기":17246,"▁여름에":17247,"▁흐느끼":17248,"▁냉장고":17249,"실하게":17250,"▁\"분":17251,"▁말았습니다.":17252,"▁거냐?":17253,"▁주장이":17254,"▁공주가":17255,"▁'성":17256,"▁열대":17257,"인가요?\"":17258,"▁필요하다고":17259,"▁취하는":17260,"▁쓸고":17261,"▁바닥에서":17262,"▁무엇인가가":17263,"검사":17264,"곤하였다.":17265,"론과":17266,"아비":17267,"▁전인":17268,"▁계산을":17269,"▁과도":17270,"▁여러분,":17271,"▁마디도":17272,"▁돌아다니며":17273,"주려고":17274,"▁이원":17275,"▁사람입니다.":17276,"▁되자,":17277,"▁두른":17278,"▁물었습니다.":17279,"▁동조":17280,"▁돌릴":17281,"▁연설을":17282,"▁투표":17283,"났을":17284,"박하고":17285,"▁내포":17286,"▁바치는":17287,"▁부사":17288,"▁안심이":17289,"▁얼떨":17290,"▁선포":17291,"▁개성":17292,"▁대답했다":17293,"▁히말":17294,"▁봄에":17295,"▁눈앞이":17296,"붙은":17297,"탕한":17298,"파로":17299,"▁이년":17300,"▁시카":17301,"▁주었습니다.":17302,"▁고의":17303,"▁들어,":17304,"▁공중에":17305,"▁앞두고":17306,"▁리처":17307,"▁고통과":17308,"▁연구가":17309,"▁영화는":17310,"▁비난을":17311,"궁은":17312,"테의":17313,"▁모릅":17314,"▁방학":17315,"▁반해":17316,"▁데모":17317,"▁천장을":17318,"시키고,":17319,"▁베개":17320,"▁빠져들었다.":17321,"▁나오면서":17322,"▁운동의":17323,"▁혁명을":17324,"쯤으로":17325,"▁무방":17326,"▁안색이":17327,"▁아니나":17328,"▁유방":17329,"▁죽자":17330,"▁잘려":17331,"▁보내야":17332,"▁경험한":17333,"▁불행을":17334,"▁물질의":17335,"▁맘에":17336,"▁부풀어":17337,"말고는":17338,"▁싸구려":17339,"▁모여서":17340,"▁일주일에":17341,"▁아랫도":17342,"▁주위에는":17343,"해!\"":17344,"혜를":17345,"▁하염":17346,"▁일순":17347,"▁내걸":17348,"▁입구를":17349,"▁차리":17350,"▁군인이":17351,"▁될까":17352,"다니고":17353,"▁섬을":17354,"▁SS":17355,"▁눈치채":17356,"밀히":17357,"심하게":17358,
[...]
